{"</s>": 0, "<unk>": 1, ".": 2, ",": 3, "\u2581-": 4, "?": 5, "\u060c": 6, "\u064b": 7, "\u064e": 8, "\u061f": 9, "\u2581die": 10, "\u2581\u0645\u0646": 11, "\u2581ist": 12, "\u2581Ich": 13, "\u2581\u0641\u064a": 14, "\u2581ich": 15, "\u2581nicht": 16, "\u2581und": 17, "\u2581(": 18, "\u0651": 19, "\u2581Sie": 20, "\u2581der": 21, "\u0627": 22, "!": 23, "\u2581\u0644\u0627": 24, "\u2581\u0623\u0646": 25, "\u2581das": 26, "\u0650": 27, "\u064f": 28, "\u2581du": 29, "\u2581zu": 30, "\u0647": 31, "\u2581\u0648": 32, "...": 33, "\u2581es": 34, "\u064a": 35, "\u0629": 36, "\u2581\u0647\u0630\u0627": 37, ")": 38, "\u2581\u0639\u0644\u0649": 39, "\u2581.": 40, "\u2581\"": 41, "s": 42, "\u2581in": 43, "\u2581\u060c": 44, "\u2581sie": 45, "\u2581\u0645\u0627": 46, "\u2581\u061f": 47, "\u2581ein": 48, "en": 49, "\u0643": 50, "\u2581den": 51, "\u2581mit": 52, "\u2581wir": 53, "\u2581auf": 54, "\u2581dass": 55, "\u2581": 56, "\u2581Das": 57, "\u0652": 58, "\u0646": 59, "\u2581von": 60, "e": 61, "\u2581mir": 62, "\u2581\u0630\u0644\u0643": 63, "n": 64, "\u2581eine": 65, "\u0647\u0627": 66, "\u2581f\u00fcr": 67, "\u2581er": 68, "\u2581\u0623\u0646\u0627": 69, "\u2581\u064a\u0627": 70, "\u2581was": 71, "\u2581mich": 72, "\u2581\u0644\u0645": 73, "\u2581\u0625\u0644\u0649": 74, "\u2581\u0647\u0644": 75, "-": 76, "\u0645": 77, "\u2581Du": 78, "\u2581hat": 79, "\u2581Was": 80, "\u2581,": 81, "\u2581an": 82, "\u062a": 83, "\u2581\u0644\u0642\u062f": 84, "\u2581sind": 85, "\"": 86, "\u2581Und": 87, "\u2581haben": 88, "\u0640": 89, "\u2581war": 90, "\u2581Es": 91, "\u2581sich": 92, "\u2581Wir": 93, "\u2581\u0643\u0627\u0646": 94, "\u2581\u0639\u0646": 95, "\u2581so": 96, "\u064a\u0646": 97, "\u2581wie": 98, "\u2581\u0623\u0646\u062a": 99, "\u2581\u0627\u0646": 100, "\u2581dich": 101, "\u2581\u0645": 102, "\u2581dem": 103, "\u2581habe": 104, "\u0646\u0627": 105, "\u0644": 106, "\u2581\u064a": 107, "\u2581Er": 108, "\u2581\u0628": 109, "\u2581\u0647\u0646\u0627": 110, "\u2581\u0647\u0630\u0647": 111, "\u2581\u0647\u0648": 112, "\u2581hier": 113, "\u0648\u0646": 114, "\u2581\u0644": 115, "\u2581\u0645\u0627\u0630\u0627": 116, "\u2581einen": 117, "\u2581uns": 118, "\u2581\u0643\u0644": 119, "\u2581Die": 120, "\u2581bin": 121, "\u2581\u062d\u0633\u0646\u0627": 122, "\u2581noch": 123, "\u2581um": 124, "\u2581aus": 125, "\u2581dir": 126, "\u2581als": 127, "\u0627\u062a": 128, "\u0631": 129, "\u2581nur": 130, "\u2581\u0623": 131, "\u0648\u0627": 132, "\u2581\u062a": 133, "\u2581...": 134, "\u0649": 135, "\u2581im": 136, "\u2581sein": 137, ":": 138, "\u2581wird": 139, "\u2581Nein": 140, "\u2581wenn": 141, "\u2581auch": 142, "\u2581Ja": 143, "\u2581\u0645\u0639": 144, "\u062f": 145, "\u2581aber": 146, "\u2581\u0627\u0644\u0630\u064a": 147, "\u2581kann": 148, "\u2581\u0643\u0646\u062a": 149, "\u2581des": 150, "er": 151, "\u2581ihr": 152, "\u2581ihn": 153, "\u2581\u0647\u0646\u0627\u0643": 154, "\u2581werden": 155, "\u0647\u0645": 156, "\u2581Aber": 157, "\u2581hast": 158, "\u2581\u0644\u064a\u0633": 159, "'": 160, "\u2581oder": 161, "\u2581\u0627\u0644\u0622\u0646": 162, "\u2581da": 163, "\u2581Wie": 164, "\u2581\u0627\u0644\u062a\u064a": 165, "\u2581\u0634\u064a\u0621": 166, "\u0648": 167, "\u2581\u0627\u0644": 168, "\u2581schon": 169, "\u2581\u0623\u064a": 170, "\u2581nach": 171, "\u2581\u0625\u0646": 172, "\u2581\u0644\u0643": 173, "\u2581\u0644\u0643\u0646": 174, "\u0628": 175, "\u2581\u0644\u0646": 176, "\u2581\u00fcber": 177, "t": 178, "\u0651\u064e": 179, "\u2581wei\u00df": 180, "\u2581\u0644\u064a": 181, "\u2581meine": 182, "\u2581\u0641\u0642\u0637": 183, "\u2581!": 184, "\u2581\u0623\u0648": 185, "\u2581gut": 186, "\u2581\u0625\u0630\u0627": 187, "\u0639": 188, "\u0646\u064a": 189, "\u2581bist": 190, "\u2581bei": 191, "\u2581\u0627\u0644\u0645": 192, "\u2581vor": 193, "\u2581\u00bb": 194, "\u2581\u0647\u064a": 195, "\u2581Der": 196, "\u0633": 197, "\u2581\u00ab": 198, "\u2581Wenn": 199, "\u2581mal": 200, "\u2581\u064a\u062c\u0628": 201, "\u2581..": 202, "\u2581jetzt": 203, "\u2581\u0646\u0639\u0645": 204, "\u2581\u0642\u062f": 205, "\u2581etwas": 206, "\u2581:": 207, "\u2581\u0646": 208, "\u2581dann": 209, "\u2581mehr": 210, "\u2581\u0644\u0644": 211, "\u2581man": 212, "\u0644\u0627": 213, "\u2581\u0643\u064a\u0641": 214, "\u064a\u0629": 215, "\u2581einem": 216, "\u2581muss": 217, "\u2581einer": 218, "\u2581keine": 219, "\u2581\u0643\u0627\u0646\u062a": 220, "\u2581mein": 221, "\u2581k\u00f6nnen": 222, "\u2581\u0627\u0644\u0649": 223, "\u2581will": 224, "\u2581immer": 225, "\u2581)": 226, "st": 227, "\u2581alles": 228, "\u2581\u0643": 229, "\u2581\u0628\u0639\u062f": 230, "\u2581doch": 231, "\u2581\u0628\u0627\u0644": 232, "\u2581\u0623\u062c\u0644": 233, "\u0627\u0646": 234, "\u2581\u0625\u0646\u0647": 235, "\u2581\u0627\u0644\u0623\u0645\u0631": 236, "\u2581\u0648\u0644\u0643\u0646": 237, "\u2581\u0623\u0646\u0647": 238, "\u2581\u0641": 239, "\u2581ja": 240, "\u0627\u0644": 241, "\u2581geht": 242, "\u2581\u0648\u0627\u0644": 243, "\u2581zum": 244, "\u2581\u0639\u0646\u062f\u0645\u0627": 245, "\u2581wieder": 246, "\u2581nichts": 247, "\u2581tun": 248, "\u2581Ihr": 249, "\u2581Oh": 250, ")\u060c": 251, "\u2581\u0646\u062d\u0646": 252, "\u2581ihm": 253, "\u2581\u062d\u062a\u0649": 254, "\u2581\u0640": 255, "\u2581alle": 256, "\u2581\u0633\u0648\u0641": 257, "\u2581\u0642\u0628\u0644": 258, "\u2581diese": 259, "\u0641": 260, "\u0642": 261, "\u2581sagen": 262, "\u2581machen": 263, "\u2581\u062c\u062f\u0627": 264, "\u2581\u0641\u0649": 265, "\u2581m\u00fcssen": 266, "\u2581\u0643\u0630\u0644\u0643": 267, "\u2581Mann": 268, "\u2581Ihnen": 269, "\u2581\u0627\u0646\u0627": 270, "\u2581\u0644\u0648": 271, "\u2581gibt": 272, "\u2581Zeit": 273, "\u2581Ein": 274, "\u0645\u0627": 275, "\u2581\u0644\u0645\u0627\u0630\u0627": 276, "\u2581\u062a\u0644\u0643": 277, "\u2581\u0628\u0639\u0636": 278, "\u2581\u0628\u0647": 279, "\u2581wurde": 280, "..": 281, "\u2581zur": 282, "\u2581sehen": 283, "\u2581w\u00fcrde": 284, "\u2581\u0671\u0644": 285, "\u2581\u064a\u0643\u0648\u0646": 286, "\u2581werde": 287, "\u2581hab": 288, "\u2581sehr": 289, "\u2581durch": 290, "\u2581Gott": 291, "\u2581\u201e": 292, "\u2581hatte": 293, "\u2581Ist": 294, "\u2581euch": 295, "r": 296, "\u2581einfach": 297, "\u2581\u0639\u0644\u064a\u0643": 298, "\u2581gehen": 299, "\u064d": 300, "\u2581In": 301, "\u2581\u0633\u064a": 302, "\u2581wissen": 303, "\u0623": 304, "\u064c": 305, "\u2581\u0627\u0646\u0647": 306, "\u2581\u0643\u0645\u0627": 307, "\u2581Warum": 308, "\u2581Also": 309, "es": 310, "\u2581\u0623\u0646\u0643": 311, "\u2581\u0627": 312, "\u2581am": 313, "\u062d": 314, "\u2581\u063a\u064a\u0631": 315, "\u2581denn": 316, "\u2581\u0623\u0639\u0631\u0641": 317, "\u2581nie": 318, "\u2581\u0639\u0644\u064a": 319, "\u2581\u0625\u0646\u0647\u0627": 320, "\u2581\u0631\u0628\u0645\u0627": 321, "\u2581Leben": 322, "\u2581\u0623\u064a\u0646": 323, "\u2581wirklich": 324, "\u2581\u0634\u0643\u0631\u0627": 325, "\u2581deine": 326, "\u2581ihre": 327, "\u2581\u0628\u0623\u0646": 328, "\u2581viel": 329, "\u062c": 330, ";": 331, "\u2581So": 332, ")\u061f": 333, "\u2581damit": 334, "\u2581Hey": 335, "\u2581\u064a\u0645\u0643\u0646": 336, "\u2581\u0645\u062b\u0644": 337, "\u2581seine": 338, "\u2581\u0627\u0644\u0648\u0642\u062a": 339, "\u2581\u0623\u064a\u0636\u0627": 340, "\u2581ab": 341, "\u2581\u0623\u0631\u064a\u062f": 342, "\u2581\u0623\u062d\u062f": 343, "\u2581dieser": 344, "\u2581\u0627\u0644\u0644\u0647": 345, "\u2581\u0623\u0643\u062b\u0631": 346, "\u2581los": 347, "\u2581\u0623\u0639\u062a\u0642\u062f": 348, "\u2581Danke": 349, ").": 350, "\u2581w\u00e4re": 351, "\u2581soll": 352, "\u2581zur\u00fcck": 353, "/": 354, "\u2581gesagt": 355, "\u2581Da": 356, "\u0651\u0650": 357, "\u0643\u0645": 358, "\u2581\u062a\u0643\u0648\u0646": 359, "\u2581\u062d\u0642\u0627": 360, "\u2581Wo": 361, "\u2581Okay": 362, "\u2581Menschen": 363, "\u2581\u0634\u062e\u0635": 364, "\u2581unter": 365, "\u2581\u0627\u0646\u062a": 366, "\u2581\u0644\u062f\u064a": 367, "\u2581kein": 368, "\u2581\u0647\u064a\u0627": 369, "\u2581wollte": 370, "\u2581\u0639\u0644\u064a\u0647": 371, "\u2581wo": 372, "\u2581Dann": 373, "\u2581waren": 374, "\u2581\u0627\u0644\u064a\u0648\u0645": 375, "\u2581\u0635\u062d\u064a\u062d": 376, "\u2581\u0644\u0633\u062a": 377, "\u2581\u0639": 378, "\u2581bis": 379, "\u2581\u0644\u0647": 380, "\u2581also": 381, "\u2581\u0623\u0639\u0644\u0645": 382, "\u2581vom": 383, "\u2581\u0622\u062e\u0631": 384, "\u2581\u0631\u062c\u0644": 385, "\u2581heute": 386, "\u2581\u0648\u0644\u0627": 387, "\u062a\u064a": 388, "\u2581\u064a\u0645\u0643\u0646\u0643": 389, "\u2581bitte": 390, "\u2581Wer": 391, "\u2581\u0628\u062e\u064a\u0631": 392, "\u2581\u0633\u062a": 393, "\u2581Komm": 394, "\u2581\u0643\u0644\u0627": 395, "\".": 396, "\u2581Nicht": 397, "\u2581\u0625": 398, "\u2581\u0627\u0644\u0646\u0627\u0633": 399, "d": 400, "\u2581\u0628\u0647\u0627": 401, "\u2581k\u00f6nnte": 402, "\u2581\u0644\u0630\u0627": 403, "\u2581\u0645\u0646\u0630": 404, "\u2581wollen": 405, "\u2581weil": 406, "\u2581sicher": 407, "\u2581dein": 408, "\u0640\u0640": 409, "\u2581Frau": 410, "\u2581\u0634\u064a\u0626\u0627": 411, "\u0632": 412, "\u2581meinen": 413, "\u2581\u062b\u0645": 414, "\u2581\u0647": 415, "\u2581h\u00e4tte": 416, "\u2581lassen": 417, "\u2581anderen": 418, "\u2581\u064a\u0628\u062f\u0648": 419, "\u2581kommen": 420, "\u2581'": 421, "\u2581Leute": 422, "\u2581Ihre": 423, "\u2581\u0644\u062f\u064a\u0643": 424, "\u2581sagte": 425, "\u062a\u0643": 426, "\u2581zwei": 427, "\u2581\u0628\u064a\u0646": 428, "\u2581\u0633": 429, "\u2581\u0645\u0631\u062d\u0628\u0627": 430, "\u2581ihnen": 431, "\u2581tut": 432, "\u2581leid": 433, "\u2581Hier": 434, "m": 435, "\u0647\u0644": 436, "\u2581sollte": 437, "\u0634": 438, "\u2581weg": 439, "\u2581\u0648\u064a": 440, "\u2581Welt": 441, "\u2581kommt": 442, "\u2581\u0627\u0644\u0645\u062a\u062d\u062f\u0629": 443, "\u2581\u0623\u0644\u064a\u0633": 444, "\u2581gerade": 445, "\u2581\u0628\u0643": 446, "\u2581\u062c\u064a\u062f": 447, "\u2581Na": 448, "\u2581selbst": 449, "\u2581kannst": 450, "\u2581\u0623\u064a\u0647\u0627": 451, "\u2581Vater": 452, "\u062b": 453, "\u2581ganz": 454, "\u2581Vielleicht": 455, "\u2581\u0648\u0627\u062d\u062f": 456, "\u2581\u062a\u0631\u064a\u062f": 457, "\u2581\u0627\u0644\u0631\u062c\u0644": 458, "\u2581\u0648\u0642\u062a": 459, "\u2581\u0628\u0645\u0627": 460, "\u2581Tag": 461, "\u2581\u0645\u0631\u0629": 462, "\u2581willst": 463, "\u0627\u0621": 464, "\u2581Nun": 465, "\u062a\u0647": 466, "\u2581vielleicht": 467, "\u2581Eine": 468, "\u061b": 469, "\u2581nein": 470, "\u2581\u0627\u0646\u0647\u0627": 471, "\u2581\u062a\u0639\u0631\u0641": 472, "in": 473, "\u2581Mein": 474, "\u2581\u0628\u064a": 475, "\u2581\u0645\u0643\u0627\u0646": 476, "\u2581\u0644\u062f\u064a\u0646\u0627": 477, "\u2581ob": 478, "\u2581gesehen": 479, "\u2581gemacht": 480, "\u0637": 481, "\u2581diesen": 482, "\u2581\u0623\u062e\u0631\u0649": 483, "\u2581\u2014": 484, "\u2581macht": 485, "\u2581\u0623\u0646\u0647\u0627": 486, "\u2581diesem": 487, "\u2581glaube": 488, "(": 489, "\u2581\u0623\u0633\u062a\u0637\u064a\u0639": 490, "\u2581\u0633\u0623": 491, "\u2581unsere": 492, "\u2581Alles": 493, "\u2581\u0644\u064a\u0633\u062a": 494, "\u0636": 495, ".\"": 496, "\u2581\u0627\u0644\u0643\u062b\u064a\u0631": 497, "\u2581\u0627\u0644\u0639\u0627\u0644\u0645": 498, "\u2581\u062d\u062f\u062b": 499, "\u2581passiert": 500, "\u2581Geld": 501, "\u2581\u0623\u0641\u0636\u0644": 502, "\u2581\u0643\u0645": 503, "\u2581\u0644\u0623\u0646": 504, "\u2581Jetzt": 505, "\u2581\u064a\u0643\u0646": 506, "\u2581\u0639\u0644\u064a\u0646\u0627": 507, "\u2581reden": 508, "\u2581keinen": 509, "\u2581Bitte": 510, "\u2581\u0623\u0646\u0646\u064a": 511, "\u2581\u0633\u064a\u0643\u0648\u0646": 512, "\u2581finden": 513, "\u2581\u062a\u0645": 514, "\u2581\u0627\u0630\u0627": 515, "\u2581\u064a\u0645\u0643\u0646\u0646\u064a": 516, "\u2581\u0627\u0644\u0630\u064a\u0646": 517, "\u2581\u0627\u0644\u0639\u0645\u0644": 518, "\u2581\u202b": 519, "\u2581raus": 520, "\u2581dieses": 521, "\u2581paar": 522, "\u2581dachte": 523, "\u2581helfen": 524, "\u2581eines": 525, "\u2581\u0628\u0647\u0630\u0627": 526, "\u2581\u0627\u0644\u0627": 527, "\u2581wei\u00dft": 528, "\u2581Mr": 529, "\u2581\u064a\u0648\u0645": 530, "ung": 531, "\u2581Mutter": 532, "\u2581hin": 533, "\u2581Hast": 534, "\u2581\u0634\u0626": 535, "\u2581andere": 536, "\u2581[": 537, "\u2581klar": 538, "\u2581\u062a\u0641\u0639\u0644": 539, "\u2581davon": 540, "\u2581musst": 541, "\u2581meiner": 542, "\u2581ver": 543, "\u2581\u062d\u0633\u0646": 544, "\u2581m\u00f6chte": 545, "\u2581weiter": 546, "\u2581Auf": 547, "\u2581Gut": 548, "\u2581Mal": 549, "\u2581jemand": 550, "\u2581\u0628\u0630\u0644\u0643": 551, "\u2581\u062e\u0644\u0627\u0644": 552, "\u2581geh\u00f6rt": 553, "\u2581besser": 554, "\u0635": 555, "\u2581gegen": 556, "\u2581zusammen": 557, "\u2581Weg": 558, "\u0630": 559, "\u2581sollten": 560, "\u064a\u0627": 561, "\u2581\u0628\u0644": 562, "\u2581Kinder": 563, "\u2581wohl": 564, "\u2581\u0644\u0647\u0627": 565, "\u2581meinem": 566, "\u2581her": 567, "\u2581viele": 568, "\u2581\u0627\u0648": 569, "\u2581\u0648\u062a": 570, "\u2581\u0642\u0644\u062a": 571, "\u2581Als": 572, "\u2581\u0633\u0646": 573, "\u2581ohne": 574, "\u0623\u0646\u0627": 575, "\u0645\u0646": 576, "\u2581\u0645\u0639\u0643": 577, "\u0641\u064a": 578, "\u2581Meine": 579, "\u2581\u0633\u064a\u062f\u064a": 580, "\u2581Sir": 581, "\u2581\u0648\u0627\u062d\u062f\u0629": 582, "\u2581\u0628\u0634\u0623\u0646": 583, "\u2581Nacht": 584, "\u2581wer": 585, "\u2581genau": 586, "\u2581\u0622\u0633\u0641": 587, "\u2581\u0642": 588, "\u2581\u062c\u0645\u064a\u0639": 589, "\u2581\u064a\u0648\u062c\u062f": 590, "\u2581\u0648\u0623\u0646\u0627": 591, "\u2581wirst": 592, "\u2581Haus": 593, "\u2581Keine": 594, "\u2581lange": 595, "\u062a\u0647\u0627": 596, "\u2581\u0623\u0645": 597, "\u2581denke": 598, "\u2581\u064a\u062d\u062f\u062b": 599, "\u0645\u0627\u0630\u0627": 600, "\u2581\u0628\u0634\u0643\u0644": 601, "\u2581\u0642\u0627\u0644": 602, "\u2581ins": 603, "\u2581ihrer": 604, "\u062e": 605, "\u2581sagt": 606, "\u2581seinen": 607, "\u2581\u062d": 608, "\u2581geben": 609, "\u2581\u0641\u064a\u0647": 610, "\u2581\u0641\u0639\u0644": 611, "\u2581daf\u00fcr": 612, "\u2581warum": 613, "\u2581Ordnung": 614, "o": 615, "\u2581Hallo": 616, "y": 617, "\u2581dort": 618, "\u2581getan": 619, "\u25812": 620, "\u2581\u062f\u0627\u0626\u0645\u0627": 621, "\u2581\u0623\u0644\u0627": 622, "\u2581\u062d\u0648\u0644": 623, "\u2581\u0639\u0644\u064a\u0647\u0627": 624, "\u0651\u064f": 625, "\u2581\u0644\u0630\u0644\u0643": 626, "ne": 627, "\u2581Nur": 628, "\u2581rein": 629, "\u2581Mit": 630, "\u2581Jahre": 631, "\u0644\u0642\u062f": 632, "\u2581ihren": 633, "\u2581\u0645\u0639\u064a": 634, "\u2581\u0644\u062a": 635, "\u2581okay": 636, "\u2581seiner": 637, "\u2581Man": 638, "\u2581\u062a\u0639\u0644\u0645": 639, "\u2581\u0631\u0627\u0626\u0639": 640, "a": 641, "\u2581Lass": 642, "\u2581\u0648\u0641\u064a": 643, "\u2581Ge": 644, "\u2581\u062d\u064a\u062b": 645, "\u2581\u0644\u0646\u0627": 646, "\u2581\u0644\u0647\u0630\u0627": 647, "\u2581deinen": 648, "\u2581gleich": 649, "\u064a\u0647": 650, "\u2581Arbeit": 651, "\u25813": 652, "\u2581\u0627\u0644\u0639\u0627\u0645": 653, "\u2581wurden": 654, "\u2581\u0627\u0644\u0645\u0643\u0627\u0646": 655, "\u2581M\u00e4dchen": 656, "\u2581Hause": 657, "\u2581Jahren": 658, "\u2581\u0648\u0645\u0646": 659, "\u2581Nationen": 660, "\u2581drei": 661, "\u2581\u0648\u0647\u0648": 662, "\u2581\u0623\u0628\u062f\u0627": 663, "\u2581Familie": 664, "\u2581sollen": 665, "\u2581\u0627\u064a": 666, "\u2581\u062a\u0645\u0627\u0645\u0627": 667, "\u2581Freund": 668, "\u2581dazu": 669, "\u2581\u0627\u0644\u0627\u0646": 670, "\u2581\u0625\u0630\u0646": 671, "\u2581\u062d\u0627\u0644": 672, "\u2581Hilfe": 673, "\u2581\u0641\u064a\u0647\u0627": 674, "\u2581\u0648\u0647\u0630\u0627": 675, "\u2581\u0639\u0645\u0644": 676, "\u2581gar": 677, "\u2581\u0623\u0645\u0631": 678, "\u2581\u0639\u0627\u0645": 679, "\u2581\u0647\u0645": 680, "\u2581\u0648\u0642\u062f": 681, "\u062a\u0646\u0627": 682, "\u2581\u0639\u0646\u062f": 683, "\u2581wegen": 684, "\u0647\u0630\u0627": 685, "\u2581\u0648\u0645": 686, "\u2581Diese": 687, "\u2581dabei": 688, "\u201c": 689, "\u2581sei": 690, "\u2581\u0623\u0628\u064a": 691, "\u2581bringen": 692, "te": 693, "\u2581Weil": 694, "\u2581tot": 695, "\u2581\u0641\u062d\u0633\u0628": 696, "\u2581\u0628\u0627\u0644\u0637\u0628\u0639": 697, "\u2581\u0627\u0644\u0623\u0645\u0645": 698, "\u0646\u0649": 699, "\u2581Wieso": 700, "\u2581Vereinte": 701, "\u2581seit": 702, "\u2581\u0641\u0642\u062f": 703, "\u2581einmal": 704, "\u2581hatten": 705, "\u2581Tut": 706, "\u2581\u064a\u0645\u0643\u0646\u0646\u0627": 707, "\u2581\u0641\u0639\u0644\u062a": 708, "\u2581\u0627\u0644\u062d\u0642\u064a\u0642\u0629": 709, "\u0644\u0645": 710, "\u2581ganze": 711, "\u2581\u0647\u0643\u0630\u0627": 712, "\u2581dar\u00fcber": 713, "\u2581bleiben": 714, "\u2581sch\u00f6n": 715, "\u2581\u0627\u0644\u0644\u064a\u0644\u0629": 716, "S": 717, "\u2581Problem": 718, "\u0627\u0645": 719, "\u2581S": 720, "\u2581\u0643\u062b\u064a\u0631\u0627": 721, "\u2581\u0645\u0646\u0643": 722, "\u2581Angst": 723, "\u2581richtig": 724, "\u2581konnte": 725, "\u2581\u0648\u0623": 726, "\u2581brauchen": 727, "\u2581Doch": 728, "\u2581unser": 729, "\u2581\u0633\u064a\u062f": 730, "\u25811": 731, "\u2581Im": 732, "\u2581F\u00fcr": 733, "\u2581zwischen": 734, "\u2581Sohn": 735, "\u2581steht": 736, "\u2581\u0645\u0646\u0647": 737, "\u2581\u0627\u0644\u062d\u064a\u0627\u0629": 738, "\u2581be": 739, "de": 740, "\u2581Abend": 741, "\u2581\u0623\u0648\u0647": 742, "\u2581\u0639\u0646\u0647": 743, "\u2581\u0625\u0644\u0647\u064a": 744, "\u2581\u0641\u0625\u0646": 745, "\u2581Stadt": 746, "\u2581Los": 747, "\u2581\u064a\u0639\u0646\u064a": 748, "\u2581\u0642\u0644\u064a\u0644\u0627": 749, "\u2581\u0627\u0644\u062c\u0645\u064a\u0639": 750, "\u2581Seite": 751, "\u2581\u0623\u0638\u0646": 752, "\u2581\u0627\u0644\u0623\u0648\u0644": 753, "\u2581\u0647\u0624\u0644\u0627\u0621": 754, "\u2581Haben": 755, "\u2581Dinge": 756, "A": 757, "\u062f\u064a": 758, "\u2581H\u00f6r": 759, "\u2581\u0647\u0627": 760, "\u2581\u062a\u062d\u062a": 761, "\u2581kam": 762, "\u2581\u062f\u0648\u0646": 763, "\u2581\u0644\u0623": 764, "\u2581\u0644\u062f\u064a\u0647": 765, "\u2581Fall": 766, "\u2581daran": 767, "\u2581\u0644\u0644\u063a\u0627\u064a\u0629": 768, "\u2581glauben": 769, "\u2581Oder": 770, "\u2581Jehova": 771, "\u2581sieht": 772, "\u2581genug": 773, "\u2581machst": 774, "\u2581\u0625\u0644\u0627": 775, "\u2581\u062d\u064a\u0646": 776, "\u2581Sache": 777, "\u2581Wei\u00dft": 778, "\u258110": 779, "\u2581da\u00df": 780, "\u2581\u0628\u0645": 781, "\u2581Grund": 782, "\u2581hei\u00dft": 783, "\u2581Schei\u00dfe": 784, "\u2581\u0628\u0633\u0628\u0628": 785, "\u2581\u0628\u0627\u0644\u0646\u0633\u0628\u0629": 786, "\u2581gefunden": 787, "\u2581Moment": 788, "\u2581gab": 789, "\u2581\u0645\u0646\u0647\u0627": 790, "\u2581\u0623\u0646\u0646\u0627": 791, "\u2581\u0625\u0644\u064a": 792, "\u2581Jahr": 793, "\u2581\u0646\u0641\u0633": 794, "\u258120": 795, "\u062d\u0633\u0646\u0627": 796, "\u2581denen": 797, "\u2581bevor": 798, "\u2581nun": 799, "\u0640(": 800, "\u2581darauf": 801, "\u2581Ok": 802, "\u2581h\u00f6ren": 803, "\u2581nehmen": 804, "\u2581\u0640\u0640": 805, "\u2581\u0627\u0644\u0645\u0627\u0644": 806, "\u2581\u0623\u0645\u064a": 807, "\u2581Art": 808, "\u2581brauche": 809, "\u0627\u0631": 810, "\u2581\u062a\u0642\u0648\u0644": 811, "\u2581\u062d\u0642": 812, "\u2581Namen": 813, "\u2581\u0627\u0644\u0643\u062a\u0627\u0628": 814, "\u2581w\u00fcrden": 815, "\u2581seinem": 816, "\u2581\u0644\u0643\u0645": 817, "\u2581\u0643\u0646\u0627": 818, "\u2581Bruder": 819, "\u2581beim": 820, "\u2581\u0645\u062a\u0649": 821, "\u0633\u064a": 822, "\u063a": 823, "\u0646\u0639\u0645": 824, "\u2581\u0645\u062c\u0631\u062f": 825, "\u2581\u0627\u0644\u0623\u0645\u0648\u0631": 826, "\u2581\u0641\u0643\u0631\u0629": 827, "\u2581Bist": 828, "\u2581\u0623\u0641\u0639\u0644": 829, "\u2581beide": 830, "\u2581\u0623\u062d\u0628": 831, "\u25815": 832, "\u2581\u0644\u0647\u0645": 833, "\u2581liebe": 834, "\u2581\u0648\u0623\u0646\u062a": 835, "\u0623\u062c\u0644": 836, "\u2581\u0627\u0644\u0630\u0647\u0627\u0628": 837, "\u2581k\u00f6nnten": 838, "\u2581Ende": 839, "\u2581habt": 840, "\u2581schnell": 841, "\u2581erst": 842, "\u2581An": 843, "\u2581Kind": 844, "\u2581\u0627\u0644\u0645\u0646\u0632\u0644": 845, "\u2581\u0623\u0643\u0648\u0646": 846, "\u064a\u0631": 847, "\u2581\u2013": 848, "\u2581Dr": 849, "\u2581\u0623\u0631\u062f\u062a": 850, "\u2581wusste": 851, "den": 852, "\u2581\u0627\u0644\u0637\u0631\u064a\u0642": 853, "\u2581bekommen": 854, "\u2581Hat": 855, "\u2581Ach": 856, "\u2581\u0628\u062d\u0642": 857, "\u2581Land": 858, "\u2581\u0627\u0644\u0634\u064a\u0621": 859, "\u2581halten": 860, "\u2581\u0633\u062a\u0643\u0648\u0646": 861, "\u2581\u0623\u0639\u0646\u064a": 862, "\u2581\u0645\u0645\u0627": 863, "\u2581\u0627\u0646\u0643": 864, "\u2581deiner": 865, "\u2581\u064a\u0647\u0648\u0647": 866, "\u2581gute": 867, "\u2581\u0631\u0623\u064a\u062a": 868, "\u2581\u0648\u0625\u0630": 869, "\u2581\u0627\u064a\u0636\u0627": 870, "\u2581sprechen": 871, "\u2581\u0633\u0646\u0629": 872, "\u2581\u0646\u062d\u0648": 873, "\u2581deinem": 874, "\u2581\u062a\u0633\u062a\u0637\u064a\u0639": 875, "\u2581Augen": 876, "\u2581Morgen": 877, "\u2581\u0645\u0639\u0647": 878, "\u2581A": 879, "\u2581\u0631": 880, "\u2581\u0627\u0644\u0639\u0627\u0645\u0629": 881, "\u2581\u0644\u0643\u064a": 882, "f": 883, "ge": 884, "\u2581Mach": 885, "\u2581allein": 886, "\u2581\u0628\u0627\u0644\u062a\u0623\u0643\u064a\u062f": 887, "\u25814": 888, "\u2581wahr": 889, "\u2581Um": 890, "\u2581M\u00e4nner": 891, "\u2581\u062c\u064a\u062f\u0629": 892, "\u0623\u0646\u062a": 893, "\u2581Kopf": 894, "\u258115": 895, "\u2581Frauen": 896, "\u2581\u062a\u0643\u0646": 897, "\u2581\u0648\u0627\u0644\u0645": 898, "\u2581Dad": 899, "\u2581\u0644\u0645\u0627": 900, "\u2581Frage": 901, "\u2581\u0644\u0644\u0645": 902, "\u2581\u0643\u0628\u064a\u0631": 903, "\u2581jeden": 904, "\u2581\u0630\u0627\u062a": 905, "\u2581\u062c\u062f\u064a\u062f": 906, "\u2581t\u00f6ten": 907, "\u2581Aus": 908, "\u2581\u062c\u064a\u062f\u0627": 909, "\u2581ge": 910, "\u2581\u0627\u0644\u062a": 911, "\u2581\u0648\u0645\u0627": 912, "\u2581\u0627\u0644\u0633": 913, "be": 914, "\u2581Sind": 915, "\u2581\u0627\u0644\u0644\u0639\u0646\u0629": 916, "\u0648\u0644": 917, "\u2581Gottes": 918, "\u2581\u0646\u0641\u0633\u0643": 919, "\u2581sowie": 920, "\u2581Wasser": 921, "\u2581\u064a\u0642\u0648\u0644": 922, "\u2581Sag": 923, "\u2581\u062c\u0645\u064a\u0639\u0627": 924, "\u2581seid": 925, "\u2581\u0628\u0627\u0644\u0641\u0639\u0644": 926, "\u2581Recht": 927, "\u2581weit": 928, "\u2581\u0628\u062d\u0627\u062c\u0629": 929, "\u2581\u0627\u0644\u062f\u0648\u0644": 930, "\u2581Ver": 931, "\u2581\u0627\u0644\u0648\u062d\u064a\u062f": 932, "\u2581B": 933, "\u2581denken": 934, "\u2581\u0643\u0627\u0646\u0648\u0627": 935, "\u2581\u0627\u0646\u0638\u0631": 936, "\u2581\u0627\u0644\u0633\u064a\u062f": 937, "\u2581K": 938, "\u2581Nat\u00fcrlich": 939, "\u2581\u0623\u0642\u0648\u0644": 940, "\u0644\u064a": 941, "\u2581Entwicklung": 942, "\u2581*": 943, "\u2581all": 944, "\u2581\u0648\u0623\u0646": 945, "\u2581Baby": 946, "\u2581\u062b\u0627\u0646\u064a\u0629": 947, "\u2581\u0628\u062f\u0648\u0646": 948, "\u2581\u0623\u0646\u064a": 949, "\u2581Auto": 950, "\u2581Liebe": 951, "\u2581Wahrheit": 952, "\u2581\u0642\u062a\u0644": 953, "\u2581\u0648\u0644\u0645": 954, "\u2581\u0623\u0631\u062c\u0648\u0643": 955, "\u2581Mir": 956, "\u2581fertig": 957, "\u2581mag": 958, "\u0648\u0647": 959, "\u2581\u0634": 960, "\u2581\u0627\u0644\u0646\u0627\u0631": 961, "\u2581\u0627\u0644\u0623\u0634\u064a\u0627\u0621": 962, "\u2581Kann": 963, "\u2581allen": 964, "\u2581\u0627\u0644\u0648\u0627\u0642\u0639": 965, "\u0627\u062f": 966, "\u2581\u0627\u0644\u0623\u0646": 967, "\u2581sp\u00e4ter": 968, "\u2581Junge": 969, "\u062a\u064a\u0646": 970, "\u2581\u062f\u0648\u0644\u0627\u0631": 971, "\u2581\u062a\u0628\u062f\u0648": 972, "\u2581Vor": 973, "\u2581\u0633\u0646\u0648\u0627\u062a": 974, "\u2581sage": 975, "\u2581\u0627\u0644\u062c\u062d\u064a\u0645": 976, "\u2581letzten": 977, "\u2581\u0628\u0623\u0633": 978, "\u2581Freunde": 979, "\u2581ging": 980, "\u2581neue": 981, "\u2581\u0627\u0644\u0645\u0642\u062f\u0633": 982, "k": 983, "\u2581\u0627\u062d\u062f": 984, "\u2581\u0645\u0634\u0643\u0644\u0629": 985, "\u2581bereit": 986, "\u2581gern": 987, "\u2581\u064a\u0639\u0631\u0641": 988, "\"\u061f": 989, "\u2581Hand": 990, "\u2581\u0628\u0647\u0630\u0647": 991, "\u2581sehe": 992, "\u2581\u062d\u0635\u0644\u062a": 993, "\u2581\u064a\u0631\u064a\u062f": 994, "\u2581jeder": 995, "\u2581\u0644\u0627\u0628\u062f": 996, "ten": 997, "\u2581leben": 998, "\u2581recht": 999, "\u2581\u062f": 1000, "\u2581komm": 1001, "\u2581\u0646\u0648\u0639": 1002, "\u201c.": 1003, "\u0648\u0631": 1004, "\u2581\u0628\u0646\u0627": 1005, "B": 1006, "\u2581\u0645\u0639\u0627": 1007, "\u2581\u0628\u0643\u0644": 1008, "i": 1009, "\u2581Teil": 1010, "\u2581\u0623\u0634\u0639\u0631": 1011, "em": 1012, "\u2581\u0633\u0645\u0639\u062a": 1013, "\u2581sondern": 1014, "\u2581bedeutet": 1015, "\u2581sterben": 1016, "\u064a\u0627\u062a": 1017, "\u2581mache": 1018, "\u2581Macht": 1019, "\u2581\u0623\u0631\u0649": 1020, "\u2581Wort": 1021, "\u2581\u062a\u0648\u0642\u0641": 1022, "\u2581stehen": 1023, "\u2581sofort": 1024, "\u2581Tod": 1025, "\u2581morgen": 1026, "\u2581sogar": 1027, "\u2581\u0625\u0644\u064a\u0647": 1028, "\u2581Mom": 1029, "\u2581hinter": 1030, "\u2581Minuten": 1031, "\u0648\u0633": 1032, "\u2581Zu": 1033, "\u2581Willst": 1034, "\u2581\u062a\u0639\u062a\u0642\u062f": 1035, "\u2581\u0627\u0644\u0646": 1036, "\u2581Dank": 1037, "\u2581\u0625\u0646\u0647\u0645": 1038, "\u2581Genau": 1039, "\u0625": 1040, "u": 1041, "\u2581Nach": 1042, "\u2581\u0643\u0628\u064a\u0631\u0629": 1043, "\u2581\u0661": 1044, "\u2581w\u00e4hrend": 1045, "\u2581\u0627\u0644\u062e\u0627\u0635": 1046, "\u2581{\\": 1047, "\u2581\u0633\u0628\u0628": 1048, "\u2581\u0637\u0631\u064a\u0642": 1049, "\u2581Bei": 1050, "\u2581\u0627\u0644\u0623\u0631\u0636": 1051, "\u2581\u0641\u0636\u0644\u0643": 1052, "\u2581\u0644\u0623\u0646\u0647": 1053, "\u2581ganzen": 1054, "\u2581Ort": 1055, "I": 1056, "\u2581\u0642\u0645\u062a": 1057, "\u25816": 1058, "pos": 1059, "\u2581\u0641\u064a\u0645\u0627": 1060, "\u2581Blut": 1061, "\u2581Teufel": 1062, "\u2581ersten": 1063, "\u2581\u0627\u0644\u0634\u062e\u0635": 1064, "\u2581vorbei": 1065, "\u2581etwa": 1066, "\u2581O": 1067, "\u2581h\u00e4tten": 1068, "\u2581Nichts": 1069, "\u0625\u0646": 1070, "\u2581Ahnung": 1071, "\u2581Jesus": 1072, "\u2581Bibel": 1073, "\u2581\u062e\u0627\u0631\u062c": 1074, "T": 1075, "\u0627\u0628": 1076, "\u2581gro\u00dfe": 1077, "\u2581\u0627\u0644\u0631\u062c\u0627\u0644": 1078, "\u2581wichtig": 1079, "\u2581verstehe": 1080, "\u2581\u0646\u0641\u0633\u0647": 1081, "\u2581kennen": 1082, "\"\u060c": 1083, "\u2581Geschichte": 1084, "\u2581\u0627\u0644\u0634\u0631\u0637\u0629": 1085, "\u2581warst": 1086, "\u2581stimmt": 1087, "\u2581\u0644\u064a\u0644\u0629": 1088, "\u2581sonst": 1089, "\u2581gehe": 1090, "\u2581unserer": 1091, "\u2581\u0648\u0627\u0644\u0622\u0646": 1092, "\u2581Warte": 1093, "\u2581a": 1094, "\u2581Alle": 1095, "\u258112": 1096, "\u2581Sicherheit": 1097, "\u2581Polizei": 1098, "\u2581\u0637\u0648\u0627\u0644": 1099, "\u2581\u0627\u0644\u0633\u0628\u0628": 1100, "\u258130": 1101, "]": 1102, "\u2581\u061b": 1103, "\u2581Uhr": 1104, "\u2581\u062e": 1105, "\u2581sah": 1106, "\u2581\u064a\u0646\u0628\u063a\u064a": 1107, "\u2581\u0622\u0633\u0641\u0629": 1108, "z": 1109, "\u0628\u064a": 1110, "\u2581drau\u00dfen": 1111, "\u2581ziemlich": 1112, "\u2581\u064a\u062a\u0645": 1113, "\u2581Gl\u00fcck": 1114, "\u2581Geh": 1115, "\u2581ihrem": 1116, "\u2581\u062a\u0639\u0645\u0644": 1117, "\u2581\u0623\u0630\u0647\u0628": 1118, "\u2581\u062b\u0644\u0627\u062b\u0629": 1119, "\u2581hoch": 1120, "\u2581\u0628\u0623\u0646\u0647": 1121, "\u2581Von": 1122, "\u2581\u062c": 1123, "\u0638": 1124, "\u2581\u0634\u064a\u0626": 1125, ")!": 1126, "\u2581warten": 1127, "\u2581Kerl": 1128, "\u2581\u0625\u0644\u064a\u0643": 1129, "E": 1130, "\u2581\u0645\u0646\u0647\u0645": 1131, "\u2581letzte": 1132, "\u2581\u0627\u0644\u0628\u0627\u0628": 1133, "\u2581Name": 1134, "\u2581\u062c\u064a": 1135, "\u2581Job": 1136, "\u2581\u0628\u0623\u0646\u0643": 1137, "an": 1138, "\u2581\u0641\u0639\u0644\u0647": 1139, "\u0631\u062a": 1140, "\u2581komme": 1141, "\u2581\u0623\u0646\u0647\u0645": 1142, "\u2581versucht": 1143, "\u2581liegt": 1144, "\u0627\u0644\u0645": 1145, "P": 1146, "\u2581jemanden": 1147, "\u2581gewesen": 1148, "\u2581arbeiten": 1149, "\u2581Wirklich": 1150, "\u2581vergessen": 1151, "\u2581wenig": 1152, "\u2581\u0645\u062c\u062f\u062f\u0627": 1153, "\u2581\u0627\u0644\u0630\u0649": 1154, "\u2581\u0645\u0647\u0644\u0627": 1155, "\u2581\u0644\u062f\u0649": 1156, "\u2581Erde": 1157, "\u2581\u0623\u0643\u0646": 1158, "\u2581T\u00fcr": 1159, "\u2581verloren": 1160, "\u2581\u0627\u0639\u062a\u0642\u062f": 1161, "der": 1162, "\u2581\u064a\u0639\u0645\u0644": 1163, "\u2581\u0627\u0644\u0645\u0632\u064a\u062f": 1164, "\u2581\u062a\u0639\u0627\u0644": 1165, "\u2581\u0627\u0644\u0645\u062f\u064a\u0646\u0629": 1166, "\u2581Jungs": 1167, "\u2581\u0627\u0644\u062e\u0627\u0635\u0629": 1168, "\u2581\u0647\u0646\u0627\u0644\u0643": 1169, "\u2581bereits": 1170, "\u2581dran": 1171, "\u2581solltest": 1172, "ste": 1173, "\u2581runter": 1174, "\u2581fast": 1175, "\u2581je": 1176, "\u2581lang": 1177, "\u2581Hi": 1178, "\u2581\u0648\u0647\u064a": 1179, "\u2581War": 1180, "\u2581\u0639\u0632\u064a\u0632\u062a\u064a": 1181, "\u2581Herr": 1182, "\u2581drin": 1183, "\u2581Fragen": 1184, "\u0627\u0626": 1185, "\u2581Be": 1186, "\u062a\u0647\u0645": 1187, "Ich": 1188, "\u2581braucht": 1189, "\u2581Den": 1190, "\u2581Herz": 1191, "\u2581l\u00e4sst": 1192, "\u2581\u0637\u0631\u064a\u0642\u0629": 1193, "\u2581\u062d\u064a\u0627\u062a\u064a": 1194, "\u2581Euch": 1195, "\u2581get\u00f6tet": 1196, "\u062f\u0627": 1197, "\u2581\u0627\u0644\u062d\u0635\u0648\u0644": 1198, "\u2581\u0623\u0648\u0644": 1199, "\u2581danke": 1200, "\u2581Eltern": 1201, "\u2581\u0645\u062a": 1202, "\u2581Idee": 1203, "\u0628\u0644": 1204, "\u0647\u0645\u0627": 1205, "\u2581\u0643\u064a": 1206, "\u2581schwer": 1207, "\u2581\u0627\u0644\u0623\u0645\u0646": 1208, "\u2581echt": 1209, "\u2581musste": 1210, "\u2581\u0627\u0644\u0642\u064a\u0627\u0645": 1211, "\u2581\u062a\u0630\u0647\u0628": 1212, "\u2581bald": 1213, "ver": 1214, "\u2581\u0623\u0642\u0644": 1215, "\u2581Tochter": 1216, "\u2581kenne": 1217, "\u2581\u0628\u0627\u0644\u0645": 1218, "\u2581Schwester": 1219, "\u2581\u00fcberhaupt": 1220, "g": 1221, "\u2581erz\u00e4hlt": 1222, "\u2581Dollar": 1223, "\u2581Ihren": 1224, "\u2581bisschen": 1225, "\u2581\u062a\u0628\u0627": 1226, "\u2581fragen": 1227, "c": 1228, "\u2581\u062a\u0642\u0648\u0645": 1229, "\u2581Stunden": 1230, "\u2581ok": 1231, "\u2581egal": 1232, "\u2581einige": 1233, "\u2581kurz": 1234, "\u2581\u0645\u0631": 1235, "\u2581Wissen": 1236, "\u0644\u062a": 1237, "\u2581suchen": 1238, "\u0643\u0644\u0627": 1239, "\u2581\u062c\u062f": 1240, "\u2581\u0648\u062c\u062f\u062a": 1241, "\u0646\u062a": 1242, "\u2581\u0648\u0636\u0639": 1243, "\u2581\u0627\u0644\u0645\u0624\u0631\u062e": 1244, "\u0626": 1245, "\u2581\u062a\u0631\u064a\u062f\u064a\u0646": 1246, "\u2581Leid": 1247, "\u2581\u0648\u0643\u0627\u0646": 1248, "\u2581fest": 1249, "\u2581\u0623\u062d\u062a\u0627\u062c": 1250, "h": 1251, "\u2581\u0644\u0644\u062a\u0648": 1252, "\u2581Spiel": 1253, "\u062f\u0629": 1254, "\u2581Kein": 1255, "\u2581kleine": 1256, "\u2581neuen": 1257, "\u2581\u0627\u0644\u0645\u0648\u062a": 1258, "F": 1259, "\u2581\u0628\u062f": 1260, "\u0644\u064a\u0633": 1261, "\u2581\u062d\u0627\u0644\u0629": 1262, "\u2581eigentlich": 1263, "\u2581T": 1264, "\u2581\u062c\u062f\u064a\u062f\u0629": 1265, "\u2581gekommen": 1266, "\u2581\u0627\u0644\u0637\u0631\u064a\u0642\u0629": 1267, "\u064a\u062f": 1268, "\u2581\u0627\u0644\u0648\u0644\u0627\u064a\u0627\u062a": 1269, "\u0631\u0641": 1270, "\u0627\u0639": 1271, "\u2581\u0627\u0646\u062a\u0638\u0631": 1272, "\u2581Ab": 1273, "\u2581Jehovas": 1274, "\u2581\u0639\u062f\u062f": 1275, "\u2581\u0627\u0644\u0633\u0644\u0627\u0645": 1276, "\u2581\u0639\u0646\u0643": 1277, "\u2581Schon": 1278, "\u2581erste": 1279, "\u2581treffen": 1280, "\u2581verr\u00fcckt": 1281, "C": 1282, "le": 1283, "\u2581\u0623\u0648\u062f": 1284, "\u2581beiden": 1285, "\u2581Noch": 1286, "\u2581\u0639\u0634\u0631": 1287, "\u2581Geht": 1288, "\u0643\u0644": 1289, "\u2581\u0627\u0643\u062b\u0631": 1290, "\u2581sp\u00e4t": 1291, "\u2581\u0646\u0641\u0633\u064a": 1292, "\u2581unseren": 1293, "\u2581verstehen": 1294, "\u258119": 1295, "\u2581darf": 1296, "\u2581Dieser": 1297, "\u2581Bis": 1298, "ig": 1299, "\u2581f\u00fcnf": 1300, "\u2581zeigen": 1301, "),": 1302, "\u2581nat\u00fcrlich": 1303, "\u2581\u0641\u062a\u0627\u0629": 1304, "\u2581\u0627\u0644\u064a": 1305, "\u2581\u0639\u0628\u0631": 1306, "\u2581\u0627\u0644\u0623\u0641\u0636\u0644": 1307, "\u2581mach": 1308, "\u064a\u0644": 1309, "\u2581Gib": 1310, "\u2581\u0627\u0644\u0627\u0645\u0631": 1311, "\u2581Staaten": 1312, "\u2581\u0627\u0644\u0633\u064a\u0627\u0631\u0629": 1313, "\u2581anders": 1314, "K": 1315, "sten": 1316, "\u2581\u201c": 1317, "nen": 1318, "\u2581Tage": 1319, "\u2581\u0636\u062f": 1320, "\u2581Dein": 1321, "\u2581\u0631\u062c\u0627\u0621": 1322, "\u2581oben": 1323, "\u2581\u0627\u0644\u0623": 1324, "\u2581\u0646\u0647\u0627\u064a\u0629": 1325, "\u2581\u0627\u0644\u062f\u0648\u0644\u064a": 1326, "\u25817": 1327, "\u2581Sieh": 1328, "\u2581lieber": 1329, "\u0627\u0633": 1330, "\u2581\u0628\u0633\u0631\u0639\u0629": 1331, "\u0631\u064a\u062f": 1332, "\u2581\u0644\u0643\u0646\u0647": 1333, "\u2581\u0642\u0627\u0645": 1334, "\u2581versuchen": 1335, "\u2581Halt": 1336, "\u2581\u0627\u0644\u0631\u0626\u064a\u0633": 1337, "\u2581\u0631\u0642\u0645": 1338, "\u2581\u0627\u062c\u0644": 1339, "\u2581einzige": 1340, "\u2581\u0623\u0644\u0645": 1341, "\u2581\u0646\u0630\u0647\u0628": 1342, "\u0631\u0629": 1343, "\u0623\u0646": 1344, "\u2581essen": 1345, "\u2581Woche": 1346, "\u25818": 1347, "\u2581Denn": 1348, "\u2581\u062c\u0645\u064a\u0644": 1349, "\u2581\u0627\u0646\u0647\u0645": 1350, "\u2581\u0645\u0627\u0644\u0630\u064a": 1351, "\u2581vier": 1352, "\u2581niemand": 1353, "\u2581\u0627\u0644\u0623\u0637\u0641\u0627\u0644": 1354, "\u2581\u062f\u0642\u064a\u0642\u0629": 1355, "\u2581Chance": 1356, "\u2581\u0627\u0630\u0647\u0628": 1357, "\u062a\u0627\u0646": 1358, "\u2581darum": 1359, "\u2581gerne": 1360, "\u2581Soll": 1361, "\u2581m\u00f6glich": 1362, "\u2581verlassen": 1363, "\u2581\u0628\u062f\u0623\u062a": 1364, "\u2581fahren": 1365, "\u2581\u062a\u0639\u0631\u0641\u064a\u0646": 1366, "\u064a\u0646\u064a": 1367, "\u2581Deine": 1368, "\u2581\u0648\u0628": 1369, "\u2581C": 1370, "\u2581Buch": 1371, "D": 1372, "\u2581Resolution": 1373, "\u2581Ganz": 1374, "\u2581oft": 1375, "\u2581\u0627\u0631\u064a\u062f": 1376, "\u2581allem": 1377, "\u2581meinst": 1378, "\u2581\u0623\u0646\u062a\u0645": 1379, "\u2581\u0645\u062c\u0644\u0633": 1380, "\u2581\u062c\u0645\u064a\u0644\u0629": 1381, "\u2581Gute": 1382, "\u2581\u062a\u0631\u0649": 1383, "\u2581\u0627\u0644\u062d\u0642": 1384, "\u2581Essen": 1385, "\u2581\u0633\u0627\u0639\u0629": 1386, "\u2581frei": 1387, "b": 1388, "\u2581\u062d\u064a\u0627\u0629": 1389, "\u2581\u0641\u0639\u0644\u0627": 1390, "\u2581\u0627\u0644\u0623\u0642\u0644": 1391, "\u2581\u0627\u0644\u062a\u062d\u062f\u062b": 1392, "\u0648\u0646\u064a": 1393, "\u0644\u0648": 1394, "\u2581\u0623\u0648\u0644\u0627": 1395, "\u0648\u062f": 1396, "\u2581\u0627\u0644\u0645\u0633\u0627\u0639\u062f\u0629": 1397, "\u2581\u0627\u0639\u0631\u0641": 1398, "\u2581\u0627\u0644\u0625": 1399, "\u2581\u0627\u0644\u0631\u0628": 1400, "\u2581E": 1401, "\u2581lass": 1402, "\u2581Bild": 1403, "\u2581\u0627\u0644\u0623\u0648\u0644\u0649": 1404, "\u2581l\u00e4uft": 1405, "\u2581\u0627\u0644\u062d\u0631\u0628": 1406, "\u2581Generalsekret\u00e4r": 1407, "\u2581\u0627\u0644\u0645\u0627\u0636\u064a": 1408, "\u2581\u062d\u062f": 1409, "chen": 1410, "\u2581\u0628\u064a\u0646\u0645\u0627": 1411, "\u2581\u064a\u0633\u062a\u0637\u064a\u0639": 1412, "\u2581K\u00f6nig": 1413, "\u2581\u0625\u0630": 1414, "\u2581\u0648\u0644\u064a\u0633": 1415, "\u2581\u0643\u0627\u0644": 1416, "\u2581\u064a\u0641\u0639\u0644": 1417, "l": 1418, "\u2581\u0639\u0638\u064a\u0645": 1419, "\u2581hoffe": 1420, "ieren": 1421, "\u2581\u063a\u0631\u0641\u0629": 1422, "\",": 1423, "\u2581Mensch": 1424, "\u2581\u0644\u062f\u064a\u0647\u0627": 1425, "M": 1426, "\u2581anderes": 1427, "\u2581gro\u00dfen": 1428, "\u2581\u0639\u0644\u064a\u0647\u0645": 1429, "\u2581\u062f\u0627\u062e\u0644": 1430, "\u2581]": 1431, "\u2039": 1432, "\u2581\u203a": 1433, "\u2581Ihrer": 1434, "am": 1435, "\u2581\u0627\u0644\u0639\u062f\u064a\u062f": 1436, "\u2581He": 1437, "\u2581\u0631\u0627\u0626\u0639\u0629": 1438, "\u2581\u0644\u0623\u0646\u0646\u064a": 1439, "\u2581\u0628\u0627\u0644\u0636\u0628\u0637": 1440, "\u2581siehst": 1441, "\u2581kleinen": 1442, "\u2581\u0627\u0644\u062e\u064a\u0631": 1443, "\u2581\u0628\u0639\u064a\u062f\u0627": 1444, "us": 1445, "\u2581eigenen": 1446, "\u2581toll": 1447, "\u2581Regierung": 1448, "\u2581\u0644\u062d\u0638\u0629": 1449, "re": 1450, "\u2581w\u00e4ren": 1451, "\u2581Fehler": 1452, "\u2581gegeben": 1453, "\u2581wollten": 1454, "\u064a\u0645": 1455, "\u2581\u0627\u0644\u062b\u0627\u0646\u064a": 1456, "\u0648\u064a": 1457, "\u2581\u0627\u0644\u0628\u0644\u062f\u0627\u0646": 1458, "\u2581spielen": 1459, "\u2581K\u00f6nnen": 1460, "\u2581\u0635\u063a\u064a\u0631\u0629": 1461, "\u2581M": 1462, "\u2581\u0633\u0639\u064a\u062f": 1463, "\u0643\u0645\u0627": 1464, "\u2581\u0623\u0646\u0638\u0631": 1465, "\u2581\u062a\u062a\u062d\u062f\u062b": 1466, "\u064a\u0633": 1467, "sch": 1468, "\u0643\u0627\u0646": 1469, "\u2581Plan": 1470, "\u2581\u0644\u0643\u0646\u0646\u064a": 1471, "\u2581Freundin": 1472, "\u2581Typ": 1473, "\u2581\u00dcber": 1474, "\u2581G": 1475, "\u2581\u0644\u0623\u0646\u0643": 1476, "\u2581aller": 1477, "\u258118": 1478, "\u2581Am": 1479, "\u2581\u0623\u0643\u0628\u0631": 1480, "\u2581sag": 1481, "\u2581Spa\u00df": 1482, "L": 1483, "\u2581\u0631\u0626\u064a\u0633": 1484, "\u2581\u0639\u062f\u0645": 1485, "\u2581Kommen": 1486, "\u062c\u0648": 1487, "\u2581\u0630\u0647\u0628\u062a": 1488, "\u2581\u0646\u0633\u062a\u0637\u064a\u0639": 1489, "al": 1490, "\u2581Schatz": 1491, "\u2581stellen": 1492, "\u2581\u0627\u0633\u062a\u0637\u064a\u0639": 1493, "\u2581\u064a\u0633\u0648\u0639": 1494, "\u2581\u064a\u0639\u0644\u0645": 1495, "\u0645\u0631\u062d\u0628\u0627": 1496, "\u2581\u0641\u0631\u0635\u0629": 1497, "\u2581\u063a\u062f\u0627": 1498, "\u2581\u0639\u0645\u0644\u064a\u0629": 1499, "\u2581\u064a\u0643\u0641\u064a": 1500, "\u0643\u064a\u0641": 1501, "et": 1502, "\u2581\u0627\u0644\u0623\u0645\u064a\u0646": 1503, "2": 1504, "\u2581\u062a\u0642\u0631\u064a\u0628\u0627": 1505, "\u25811.": 1506, "\u2581bringt": 1507, "\u2581\u0631\u062c\u0627\u0644": 1508, "\u0627\u0626\u064a": 1509, "\u2581un": 1510, "\u2581nehme": 1511, "\u2581\u0644\u0627\u062d\u0642\u0627": 1512, "\u2581\u0639\u0646\u0647\u0627": 1513, "\u2581ruhig": 1514, "\u2581Ma": 1515, "\u0628\u0631": 1516, "\u2581heraus": 1517, "\u2581Gehen": 1518, "\u2581\u0645\u0627\u062a": 1519, "\u0625\u0646\u0647": 1520, "\u2581Schule": 1521, "\u2581Zimmer": 1522, "\u2581Ziel": 1523, "\u2581Gesicht": 1524, "\u2581\u0639\u0644\u0627\u0642\u0629": 1525, "\u2581John": 1526, "\u2581voll": 1527, "\u2581P": 1528, "\u2581\u0662": 1529, "\u2581Beispiel": 1530, "\u2581\u0638\u0646\u0646\u062a": 1531, "\u2581Schuld": 1532, "\u0644\u0646": 1533, "\u2581\u0631\u0628": 1534, "neralversammlung": 1535, "\u062c\u0648\u0646": 1536, "\u2581Guten": 1537, "\u2581D": 1538, "\u0633\u062a": 1539, "\u2581retten": 1540, "\u2581Ruhe": 1541, "\u2581\u0627\u0644\u0628\u0639\u0636": 1542, "\u2581Sehr": 1543, "\u2581\u0627\u0644\u0625\u0646\u0633\u0627\u0646": 1544, "\u2581\u0628\u0644\u0627": 1545, "\u0648\u0639": 1546, "\u2581Waffe": 1547, "\u2581\u062a\u0639\u0644\u0645\u064a\u0646": 1548, "\u2581\u0648\u062c\u0648\u062f": 1549, "\u2581\u0627\u0644\u0641\u062a\u0627\u0629": 1550, "\u2581\u062a\u062d\u062a\u0627\u062c": 1551, "\u2581Schei\u00df": 1552, "\u2581\u0627\u0644\u0645\u0631\u0629": 1553, "\u2581\u0646\u0639\u0631\u0641": 1554, "\u2581\u0623\u062d\u0627\u0648\u0644": 1555, "\u2581Einen": 1556, "\u2581\u0628\u0623\u064a": 1557, "\u2581\u0627\u0644\u062f\u0648\u0644\u064a\u0629": 1558, "\u2581Sorgen": 1559, "\u2581\u0644\u062f\u064a\u0647\u0645": 1560, "\u2581bestimmt": 1561, "\u2581\u062a\u0623\u062a\u064a": 1562, "\u2581Auch": 1563, "\u2581zwar": 1564, "\u2581I": 1565, "\u2581Woher": 1566, "\u2581Jack": 1567, "\u2581Niemand": 1568, "\u2581\u0643\u0644\u0645\u0629": 1569, "\u2581Waffen": 1570, "\u2581welche": 1571, "\u2581Krieg": 1572, "\u2581Verdammt": 1573, "\u2581Bericht": 1574, "\u2581finde": 1575, "\u2581Sachen": 1576, "lich": 1577, "\u2581\u0631\u0641\u0627\u0642": 1578, "\u2581\u0645\u062a\u0623\u0643\u062f": 1579, "\u2581Bett": 1580, "\u2581Feuer": 1581, "\u2581\u0623\u0631\u064a\u062f\u0643": 1582, "\u0648\u0643": 1583, "\u0624": 1584, "\u2581niemals": 1585, "\u2581Ding": 1586, "\u2581\u0627\u0644\u0634": 1587, "\u0623\u0648": 1588, "\u2581New": 1589, "\u2581\u064a\u062c\u0631\u064a": 1590, "\u2581\u0644\u0643\u0646\u064a": 1591, "\u2581Kommt": 1592, "\u2581Arsch": 1593, "\u2581Wahl": 1594, "\u2581unten": 1595, "\u2581\u0627\u0644\u0635\u0628\u0627\u062d": 1596, "\u2581Dass": 1597, "\u2581Zwei": 1598, "\u2581\u062f\u0639\u0646\u064a": 1599, "\u2581Millionen": 1600, "\u2581\u062f\u0639\u0646\u0627": 1601, "\u2581\u0623\u0641\u0647\u0645": 1602, "\u2581\u0633\u0623\u0643\u0648\u0646": 1603, "\u2581sagst": 1604, "\u2581\u0627\u0644\u062d\u0627\u0644": 1605, "\u2581erz\u00e4hlen": 1606, "\u2581\u0627\u0644\u062c\u0645\u0639\u064a\u0629": 1607, "\u2581\u0645\u0639\u0647\u0627": 1608, "\u2581Probleme": 1609, "\u0644\u0643\u0646": 1610, "\u2581\u064a\u0642\u0648\u0645": 1611, "\u2581\u0627\u0644\u0623\u062e\u0631\u0649": 1612, "\u2581\u0627\u0644\u062c\u062f\u064a\u062f": 1613, "\u2581\u0643\u0627\u0646\u0648\u0646": 1614, "\u2581eins": 1615, "\u0627\u0643": 1616, "\u2581eure": 1617, "\u2581\u0623\u0649": 1618, "\u0648\u0645": 1619, "200": 1620, "\u2581\u0627\u064a\u0646": 1621, "\u2581\u0637": 1622, "\u2581gl\u00fccklich": 1623, "zu": 1624, "\u2581\u0641\u0648\u0642": 1625, "\u2581Zukunft": 1626, "\u2581\u0623\u062a": 1627, "\u2581\u0627\u0644\u0631": 1628, "\u2581geh": 1629, "\u2581\u0641\u0644\u0627": 1630, "ter": 1631, "um": 1632, "\u2581\u0627\u0644\u0622\u062e\u0631": 1633, "\u2581bleibt": 1634, "\u2581\u063a\u0631\u064a\u0628": 1635, "\u2581B\u00fcro": 1636, "\u2581Menge": 1637, "\u2581worden": 1638, "\u2581\u0637\u0648\u064a\u0644\u0629": 1639, "\u2581meisten": 1640, "\u2581F": 1641, "\u2581Selbst": 1642, "\u2581gedacht": 1643, "\u2581holen": 1644, "\u2581Miss": 1645, "\u2581schaffen": 1646, "\u2581OK": 1647, "\u2581w\u00fcrdest": 1648, "R": 1649, "\u258150": 1650, "\u2581Lassen": 1651, "\u2581drauf": 1652, "\u2581\u0648\u0627\u0644\u062f\u064a": 1653, "\u2581\u0648\u0643\u0644": 1654, "\u2581n\u00e4chsten": 1655, "\u2581\u0623\u0635\u0628\u062d": 1656, "\u2581\u0646\u0635\u0641": 1657, "\u2581\u0627\u0644\u0639": 1658, "\u2581\u0628\u062a": 1659, "\u2581\u0645\u0639\u0631\u0641\u0629": 1660, "\u2581\u062d\u0627\u0644\u0643": 1661, "el": 1662, "\u0628\u062a": 1663, "on": 1664, "\u2581Z": 1665, "\u2581tust": 1666, "\u2581\u0631\u0623\u064a\u0643": 1667, "\u2581h\u00e4ttest": 1668, "\u2581Entschuldigung": 1669, "\u2581\u0643\u0646": 1670, "\u2581\u0627\u0644\u0645\u0639\u0644\u0648\u0645\u0627\u062a": 1671, "\u25819": 1672, "\u2581\u0645\u0639\u0646\u0627": 1673, "\u2581weniger": 1674, "\u2581blo\u00df": 1675, "\u2581\u0631\u0624\u064a\u0629": 1676, "\u2581Himmel": 1677, "\u2581falsch": 1678, "\u2581Hab": 1679, "\u2581\u0646\u0641\u0639\u0644": 1680, "\u2581\u0645\u0647\u0645\u0627": 1681, "\u2581\u062e\u0637\u0623": 1682, "\u2581Lebens": 1683, "man": 1684, "\u2581schlecht": 1685, "\u0648\u062a": 1686, "\u0645\u0627\u0646": 1687, "H": 1688, "\u2581Dezember": 1689, "\u2581\u064a\u0631\u0627\u0645": 1690, "\u2581denkst": 1691, "\u2581\u0633\u064a\u0627\u0631\u0629": 1692, "\u062c\u064a": 1693, "\u2581\u0627\u0644\u0628\u064a\u062a": 1694, "\u2581guten": 1695, "\u258114": 1696, "\u2581verdammt": 1697, "\u2581\u0627\u0644\u062c\u0646\u0633": 1698, "\u2581\u0627\u0639\u0644\u0645": 1699, "\u2581\u0627\u0644\u0635\u063a\u064a\u0631\u0629": 1700, "iert": 1701, "\u062a\u0649": 1702, "\u2581\u0633\u0639\u064a\u062f\u0629": 1703, "\u2581jede": 1704, "\u2581alt": 1705, "\u2581Heute": 1706, "\u2581Luft": 1707, "\u2581H\u00f6lle": 1708, "\u2581\u0639\u0631\u0641\u062a": 1709, "\u2581guter": 1710, "\u2581\u0635\u062f\u064a\u0642\u064a": 1711, "\u2581scheint": 1712, "\u2581\u062f\u0642\u0627\u0626\u0642": 1713, "\u2581Sch\u00f6n": 1714, "\u2581\u0646\u0638\u0627\u0645": 1715, "\u258113": 1716, "\u2581\u0623\u0635\u0628\u062d\u062a": 1717, "ern": 1718, "\u2581\u0641\u0644\u0646": 1719, "\u2581--": 1720, "\u2581\u0648\u0639\u0644\u0649": 1721, "\u0639\u0644\u0649": 1722, "\u062f\u064a\u0646": 1723, "\u2581Opfer": 1724, "\u2581\u0644\u0649": 1725, "\u2581warte": 1726, "\u2581\u0663": 1727, "\u2581\u0642\u0631\u064a\u0628\u0627": 1728, "\u2581\u0639\u064a\u062f": 1729, "\u258116": 1730, "\u2581Wann": 1731, "\u2581\u0644\u0643\u0644": 1732, "\u2581\u0635": 1733, "\u2581\u0623\u064a\u0627\u0645": 1734, "\u2581\u0627\u0644\u0645\u062f\u0631\u0633\u0629": 1735, "\u2581Platz": 1736, "\u2581\u0627\u062e\u0631\u0649": 1737, "\u2581\u0623\u0642\u0635\u062f": 1738, "\u2581\u0625\u0646\u0646\u064a": 1739, "\u0627\u062d": 1740, "\u2581\u0623\u062a\u0645\u0646\u0649": 1741, "\u2581gestern": 1742, "\u2581wahrscheinlich": 1743, "\u0627\u0641": 1744, "\u2581\u062a\u0638\u0646": 1745, "\u0634\u0643\u0631\u0627": 1746, "\u2581\u0641\u062a\u0631\u0629": 1747, "\u2581f\u00fchren": 1748, "\u2581\u062c\u0632\u0621": 1749, "\u2581\u062a\u0642\u0631\u064a\u0631": 1750, "\u2581\u0627\u0644\u062d\u0628": 1751, "\u2581lernen": 1752, "\u2581\u0642\u0627\u0644\u062a": 1753, "\u2581kaum": 1754, "\u2581\u0627\u0644\u0645\u0631\u0623\u0629": 1755, "\u2581\u0623\u062e\u0628\u0631\u0646\u064a": 1756, "\u2581\u0623\u062a\u0639\u0644\u0645": 1757, "\u2581Mrs": 1758, "\u2581\u062a\u0639\u0646\u064a": 1759, "\u2581\u0633\u0628\u064a\u0644": 1760, "\u2581\u0627\u0644\u0644": 1761, "\u2581\u0627\u0644\u062c\u062f\u064a\u062f\u0629": 1762, "\u2581\u0645\u0628\u0627\u0634\u0631\u0629": 1763, "\u2581Rolle": 1764, "\u2581\u0623\u0642\u0648\u0645": 1765, "\u0622": 1766, "\u2581sechs": 1767, "\u2581Licht": 1768, "\u2581K\u00f6rper": 1769, "\u2581Frieden": 1770, "\u2581vielen": 1771, "\u2581\u0623\u0641\u0643\u0631": 1772, "w": 1773, "\u2581\u0647\u0649": 1774, "\u2581H\u00e4nde": 1775, "\u2581\u0645\u062c\u0645\u0648\u0639\u0629": 1776, "\u2581\u0628\u0625": 1777, "\u2581\u0627\u0644\u062a\u0649": 1778, "\u2581\u0646\u062d\u062a\u0627\u062c": 1779, "\u2581b": 1780, "\u2581Sagen": 1781, "\u2581Wochen": 1782, "\u2581meines": 1783, "\u2581\u0648\u0627\u0644\u062a\u064a": 1784, "\u2581\u0625\u0646\u0643": 1785, "\u0627\u0646\u0627": 1786, "\u2581geworden": 1787, "\u2581\u0648\u0627\u0644\u062f\u0643": 1788, "\u2581Sinn": 1789, "\u2581Zeugen": 1790, "\u2581\u0627\u0644\u0644\u064a\u0644": 1791, "\u2581Ihrem": 1792, "G": 1793, "\u2581\u0628\u0647\u0645": 1794, "\u0640\u0640\u0640": 1795, "\u2581nett": 1796, "\u2581).": 1797, "\u2581Kannst": 1798, "\u2581\u0627\u0644\u0633\u0627\u0639\u0629": 1799, "\u2581\u0627\u0644\u0646\u0638\u0631": 1800, "\u2581Nimm": 1801, "\u2581\u0627\u0644\u0637\u0641\u0644": 1802, "\u2581Unterst\u00fctzung": 1803, "\u2581\u0627\u0633\u0645": 1804, "\u2581unserem": 1805, "\u2581gehst": 1806, "\u2581\u0639\u0646\u064a": 1807, "\u2581\u0627\u064a\u0647\u0627": 1808, "\u2581\u064a\u0623\u062a\u064a": 1809, "\u2581irgendwie": 1810, "\"?": 1811, "\u2581\u062b\u0644\u0627\u062b": 1812, "\u258111": 1813, "\u064a\u062a": 1814, "\u2581\u0634\u062e\u0635\u0627": 1815, "\u2581kommst": 1816, "\u2581\u0627\u0644\u0639\u0648\u062f\u0629": 1817, "\u0632\u064a": 1818, "\u2581\u0645\u0643\u062a\u0628": 1819, "ing": 1820, "\u2581Sehen": 1821, "\u2581\u062d\u0635\u0644": 1822, "\u2581\u0637\u0641\u0644": 1823, "\u258117": 1824, "\u2581Klar": 1825, "\u2581\u0625\u0644\u064a\u0647\u0627": 1826, "\u2581\u0623\u062e\u0630": 1827, "\u2581\u0627\u0644\u0637\u0639\u0627\u0645": 1828, "\u2581\u0634\u0649\u0621": 1829, "\u2581besten": 1830, "\u2581\u062d\u0642\u064a\u0642\u064a": 1831, "\u2581\u0627\u0644\u0635\u063a\u064a\u0631": 1832, "\u2581Alter": 1833, "\u062a\u0645": 1834, "\u2581\u0627\u0644\u0642\u0631\u0627\u0631": 1835, "\u2581Informationen": 1836, "\u2581gegen\u00fcber": 1837, "\u2581\u0627\u0633\u0645\u0639": 1838, "\u2581\u0648\u0625\u0646": 1839, "\u2581endlich": 1840, "\u0642\u062f": 1841, "\u2581\u062a\u0646\u0641\u064a\u0630": 1842, "\u2581\u062a\u0641\u0639\u0644\u0647": 1843, "O": 1844, "\u2581\u0627\u0644\u0633\u062c\u0646": 1845, "\u2581\u0635\u0628\u0627\u062d": 1846, "\u0643\u0646": 1847, "\u2581\u0623\u064a\u0629": 1848, "\u2581\u0665": 1849, "\u2581\u0627\u0646\u0646\u064a": 1850, "\u2581lieben": 1851, "\u2581\u0641\u0647\u0648": 1852, "\u2581\u0642\u0637": 1853, "\u2581Glauben": 1854, "\u2581tue": 1855, "\u2581funktioniert": 1856, "x": 1857, "\u0623\u064a": 1858, "\u2581eben": 1859, "\u2581keiner": 1860, "\u2581\u062d\u0627\u0646": 1861, "\u2581\u0627\u0644\u0645\u0634\u0643\u0644\u0629": 1862, "\u0648\u0628": 1863, "\u2581\u062d\u064a\u0627\u062a\u0643": 1864, "\u2581100": 1865, "\u2581\u0627\u0644\u0645\u0627\u0621": 1866, "\u2581direkt": 1867, "\u2581\u0648\u0644\u0646": 1868, "\u2581\u0645\u062f\u0649": 1869, "\u2581gebracht": 1870, "\u2581\u0641\u0631\u064a\u0642": 1871, "\u2581\u0627\u0644\u0635\u0641\u062d\u0629": 1872, "\u2581\u064a\u0648\u0645\u0627": 1873, "\u2581au\u00dfer": 1874, "\u2581\u0623\u062d\u062f\u0647\u0645": 1875, "\u2581Wagen": 1876, "\u2581\u0623\u062e\u0628\u0631\u0643": 1877, "\u2581\u0664": 1878, "\u2581Nummer": 1879, "\u2581\u0627\u0644\u0645\u0645\u0643\u0646": 1880, "\u2581Ma\u00dfnahmen": 1881, "\u2581\u0644\u0643\u0646\u0643": 1882, "\u2581\u0633\u0623\u0630\u0647\u0628": 1883, "\u2581\u062a\u062d\u0628": 1884, "%": 1885, "\u2581\u0639\u0644\u0645": 1886, "\u0633\u0627\u0645": 1887, "\u2581wann": 1888, "\u2581\u0627\u0644\u0645\u0644\u0643": 1889, "\u2581\u062a\u0634\u0639\u0631": 1890, "\u2581\u0628\u0637\u0631\u064a\u0642\u0629": 1891, "\u0631\u064a": 1892, "\u2581kriegen": 1893, "\u2581\u062f\u064a": 1894, "\u2581Sam": 1895, "\u0633\u0646": 1896, "\u2581\u0637\u0644\u0628": 1897, "\u2581\u0645\u062c\u0627\u0644": 1898, "\u2581\u0627\u0644\u0646\u0633\u0627\u0621": 1899, "ie": 1900, "\u2581\u0648\u0645\u0639": 1901, "\u2581Sorge": 1902, "\u2581\u0648\u0628\u0639\u062f": 1903, "\u2581\u0648\u0645\u0627\u0630\u0627": 1904, "\u2581\u0641\u0647\u0645\u062a": 1905, "\u2581Damit": 1906, "4": 1907, "\u2581\u062d\u0642\u0648\u0642": 1908, "\u0627\u062c": 1909, "\u0633\u0648\u0646": 1910, "\u2581\u0645\u0647\u0645": 1911, "\u2581Weise": 1912, "\u2581nimmt": 1913, "\u2581\u0628\u064a\u062a": 1914, "\u2581Stunde": 1915, "\u2581\u064a\u0647\u0645": 1916, "\u2581Mama": 1917, "\u2581Rat": 1918, "\u2581\u0627\u0644\u0645\u0627\u0644\u064a\u0629": 1919, "\u2581Person": 1920, "\u2581v\u00f6llig": 1921, "\u2581\u0637\u0648\u064a\u0644": 1922, "\u2581\u0644\u0637\u064a\u0641": 1923, "\u2581\u0627\u0633\u062a": 1924, "\u2581\u0661\u0669": 1925, "\u2581\u0627\u0644\u0644\u0639\u064a\u0646": 1926, "\u2581alten": 1927, "\u2581\u0648\u0646\u062d\u0646": 1928, "\u2581\u0641\u0627\u0644": 1929, "--": 1930, "\u2581Dieses": 1931, "\u2581Jeder": 1932, "\u2581\u0645\u062e\u062a\u0644\u0641": 1933, "\u2581\u0627\u0644\u0628": 1934, "\u2581d\u00fcrfen": 1935, "\u2581\u0639\u0627\u0644\u0645": 1936, "\u2581internationalen": 1937, "\u2581\u0627\u0644\u062b\u0627\u0646\u064a\u0629": 1938, "\u2581\u0646\u0643\u0648\u0646": 1939, "\u2581h\u00f6r": 1940, "\u2581Unter": 1941, "\u062f\u064a\u0633\u0645\u0628\u0631": 1942, "\u2581\u0635\u063a\u064a\u0631": 1943, "\u2581\u063a": 1944, "\u2581\u0623\u062e\u064a": 1945, "\u2581genommen": 1946, "\u2581Gef\u00e4ngnis": 1947, "\u2581Schl\u00fcssel": 1948, "\u2581Sei": 1949, "\u2581\u0623\u0634\u064a\u0627\u0621": 1950, "\u0627\u0642": 1951, "\u2581Dies": 1952, "\u0627\u0637": 1953, "\u2581Sex": 1954, "\u2581\u0642\u0644": 1955, "\u2581\u062d\u0644": 1956, "\u064a\u0642": 1957, "\u2581fand": 1958, "\u2581Seine": 1959, "\u062a\u0646\u064a": 1960, "\u2581\u0623\u0644\u0641": 1961, "\u2581schlafen": 1962, "\u0647\u0648": 1963, "\u2581\u0644\u0647\u0630\u0647": 1964, "\u2581\u0635\u062f\u064a\u0642": 1965, "\u2581\u0647\u0644\u0627": 1966, "\u2581H\u00f6ren": 1967, "\u2581Kampf": 1968, "\u2581\u0627\u0644\u0622\u062e\u0631\u064a\u0646": 1969, "\u0645\u0639": 1970, "\u2581weitere": 1971, "\u0642\u062a": 1972, "\u2581\u0627\u0644\u0641": 1973, "\u2581herum": 1974, "?\"": 1975, "\u0640\"": 1976, "\u2581\u0645\u0644\u064a\u0648\u0646": 1977, "\u2581\u0627\u0644\u0628\u0642\u0627\u0621": 1978, "\u2581Volk": 1979, "\u2581zehn": 1980, "\u2581sagten": 1981, "\u2581\u0639\u0632\u064a\u0632\u064a": 1982, "\u2581Vielen": 1983, "\u0628\u064a\u0646": 1984, "\u2581Lage": 1985, "\u2581\u0632": 1986, "\u2581\u0648\u0644": 1987, "\u2581insbesondere": 1988, "\u2581\u0666": 1989, "\u2581darin": 1990, "\u2581Zum": 1991, "\u2581\u0645\u0646\u0632\u0644": 1992, "\u2581\u0627\u0644\u0623\u0634\u062e\u0627\u0635": 1993, "\u2581\u0627\u0644\u0633\u064a\u062f\u0629": 1994, "\u2581Telefon": 1995, "\u0648\u062d": 1996, "\u2581\u062a\u062d\u0642\u064a\u0642": 1997, "\u062c\u0627\u0643": 1998, "\u2581\u0627\u0644\u0642\u0627\u0646\u0648\u0646": 1999, "\u2581\u0627\u0644\u0645\u0646\u0637\u0642\u0629": 2000, "\u2581\u0644\u0623\u062c\u0644": 2001, "\u2581Jemand": 2002, "or": 2003, "\u2581hierher": 2004, "se": 2005, "\u0645\u062a": 2006, "\u2581\u0648\u062c\u0647": 2007, "\u2581\u0627\u0644\u0646\u0638\u0627\u0645": 2008, "\u0625\u0646\u0647\u0627": 2009, "\u2581Entscheidung": 2010, "\u2581Sicher": 2011, "\u2581Gef\u00fchl": 2012, "\u2581Geist": 2013, "\u2581Boden": 2014, "\u2581\u0628\u0646\u0627\u0621": 2015, "\u2581\u0623\u062e\u0628\u0631\u062a\u0643": 2016, "\u2581\u0627\u0644\u0644\u062c\u0646\u0629": 2017, "\u2581\u0627\u0644\u062d": 2018, "\u2581gebe": 2019, "\u2581verlieren": 2020, "\u2581Seit": 2021, "1": 2022, "\u2581indem": 2023, "\u2581fr\u00fch": 2024, "\u2581\u062a\u0637\u0644\u0628": 2025, "\u2581\u0623\u062f\u0631\u064a": 2026, "\u2581ziehen": 2027, "\u2581\u0646\u0631\u064a\u062f": 2028, "\u2581\u0639\u0645": 2029, "\u064a\u064a\u0646": 2030, "\u2581beste": 2031, "\u2581\u0633\u064a\u062f\u0629": 2032, "\u2581\u062d\u0627\u0648\u0644\u062a": 2033, "is": 2034, "\u2581\u0631\u0633\u0627\u0644\u0629": 2035, "\u2581gro\u00df": 2036, "\u2581\u0623\u062b\u0646\u0627\u0621": 2037, "\u2581\u0623\u062a\u062d\u062f\u062b": 2038, "\u2581\u062e\u0630": 2039, "\u2581Kumpel": 2040, "\u2581Schau": 2041, "\u0644\u064a\u0646": 2042, "\u2581Deshalb": 2043, "\u2581\u0627\u0644\u0645\u0627\u0636\u064a\u0629": 2044, "\u0628\u0629": 2045, "\u2581\u0627\u0644\u0647\u0627\u062a\u0641": 2046, "\u2581ehrlich": 2047, "\u2581\u0623\u0645\u0627\u0645": 2048, "\u2581gef\u00e4llt": 2049, "\u2581\u00e4ndern": 2050, ")...": 2051, "\u2581L": 2052, "\u2581\u0627\u0644\u0648\u062d\u064a\u062f\u0629": 2053, "\u2581\u062a\u062d\u0627\u0648\u0644": 2054, "\u2581\u0627\u0644\u0635": 2055, "\u2581\u0627\u0644\u0639\u0627\u0644\u0645\u064a": 2056, "\u062d\u0633\u0646": 2057, "\u2581Unsere": 2058, "\u2581Rest": 2059, "\u2581\u062a\u0643\u0648\u0646\u064a": 2060, "\u2581reicht": 2061, "\u00e4": 2062, "\u2581\u062a\u0630\u0643\u0631": 2063, "\u2581\u0627\u0644\u0623\u062e\u064a\u0631\u0629": 2064, "\u2581\u062c\u0627\u0646\u0628": 2065, "\u2581\u0628\u0631\u0646\u0627\u0645\u062c": 2066, "\u0645\u0629": 2067, "\u2581\u0634\u0643": 2068, "\u2581\u0644\u0646\u0630\u0647\u0628": 2069, "\u2581\u062d\u0642\u064a\u0642\u0629": 2070, "\u0646\u0627\u0643": 2071, "\u2581\u0633\u0648\u0649": 2072, "\u2581brauchst": 2073, "\u2581Tu": 2074, "\u2581\u064a\u062a": 2075, "\u2581fr\u00fcher": 2076, "\u2581Eure": 2077, "\u2581\u0627\u0644\u0628\u0634\u0631": 2078, "\u2581erfahren": 2079, "\u0645\u064a": 2080, "\u00fc": 2081, "\u2581\u0627\u0644\u0637": 2082, "\u2581leicht": 2083, "\u2581tragen": 2084, "N": 2085, "\u2581\u0646\u0638\u0631\u0629": 2086, "\u2581\u0648\u0625\u0630\u0627": 2087, "ur": 2088, "\u2581\u0627\u062a": 2089, "\u2581\u0630\u0647\u0628": 2090, "\u2581R": 2091, "\u2581Bin": 2092, "\u2581\u00fcberall": 2093, "\u2581\u0630\u0627": 2094, "7": 2095, "\u2581Nachricht": 2096, "ton": 2097, "\u2581\u0639\u0631\u0636": 2098, "\u2581\u0627\u0644\u0627\u0631\u0636": 2099, "\u0647\u0630\u0647": 2100, "\u2581getroffen": 2101, "\u2581\u0623\u062d\u0628\u0643": 2102, "\u2581\u0627\u0628\u0646": 2103, "\u2581\u0628\u0623\u0646\u0646\u064a": 2104, "\u2581\u0628\u062f\u0623": 2105, "\u2581Tagen": 2106, "\u2581Wollen": 2107, "\u2581dessen": 2108, "ia": 2109, "\u0641\u0631": 2110, "\u2581solche": 2111, "\u062f\u0648\u0646": 2112, "\u2581erkl\u00e4ren": 2113, "\u2581\u0623\u0639\u0645\u0644": 2114, "\u2581nennen": 2115, "ab": 2116, "\u2581machte": 2117, "\u2581Sein": 2118, "\u2581\u0627\u0644\u0646\u0647\u0627\u064a\u0629": 2119, "\u2581\u062a\u0642\u062f\u064a\u0645": 2120, "\u2581\u0627\u0644\u0633\u0645\u0627\u0621": 2121, "\u2581\u0641\u0647\u0645": 2122, "\u2581\u0648\u0633\u0648\u0641": 2123, "\u0648\u0647\u0627": 2124, "\u2581\u0643\u062b\u064a\u0631": 2125, "\u0625\u0630\u0627": 2126, "\u2581\u0648\u0630\u0644\u0643": 2127, "\u2581\u0633\u064a\u062f\u0649": 2128, "\u2581\u0628\u062e\u0635\u0648\u0635": 2129, "\u2581\u0627\u0644\u062e\u0627\u0631\u062c": 2130, "\u0648\u0642": 2131, "\u2581Lasst": 2132, "\u0648\u064a\u0644": 2133, "\u2581\u0627\u0644\u0635\u064a\u0646": 2134, "\u2581Tages": 2135, "\u2581\u064a\u062d\u0635\u0644": 2136, "\u2581\u062e\u0627\u0635": 2137, "\u2581Darf": 2138, "\u2581Meinung": 2139, "\u2581\u064a\u0645\u0643\u0646\u0647": 2140, "\u2581\u064a\u0639\u062f": 2141, "\u2581froh": 2142, "\u2581lie\u00df": 2143, "son": 2144, "\u062c\u0631": 2145, "\u2581\u0644\u0643\u0646\u0647\u0627": 2146, "\u2581Schutz": 2147, "\u2581\u0627\u0633\u062a\u062e\u062f\u0627\u0645": 2148, "ner": 2149, "auf": 2150, "\u2581nachdem": 2151, "\u2581\u0627\u0644\u062d\u0642\u064a\u0642\u064a": 2152, "\u2581Team": 2153, "\u2581\u062d\u064a": 2154, "\u2581\u0645\u064a\u062a": 2155, "\u2581\u0648\u0627\u0644\u0630\u064a": 2156, "\u2581\u064a\u062a\u0639\u0644\u0642": 2157, "\u0631\u0627\u062a": 2158, "\u2581\\": 2159, "\u2581interessiert": 2160, "8": 2161, "\u2581erinnern": 2162, "\u2581\u0644\u0623\u064a": 2163, "\u2581\u0644\u0645\u062f\u0629": 2164, "\u2581konnten": 2165, "\u2581fordert": 2166, "\u2581\u0645\u0646\u0637\u0642\u0629": 2167, "\u0643\u064a": 2168, "\u2581trinken": 2169, "\u2581Artikel": 2170, "\u2581\u062c\u0627\u0621": 2171, "\u2581\u0627\u0644\u0645\u0648\u0636\u0648\u0639": 2172, "\u2581Antwort": 2173, "\u2581\u0625\u064a": 2174, "\u2581\u0633\u064a\u062f\u062a\u064a": 2175, "\u2581\u0625\u0639\u0627\u062f\u0629": 2176, "\u0643\u0646\u062a": 2177, "\u2581jedes": 2178, "\u0646\u062d\u0646": 2179, "\u2581\u0646\u062a\u062d\u062f\u062b": 2180, "3": 2181, "und": 2182, "\u2581\u0645\u062f\u064a\u0646\u0629": 2183, "\u2581Welche": 2184, "\u2581\u0627\u0644\u0635\u0648\u0631\u0629": 2185, "\u2581\u062e\u0637": 2186, "\u2581York": 2187, "\u2581\u0627\u0644\u0645\u0641\u062a\u0631\u0636": 2188, "\u258124": 2189, "\u2581L\u00e4nder": 2190, "\u2581Film": 2191, "\u2581W": 2192, "\u2581Un": 2193, "\u2581\u0627\u0644\u064a\u0633": 2194, "\u2581\u0643\u0644\u0647": 2195, "bar": 2196, "\u2581\u0623\u064a\u062a\u0647\u0627": 2197, "ar": 2198, "\u2581\u0627\u0644\u0623\u0639\u0636\u0627\u0621": 2199, "\u2581\u0646\u0648\u0639\u0627": 2200, "\u2581jedoch": 2201, "\u2581alte": 2202, "\u2581\u0627\u0644\u0646\u0648\u0645": 2203, "\u0648\u0641": 2204, "\u2581nahe": 2205, "\u258140": 2206, "\u2581krank": 2207, "\u2581denkt": 2208, "\u2581Typen": 2209, "\u2581Worte": 2210, "\u0646\u0629": 2211, "\u0627\u0630": 2212, "\u2581Durch": 2213, "\u064a\u0647\u0627": 2214, "\u2581gefallen": 2215, "p": 2216, "\u2581\u064a\u062d\u0628": 2217, "\u2581Al": 2218, "\u2581\u062a\u0631\u0643": 2219, "\u258125": 2220, "\u2581\u0627\u0645": 2221, "\u2581\u0627\u0644\u062e\u0631\u0648\u062c": 2222, "\u2581wieso": 2223, "\u2581\u0641\u0623\u0646\u0627": 2224, "\u2581\u0635\u0648\u0631\u0629": 2225, "\u0628\u0648\u0644": 2226, "\u2581\u0627\u0646\u0646\u0627": 2227, "\u2581\u0627\u0644\u0648\u0636\u0639": 2228, "\u2581Party": 2229, "\u2581\u0633\u064a\u0626\u0629": 2230, "\u2581\u0623\u0631\u0627\u0643": 2231, "\u0628\u0627\u0644": 2232, "\u0639\u0629": 2233, "\u2581Drogen": 2234, "\u2581\u062e\u0645\u0633\u0629": 2235, "\u2581verletzt": 2236, "\u2581Stra\u00dfe": 2237, "\u2581\u0627\u0644\u0648\u0627\u0636\u062d": 2238, "\u2581\u0627\u0645\u0631\u0623\u0629": 2239, "\u2581\u0639\u062f\u0629": 2240, "\u2581l\u00e4nger": 2241, "\u2581irgendwas": 2242, "\u2581\u0648\u0631\u0627\u0621": 2243, "\u2581\u0648\u0644\u0642\u062f": 2244, "\u2581\u0633\u0627\u0639\u0627\u062a": 2245, "\u0627\u0646\u062a": 2246, "\u2581\u062a\u0642\u0644\u0642": 2247, "\u2581setzen": 2248, "\u2581sprach": 2249, "\u2581passieren": 2250, "\u2581\u0645\u0633\u0627\u0639\u062f\u0629": 2251, "\u2581\u0627\u0644\u0639\u0627\u0644\u0645\u064a\u0629": 2252, "\u2581\u0627\u0644\u0623\u0633\u0628\u0648\u0639": 2253, "\u2581\u0642\u064a\u062f": 2254, "\u2581hattest": 2255, "\u0630\u0627": 2256, "\u0671\u0644": 2257, "\u2581Leuten": 2258, "\u2581\u062a\u062a": 2259, "\u0628\u0648": 2260, "\u2581\u0627\u0648\u0647": 2261, "\u2581tats\u00e4chlich": 2262, "\u2581\u0623\u062a\u064a\u062a": 2263, "\u2581Kraft": 2264, "\u0644\u0629": 2265, "\u2581\u062a\u0648\u062c\u062f": 2266, "\u2581\u0643\u0627\u0645\u0644": 2267, "\u2581Euer": 2268, "\u2581versuche": 2269, "\u2581\u0637\u0644\u0628\u062a": 2270, "W": 2271, "\u2581h\u00e4lt": 2272, "\u2581gesprochen": 2273, "\u2581kleiner": 2274, "\u2581Mord": 2275, "\u2581ent": 2276, "\u2581\u0646\u0642\u0648\u0645": 2277, "\u2581\u062a\u0634\u064a\u0631": 2278, "\u2581St\u00fcck": 2279, "\u2581Gedanken": 2280, "\u2581\u0623\u0645\u0627": 2281, "\u2581n\u00e4chste": 2282, "\u2581zuerst": 2283, "mal": 2284, "\u2581Arzt": 2285, "\u2581f\u00fchle": 2286, "\u2581Kindern": 2287, "\u2581besonders": 2288, "\u0627\u0646\u064a": 2289, "\u2581\u062c\u0648\u0646": 2290, "\u2581gegangen": 2291, "\u2581\u062a\u062d\u062f\u062b": 2292, "\u064a\u062d": 2293, "\u2581\u0627\u0644\u063a\u0631\u0641\u0629": 2294, "\u2581\u062e\u0627\u0635\u0629": 2295, "\u2581\u062a\u0623\u062e\u0630": 2296, "\u2581h\u00f6rt": 2297, "\u2581\u062a\u062d\u0645\u0644": 2298, "\u2581gefragt": 2299, "\u2581\u0639\u0627\u0645\u0627": 2300, "\u2581\u0627\u0644\u0646\u0648\u0639": 2301, "\u2581seines": 2302, "\u2581\u0627\u0644\u0625\u0637\u0644\u0627\u0642": 2303, "\u2581jedem": 2304, "\u2581\u0623\u062a\u0630\u0643\u0631": 2305, "\u2581\u0627\u0644\u062d\u0643\u0648\u0645\u0629": 2306, "\u2581Kaffee": 2307, "\u2581Krankenhaus": 2308, "\u2581\u0634\u0643\u0631": 2309, "\u2581Stimmt": 2310, "\u2581verstanden": 2311, "\u2581\u0648\u0634\u0643": 2312, "\u2581manchmal": 2313, "\u2581\u0627\u0644\u062e": 2314, "\u2581spricht": 2315, "\u2581laufen": 2316, "\u2581\u0648\u0625": 2317, "\u2581Agent": 2318, "\u2581\u0642\u0648\u0644": 2319, "\u2581stark": 2320, "\u2581Bar": 2321, "\u2581\u0627\u0644\u0645\u062a": 2322, "00": 2323, "\u2581Jungen": 2324, "\u2581\u062a\u0641\u0647\u0645": 2325, "\u2581Zusammenarbeit": 2326, "\u2581\u064a\u062d\u062a\u0627\u062c": 2327, "\u2581eher": 2328, "\u2581\u0627\u0644\u062a\u0641\u0643\u064a\u0631": 2329, "5": 2330, "\u2581\u062a\u0639\u0632\u064a\u0632": 2331, "\u0631\u0649": 2332, "\u2581\u0648\u0647\u0645": 2333, "\u2581\u0639\u0627\u0626\u0644\u0629": 2334, "\u2581\u0645\u0645\u0643\u0646": 2335, "gen": 2336, "\u2581\u0628\u0646": 2337, "ch": 2338, "\u2581\u0648\u0639\u0646\u062f\u0645\u0627": 2339, "\u2581alleine": 2340, "\u2581\u0644\u0625": 2341, "\u2581\u0628\u0627\u0644\u0623\u0645\u0631": 2342, "\u0627\u0631\u0629": 2343, "\u0644\u0643": 2344, "\u2581langsam": 2345, "\u2581danach": 2346, "igen": 2347, "\u2581neu": 2348, "\u0631\u0648\u0646": 2349, "\u2581rum": 2350, "\u2581wolltest": 2351, "\u2581jemals": 2352, "\u2581\u0661\u0660": 2353, "\u0639\u064a": 2354, "\u2581\u0627\u0644\u0642\u0631\u0646": 2355, "\u2581Mund": 2356, "\u2581\u0627\u0644\u062f": 2357, "\u2581#": 2358, "}": 2359, "\u062c\u064a\u0646": 2360, "\u2581\u0642\u0635\u0629": 2361, "\u062f\u0648": 2362, "\u2581\u0642\u0648\u0629": 2363, "\u2581\u0627\u0644\u0623\u0633\u0644\u062d\u0629": 2364, "\u2581lasse": 2365, "\u2581Dir": 2366, "im": 2367, "_": 2368, "\u2581w\u00e4r": 2369, "\u2581\u0627\u0644\u0637\u0627\u0642\u0629": 2370, "\u2581\u062a\u0641\u0639\u0644\u064a\u0646": 2371, "\u2581Verbindung": 2372, "\u2581\u0627\u0644\u0645\u0633\u062a\u0642\u0628\u0644": 2373, "\u2581ersucht": 2374, "\u2581f\u00fchlen": 2375, "\u2581\u0648\u062d\u0633\u0628": 2376, "\u2581erhalten": 2377, "\u2581\u0668": 2378, "\u2581\u0645\u0634\u0627\u0643\u0644": 2379, "\u2581\u0645\u0633\u0627\u0639\u062f\u062a\u0643": 2380, "\u2581genauso": 2381, "\u2581Herzen": 2382, "\u2581\u0644\u0644\u0645\u0646\u0632\u0644": 2383, "\u2581/": 2384, "\u2581USA": 2385, "\u2581Raum": 2386, "\u0644\u0645\u0627\u0630\u0627": 2387, "\u2581\u0627\u0644\u062d\u062f\u064a\u062b": 2388, "\u0641\u062a": 2389, "\u2581Sieht": 2390, "\u2581\u064a\u0632\u0627\u0644": 2391, "\u2581\u0623\u0647\u0645\u064a\u0629": 2392, "\u2581Siehst": 2393, "\u0631\u0628": 2394, "\u2581\u0623\u0639\u062f": 2395, "\u2581lebt": 2396, "\u2581\u062a\u062d\u0635\u0644": 2397, "\u2581\u0648\u0647\u0630\u0647": 2398, "\u2581bekannt": 2399, "\u2581\u0627\u0644\u062a\u0627\u0644\u064a": 2400, "\u2581erwartet": 2401, "\u2581System": 2402, "\u2581\u062f\u0648\u0631": 2403, "\u2581\u0645\u062d\u0642": 2404, "\u2581\u0623\u0644": 2405, "\u2581\u0628\u062f\u0644\u0627": 2406, "\u2581Unser": 2407, "\u2581\u0632\u0644\u062a": 2408, "\u2581\u0633\u0623\u0641\u0639\u0644": 2409, "\u2581\u0645\u0642\u0627\u0628\u0644": 2410, "\u2581\u062d\u0627\u0648\u0644": 2411, "\u2581\u062d\u064a\u0646\u0645\u0627": 2412, "\u2581\u062a\u0639\u0648\u062f": 2413, "\u2581\u0627\u0644\u0642": 2414, "\u2581kleines": 2415, "\u0627\u0648": 2416, "\u2581Familien": 2417, "\u2581tat": 2418, "\u2581\u062f\u0643\u062a\u0648\u0631": 2419, "\u2581Habe": 2420, "\u2581\u0630\u0627\u0647\u0628": 2421, "\u2581\u0648\u0635\u0644\u062a": 2422, "\u2581\u062a\u0635\u0628\u062d": 2423, "\u2581\u0627\u0644\u0633\u0624\u0627\u0644": 2424, "\u2581Glaub": 2425, "\u2581Schiff": 2426, "\u2581nochmal": 2427, "\u2581findet": 2428, "\u2581\u0645\u0639\u0644\u0648\u0645\u0627\u062a": 2429, "\u2581ernst": 2430, "\u2581\u0648\u0641\u0642\u0627": 2431, "\u2581\u0623\u062e\u0631": 2432, "\u2581vorstellen": 2433, "\u2581\u0634\u064a": 2434, "\u2581\u0625\u0644": 2435, "\u2581Hund": 2436, "\u2581\u0623\u062a\u0639\u0631\u0641": 2437, "\u0625\u0644\u0649": 2438, "\u2581\u0648\u0644\u0643\u0646\u0647": 2439, "\u2581\u062f\u0639\u0648\u0646\u0627": 2440, "\u2581geschafft": 2441, "\u2581\u0627\u0644\u0643": 2442, "\u0623\u064a\u0646": 2443, "\u25812.": 2444, "il": 2445, "\u2581\u0641\u062a\u0649": 2446, "\u2581H": 2447, "\u2581\u062e\u0637\u0631": 2448, "\u2581\u0631\u063a\u0645": 2449, "\u2581Mist": 2450, "\u2581\u0627\u0644\u0633\u0644\u0627\u062d": 2451, "\u2581glaubst": 2452, "\u2581\u0623\u0623\u0646\u062a": 2453, "\u2581\u0643\u062b\u064a\u0631\u0629": 2454, "\u2581\u0645\u0646\u0643\u0645": 2455, "\u2581Schluss": 2456, "\u2581\u064a\u0630\u0647\u0628": 2457, "\u2581\u0627\u0641\u0636\u0644": 2458, "\u2581deshalb": 2459, "\u2581\u0628\u0648\u0627\u0633\u0637\u0629": 2460, "\u2581\u0667": 2461, "\u2581\u0661\u0662": 2462, "\u2581angerufen": 2463, "\u2581kamen": 2464, "\u0639\u062f": 2465, "ra": 2466, "\u2581\u0627\u0644\u062f\u0645": 2467, "\u2581\u0630\u0643\u0631": 2468, "\u2581\u0639\u0645\u0627": 2469, "\u2581\u0642\u0644\u064a\u0644": 2470, "\u2581Punkt": 2471, "\u2581\u0634\u0631\u0643\u0629": 2472, "\u2581\u0645\u0631\u0643\u0632": 2473, "\u2581weh": 2474, "\u2581wem": 2475, "\u2581\u0661\u0665": 2476, "\u2581\u0645\u0639\u0647\u0645": 2477, "\u2581\u064a\u062d\u0627\u0648\u0644": 2478, "da": 2479, "\u2581\u0627\u0644\u0639\u0634\u0627\u0621": 2480, "\u2581David": 2481, "\u2581Re": 2482, "\u2581nahm": 2483, "\u2581stand": 2484, "\u2581\u062a\u063a\u064a\u064a\u0631": 2485, "\u2581\u0639\u0634\u0631\u0629": 2486, "\u2581\u0641\u0642\u062f\u062a": 2487, "\u2581\u0633\u0627": 2488, "\u2581\u0623\u0635\u062f\u0642": 2489, "\u2581\u0645\u062b\u0644\u0643": 2490, "\u2581Tja": 2491, "\u2581\u0627\u0644\u0628\u062d\u0631": 2492, "\u2581sch\u00e4tze": 2493, "\u2581geschehen": 2494, "\u2581J": 2495, "\u2581\u062c\u0647\u0627\u0632": 2496, "\u2581\u0642\u062a\u0644\u062a": 2497, "\u2581\u0645\u062e\u062a\u0644\u0641\u0629": 2498, "\u2581Organisationen": 2499, "ische": 2500, "\u2581\u0623\u062d\u064a\u0627\u0646\u0627": 2501, "\u2581\u0627\u0644\u0642\u0648\u0629": 2502, "\u2581sitzen": 2503, "\u2581\u0642\u0631\u0627\u0631": 2504, "\u2581weiterhin": 2505, "\u2581\u0627\u0644\u0637\u0628\u064a\u0628": 2506, "\u2581\u0627\u0628\u062f\u0627": 2507, "ein": 2508, "\u2581\u064a\u0631\u064a\u062f\u0648\u0646": 2509, "\u2581Monate": 2510, "\u2581Wohnung": 2511, "\u2581k\u00f6nntest": 2512, "\u2581Hinweis": 2513, "\u2581Ah": 2514, "at": 2515, "\u2581\u062c\u0639\u0644": 2516, "\u2581W\u00fcrde": 2517, "\u2581\u0642\u0627\u062f\u0645": 2518, "\u0630\u0644\u0643": 2519, "\u2581\u062d\u0633\u0628": 2520, "\u2581\u0645\u0633\u062a\u0639\u062f": 2521, "\u2581\u0627\u0644\u0648\u0635\u0648\u0644": 2522, "\u2581\u0645\u062c\u0646\u0648\u0646": 2523, "\u2581Au\u00dferdem": 2524, "\u2581\u0642\u0631\u064a\u0628": 2525, "\u2581Gebiet": 2526, "\u2581\u0622\u0645\u0644": 2527, "\u2581k\u00f6nnt": 2528, "\u2581Ohne": 2529, "ma": 2530, "\u2581Bleib": 2531, "\u2581\u062d\u0628": 2532, "\u2581k\u00fcmmern": 2533, "\u2581\u0627\u0641\u0639\u0644": 2534, "\u2581\u0646\u0641\u0633\u0647\u0627": 2535, "\u2581\u0648\u0627\u0636\u062d": 2536, "\u2581\u266a": 2537, "\u2581\u0623\u0634\u0647\u0631": 2538, "\u2581kennt": 2539, "\u2581werdet": 2540, "\u2581\u0645\u062b\u064a\u0631": 2541, "\u2581Partner": 2542, "\u2581\u0627\u0644\u0628\u062d\u062b": 2543, "\u2581Sch": 2544, "\u2581gestorben": 2545, "\u2581\u0644\u0644\u0647": 2546, "\u2581\u062a\u0632\u0627\u0644": 2547, "\u2581\u0628\u0634\u064a\u0621": 2548, "\u2581f\u00fchrt": 2549, "\u2581Etwas": 2550, "\u0642\u0629": 2551, "\u2581Pr\u00e4sident": 2552, "\u2581aufh\u00f6ren": 2553, "\u2581\u0623\u062e\u0631\u062c": 2554, "\u2581\u0627\u0644\u062d\u0627\u0644\u0629": 2555, "\u2581\u0643\u0644\u0647\u0627": 2556, "\u2581Anfang": 2557, "\u25812000": 2558, "\u2581kaufen": 2559, "\u2581Bewegung": 2560, "na": 2561, "\u2581Kontrolle": 2562, "\u2581verdient": 2563, "\u2581\u0634\u0647\u0631": 2564, "\u2581trotzdem": 2565, "\u062d\u0644": 2566, "\u2581\u0628\u0627\u0644\u062e\u0627\u0631\u062c": 2567, "\u2581\u062c\u0626\u062a": 2568, "\u2581\u0627\u0644\u0645\u062c\u0644\u0633": 2569, "\u2581\u062a\u0639\u062f": 2570, "\u2581Zeichen": 2571, ".\u201c": 2572, "\u2581Viel": 2573, "\u2581\u062a\u062c\u062f": 2574, "\u2581\u0623\u0639\u0645\u0627\u0644": 2575, "\u2581klingt": 2576, "\u2581\u0627\u0644\u062c\u0627\u0646\u0628": 2577, "\u2581\u0627\u0646\u064a": 2578, "\u064a\u062c\u0628": 2579, "\u2581\u0628\u0646\u064a": 2580, "\u2581\u062a\u0642\u062f\u0645": 2581, "\u2581Monaten": 2582, "\u2581Prozent": 2583, "\u2581Machen": 2584, "\u2581Richtig": 2585, "\u2581lesen": 2586, "\u2581\u0623\u0647\u0644\u0627": 2587, "\u2581\u062d\u062a": 2588, "\u2581Gesch\u00e4ft": 2589, "\u2581\u0627\u0644\u0645\u0633\u064a\u062d": 2590, "\u2581&": 2591, "\u2581\u0639\u0627\u062f\u0629": 2592, "\u2581~": 2593, "\u2581k\u00e4mpfen": 2594, "\u2581\u0627\u0644\u0642\u0627\u062f\u0645\u0629": 2595, "\u2581Zeug": 2596, "\u2581Hol": 2597, "\u2581\u0648\u0627\u0646\u0627": 2598, "\u2581liegen": 2599, "\u2581\u0645\u0648\u0639\u062f": 2600, "\u2581Dich": 2601, "\u0631\u0643": 2602, "\u2581Tagung": 2603, "\u2581\u0627\u0644\u0623\u0648\u0631\u0648\u0628\u064a": 2604, "\u2581anderer": 2605, "\u2581fallen": 2606, "\u2581\u0632\u0648\u062c\u062a\u064a": 2607, "\u2581st\u00e4ndig": 2608, "\u2581Pass": 2609, "\u2581\u0645\u0624\u062e\u0631\u0627": 2610, "\u2581Mehr": 2611, "\u2581Gewalt": 2612, "\u0644\u0647": 2613, "\u2581\u0646\u0633\u064a\u062a": 2614, "\u2581total": 2615, "\u2581Gefahr": 2616, "\u2581\u0643\u062a\u0627\u0628": 2617, "\u2581\u0627\u0644\u0643\u0628\u064a\u0631": 2618, "\u2581\u0630\u0648": 2619, "6": 2620, "\u2581\u0644\u0644\u062a": 2621, "\u2581vorher": 2622, "\u0631\u0627\u0645": 2623, "\u2581au\u00dferdem": 2624, "\u2581N\u00e4he": 2625, "land": 2626, "\u2581Mission": 2627, "\u2581\u0661\u0661": 2628, "\u2581\u0628\u0623": 2629, "\u2581Gibt": 2630, "\u0631\u064a\u0643": 2631, "\u2581\u0628\u0639\u064a\u062f": 2632, "\u2581\u0639\u0644\u064a\u0643\u0645": 2633, "\u2581\u062c\u0648": 2634, "\u2581M\u00f6glichkeit": 2635, "\u2581\u0627\u0644\u062c\u064a\u062f": 2636, "\u2581\u0627\u0644\u0641\u062a\u0649": 2637, "\u2581\u062a\u0628\u0642\u0649": 2638, "\u2581\u0623\u0645\u0643": 2639, "\u2581Situation": 2640, "\u2581\u0628\u0646\u0641\u0633\u0643": 2641, "\u2581\u062e\u0645\u0633": 2642, "\u2581k": 2643, "\u2581erreichen": 2644, "\u2581\u0627\u0644\u0639\u0627\u0626\u0644\u0629": 2645, "\u2581Boss": 2646, "\u2581\u0648\u0642\u0627\u0644": 2647, "\u2581\u0623\u064a\u0636": 2648, "die": 2649, "ige": 2650, "\u0670": 2651, "\u0648\u0644\u0643\u0646": 2652, "\u2581anrufen": 2653, "la": 2654, "\u2581geschickt": 2655, "\u2581gerettet": 2656, "\u2581ihres": 2657, "\u2581\u0648\u0627\u062d\u062f\u0627": 2658, "\u2581Falls": 2659, "\u2581\u0627\u0644\u0628\u062f\u0627\u064a\u0629": 2660, "\u2581\u0642\u0627\u0626\u0645\u0629": 2661, "ta": 2662, "\u2581\u0627\u0644\u0634\u0645\u0633": 2663, "\u2581falls": 2664, "\u2581\u0631\u0627\u0626\u0639\u0627": 2665, "ja": 2666, "\u2581\u0639\u0645\u0644\u064a": 2667, "\u0641\u0629": 2668, "\u2581\u0627\u0644\u062e\u0637": 2669, "\u2581\u0632\u0627\u0644": 2670, "\u2581\u0646\u0639\u0644\u0645": 2671, "\u2581\u0669": 2672, "\u2581Hoffnung": 2673, "\u2581\u0645\u0648\u0642\u0639": 2674, "\u2581hilft": 2675, "\u2581\u0623\u062d\u0636\u0631": 2676, "\u2581\u0627\u0644\u0645\u062c\u062a\u0645\u0639": 2677, "\u0627\u0626\u0643": 2678, "\u2581Tisch": 2679, "\u2581\u0627\u0644\u0645\u0646\u0627\u0633\u0628": 2680, "\u2581Dienst": 2681, "\u2581pro": 2682, "\u2581Gold": 2683, "\u0633\u0648\u0641": 2684, "\u2581\u0623\u0648\u0644\u0626\u0643": 2685, "\u2581Frank": 2686, "\u2581damals": 2687, "\u2581\u0627\u0644\u0623\u0639\u0645\u0627\u0644": 2688, "ungen": 2689, "\u2581\u0644\u0623\u0646\u064a": 2690, "\u2581\u064a\u0639\u0648\u062f": 2691, "\u2581\u0627\u0644\u0642\u062f\u064a\u0645\u0629": 2692, "\u2581\u0627\u0644\u0633\u064a": 2693, "\u2581\u062a\u0639\u0627\u0644\u064a": 2694, "\u0636\u062d\u0643": 2695, "\u2581\u0623\u062d\u062f\u0627": 2696, "\u2581\u0641\u0643\u0631\u062a": 2697, "\u2581\u0631\u062c\u0644\u0627": 2698, "\u2581Energie": 2699, "\u2581\u0628\u0627\u0646": 2700, "\u0627\u0632": 2701, "\u2581wollt": 2702, "\u2581Gruppe": 2703, "\u2581\u0627\u0644\u062d\u0638": 2704, "\u2581\u0639\u0644\u0645\u062a": 2705, "\u2581\u0643\u0647\u0630\u0627": 2706, "\u2581h\u00f6rte": 2707, "\u2581Wow": 2708, "\u2581\u062f\u0645": 2709, "\u2581starb": 2710, "\u2581\u0623\u0635\u062f\u0642\u0627\u0621": 2711, "\u2581\u0635\u0646\u062f\u0648\u0642": 2712, "\u2581\u0642\u062f\u0631": 2713, "\u0634\u064a": 2714, "\u2581Liste": 2715, "\u2581Erkl\u00e4rung": 2716, "\u2581M\u00f6chte": 2717, "\u2581umbringen": 2718, "\u2581Kenntnis": 2719, "\u2581n\u00f6tig": 2720, "\u2581irgendwo": 2721, "\u2581Traum": 2722, "\u2581\u0627\u0644\u062c\u0632\u0621": 2723, "\u2581Mike": 2724, "\u2581\u0627\u0644\u062a\u0639\u0627\u0648\u0646": 2725, "\u2581\u0627\u0646\u0638\u0631\u064a": 2726, "\u2581Musik": 2727, "\u2581sollst": 2728, "\u2581\u0644\u0639\u0628\u0629": 2729, "\u2581dr\u00fcben": 2730, "\u2581\u0623\u0633\u0645\u0639": 2731, "\u2581Ben": 2732, "\u2581benutzt": 2733, "\u2581Fenster": 2734, "\u2581\u0648\u0627\u0646\u062a": 2735, "\u2581\u0627\u0630\u0646": 2736, "\u2581\u0623\u062a\u0631\u064a\u062f": 2737, "\u2581\u0627\u0644\u0623\u0643\u062b\u0631": 2738, "\u2581\u0627\u0644\u0645\u0634\u0627\u0643\u0644": 2739, "\u2581kennst": 2740, "\u2581wert": 2741, "\u2581\u0633\u064a\u0621": 2742, "\u0631\u0627": 2743, "\u2581\u0628\u0643\u062b\u064a\u0631": 2744, "\u2581\u064a\u062c\u0639\u0644": 2745, "\u2581Preis": 2746, "\u2581Ehe": 2747, "\u2581\u0627\u0644\u0641\u062a\u064a\u0627\u062a": 2748, "\u2581\u0627\u0644\u0627\u0642\u062a\u0635\u0627\u062f\u064a": 2749, "\u2581gro\u00dfer": 2750, "\u2581verschwinden": 2751, "\u2581hart": 2752, "\u2581\u0648\u0644\u0643\u0646\u064a": 2753, "\u2581Stelle": 2754, "\u2581\u0623\u0648\u0631\u0648\u0628\u0627": 2755, "\u2581Daddy": 2756, "\u2581M\u00f6rder": 2757, "\u2581Ruf": 2758, "\u2581liebt": 2759, "\u2581vertrauen": 2760, "\u2581\u0623\u0647\u0630\u0627": 2761, "\u2581\u0623\u062e\u0630\u062a": 2762, "\u2581\u0627\u0644\u0642\u0636\u064a\u0629": 2763, "\u2581\u0627\u0633\u0645\u0647": 2764, "\u2581\u0628\u064a\u0646\u0646\u0627": 2765, "\u2581\u0644\u0641\u062a\u0631\u0629": 2766, "\u0628\u064a\u0644": 2767, "\u2581offen": 2768, "\u2581\u0625\u0646\u0646\u0627": 2769, "\u2581\u0627\u0644\u0627\u062a\u062d\u0627\u062f": 2770, "\u2581\u0630\u0627\u0643": 2771, "\u2581Nachrichten": 2772, "\u2581\u0628\u0623\u0646\u0647\u0627": 2773, "\u2581Charlie": 2774, "\u2581\u062d\u0648\u0627\u0644\u064a": 2775, "\u2581\u062f\u0641\u0639": 2776, "\u2581\u064a\u0635\u0628\u062d": 2777, "\u2581Mittel": 2778, "\u2581hei\u00dfen": 2779, "\u2581\u0627\u0644\u0635\u0639\u0628": 2780, "\u258122": 2781, "\u2581\u0628\u0628\u0639\u0636": 2782, "\u062d\u0628": 2783, "\u2581\u0644\u0644\u0639\u0645\u0644": 2784, "\u2581Auge": 2785, "\u062f\u0631": 2786, "\u2581\u0628\u0639\u0645\u0644": 2787, "\u2581\u0648\u0644\u0648": 2788, "\u0645\u062b\u0644": 2789, "\u062a\u0643\u0645": 2790, "\u2581\u0635\u0627\u062d": 2791, "\u2581\u064a\u062f": 2792, "\u2581wirtschaftliche": 2793, "\u2581\u0641\u0639\u0644\u062a\u0647": 2794, "\u2581Willkommen": 2795, "!\"": 2796, "\u2581\u0639\u0644": 2797, "\u2581voller": 2798, "\u2581\u0643\u062a\u0628": 2799, "\u2581Computer": 2800, "ich": 2801, "()\u060c": 2802, "\u2581Richtung": 2803, "\u2581\u0645\u0639\u0638\u0645": 2804, "\u2581\u0627\u0644\u0633\u0627\u0628\u0642\u0629": 2805, "\u2581\u0622\u0644": 2806, "\u2581\u0633\u0624\u0627\u0644": 2807, "ster": 2808, "\u2581\u0623\u064a\u0627": 2809, "\u2581\u0627\u0644\u0642\u0644\u064a\u0644": 2810, "\u2581\u062a\u0648\u062f": 2811, "\u2581erkennen": 2812, "\u2581Mitgliedstaaten": 2813, "\u2581zeigt": 2814, "\u2581Drei": 2815, "\u2581dagegen": 2816, "\u2581\u062a\u0631\u0643\u062a": 2817, "\u2581Tom": 2818, "\u2581\u062d\u0627\u0644\u0627": 2819, "\u2581\u0627\u0644\u0648\u0637\u0646\u064a\u0629": 2820, "\u2581\u0623\u0637\u0641\u0627\u0644": 2821, "\u2581\u062a\u0636\u0639": 2822, "\u2581\u0648\u0642\u062a\u0627": 2823, "heit": 2824, "\u2581umgebracht": 2825, "\u2581FBI": 2826, "\u2581\u0645\u0648\u062c\u0648\u062f": 2827, "\u2581glaubt": 2828, "\u2581\u0627\u0646\u062a\u0647\u0649": 2829, "\u2581\u0627\u0644\u0645\u062a\u0639\u0644\u0642\u0629": 2830, "ke": 2831, "\u2581L\u00e4ndern": 2832, "\u2581jemandem": 2833, "\u2581Manchmal": 2834, "\u2581\u062e\u0644\u0641": 2835, "\u062f\u0627\u0646": 2836, "\u2581\u062d\u064a\u0627\u0644": 2837, "Z": 2838, "\u2581\u0648\u0627\u0644\u0627": 2839, "\u2581\u0627\u062e\u0631": 2840, "\u062d\u0642\u0627": 2841, "\u2581Versuch": 2842, "\u2581Captain": 2843, "\u2581\u0641\u0644\u062a": 2844, "\u2581\u0645\u062a\u0623\u0643\u062f\u0629": 2845, "\u2581hasse": 2846, "\u2581\u0623\u0639\u0637\u0646\u064a": 2847, "\u2581\u0627\u0644\u0639\u0645\u0644\u064a\u0629": 2848, "\u062f\u062a": 2849, "\u2581\u0661\u0664": 2850, "\u2581Durchf\u00fchrung": 2851, "\u2581\u062a\u0639\u064a\u0634": 2852, "\u25812005": 2853, "\u2581\u0633\u0631": 2854, "\u2581spielt": 2855, "\u2581\u0627\u0644\u062f\u062e\u0648\u0644": 2856, "\u2581acht": 2857, "\u2581erinnere": 2858, "\u2581\u0644\u0623\u0646\u0647\u0627": 2859, "\u2581benutzen": 2860, "\u2581Darum": 2861, "\u2581\u0645\u0647\u0645\u0629": 2862, "\u2581bringe": 2863, "\u2581\u062a\u0641\u0643\u0631": 2864, "\u2581\u0627\u0644\u0635\u0644\u0629": 2865, "\u2581\u0644\u0633\u0646\u0627": 2866, "\u2581\u064a\u062a\u062d\u062f\u062b": 2867, "\u2581\u0625\u064a\u062c\u0627\u062f": 2868, "0": 2869, "\u2581Gesellschaft": 2870, "\u2581\u0627\u0644\u062a\u0646\u0645\u064a\u0629": 2871, "\u0631\u064a\u0646": 2872, "\u2581Beste": 2873, "\u2581\u0627\u0644\u0633\u0646\u0629": 2874, "\u2581wen": 2875, "\u2581eigene": 2876, "\u2581Ha": 2877, "\u2581\u062b": 2878, "\u2581gewinnen": 2879, "\u2581\u0627\u0644\u0632\u0648\u0627\u062c": 2880, "\u2581\u0634\u0643\u0644": 2881, "\u2581Gesetz": 2882, "\u2581schreiben": 2883, "\u2581\u0648\u0643\u0630\u0644\u0643": 2884, "\u2581fort": 2885, "\u2581\u0627\u0644\u0623\u0645": 2886, "\u2581\u062e\u064a\u0627\u0631": 2887, "\u2581m\u00f6chten": 2888, "\u2581\u0623\u0645\u0633": 2889, "\u0635\u0644": 2890, "Die": 2891, "\u2581w\u00e4rst": 2892, "\u2581\u0623\u0633\u0631\u0639": 2893, "\u0641\u064a\u0644": 2894, "\u2581\u0628\u0642\u062f\u0631": 2895, "\u2581Handy": 2896, "\u2581\u0628\u062a\u0644\u0643": 2897, "\u2581\u0633\u064a\u062d\u062f\u062b": 2898, "\u2581\u0623\u0631\u0628\u0639\u0629": 2899, "\u2581cool": 2900, "\u2581\u0645\u0644\u0643": 2901, "\u0639\u0645": 2902, "\u2581\u0627\u0644\u0645\u062e\u062f\u0631\u0627\u062a": 2903, "\u2581rede": 2904, "\u2581\u0642\u0633\u0645": 2905, "\u2581Haupt": 2906, "\u2581f\u00e4llt": 2907, "\u2581heiraten": 2908, "\u2581sorgen": 2909, "\u0648\u0632": 2910, "\u2581\u0628\u0627\u0644\u062a": 2911, "\u2581Seele": 2912, "\u2581\u062a\u0627\u0631\u064a\u062e": 2913, "\u2581St": 2914, "\u2581\u0627\u0644\u0645\u0643\u062a\u0628": 2915, "\u2581erkl\u00e4rt": 2916, "un": 2917, "\u0631\u0627\u064a": 2918, "\u2581\u0639\u0642\u062f": 2919, "\u2581\u0661\u0663": 2920, "\u2581lustig": 2921, "\u2581unterst\u00fctzen": 2922, "\u2581H\u00f6rt": 2923, "\u2581gef\u00e4hrlich": 2924, "\u2581\u0635\u0648\u062a": 2925, "\u2581anfangen": 2926, "\u2581\u0646\u0631\u0649": 2927, "\u2581Viele": 2928, "\u0642\u0631": 2929, "\u2581Michael": 2930, "\u2581\u0633\u062a\u0629": 2931, "\u0647\u064a\u0627": 2932, "\u2581\u0635\u0639\u0628": 2933, "\u2581\u062c\u0627\u0643": 2934, "\u2581schlimmer": 2935, "\u2581bitten": 2936, "\u2581\u0623\u0628": 2937, "\u2581\u062a\u0641\u0636\u0644": 2938, "\u2581\u0623\u062e\u064a\u0631\u0627": 2939, "\u2581entfernt": 2940, "\u2581\u0627\u0644\u0645\u062b\u0627\u0644": 2941, "\u0627\u0646\u0647": 2942, "\u2581Bank": 2943, "\u2581arbeitet": 2944, "\u2581\u0627\u0644\u062d\u062f": 2945, "\u0627\u0626\u0647": 2946, "\u2581\u0625\u0646\u062a\u0638\u0631": 2947, "\u2581\u0634\u0639\u0631\u062a": 2948, "\u2581geschrieben": 2949, "\u2581\u062a\u062e\u0631\u062c": 2950, "\u2581\u0627\u0645\u0631": 2951, "\u2581\u0627\u0644\u0627\u0642\u062a\u0635\u0627\u062f\u064a\u0629": 2952, "\u2581\u0627\u0644\u062f\u0627\u062e\u0644": 2953, "\u2581N": 2954, "\u2581\u0637\u0628\u064a\u0628": 2955, "\u2581Entschuldigen": 2956, "\u25812003": 2957, "\u2581Papa": 2958, "\u2581stolz": 2959, "\u0623\u064a\u0647\u0627": 2960, "\u2581Beziehung": 2961, "\u2581\u0648\u0627\u0644\u062a": 2962, "\u2581\u0648\u0643\u064a\u0641": 2963, "\u064a\u0628": 2964, "\u2581Rahmen": 2965, "\u2581\u0623\u0633\u0648\u0623": 2966, "\u2581n\u00e4her": 2967, "\u2581\u2018": 2968, "\u2581\u0627\u0639\u062a\u0642\u062f\u062a": 2969, "\u0633\u0648": 2970, "\u0633\u062a\u0631": 2971, "\u2581Wird": 2972, "\u2581\u0628\u0639\u0636\u0646\u0627": 2973, "\u2581U": 2974, "\u2581m\u00f6gen": 2975, "\u2581\u0623\u062e\u0628\u0631": 2976, "\u2581\u0628\u0643\u0645": 2977, "\u2581\u0627\u0644\u0643\u0644\u0627\u0645": 2978, "\u2581\u0633\u062a\u0641\u0639\u0644": 2979, "\u2581\u0631\u0623\u0633": 2980, "\u2581Herrn": 2981, "\u2581\u0628\u0627\u0644\u0644\u0647": 2982, "\u2581sieben": 2983, "\u2581\u0627\u0644\u0647\u064a": 2984, "\u2581\u062e\u0637\u0629": 2985, "\u2581\u0627\u0644\u0645\u062d\u0643\u0645\u0629": 2986, "\u2581hinaus": 2987, "\u2581\u0641\u0645\u0646": 2988, "\u064a\u0641": 2989, "\u2581US": 2990, "\u2581h\u00f6re": 2991, "\u2581\u0648\u0633\u064a": 2992, "\u2581\u0627\u0644\u0623\u0637\u0631\u0627\u0641": 2993, "co": 2994, "\u2581\u062f\u0639\u0645": 2995, "\u2581Internationale": 2996, "\u2581Anwalt": 2997, "\u2581\u064a\u0641\u062a\u0631\u0636": 2998, "\u2581\u0628\u0627\u0644\u0627": 2999, "\u2581\u062f\u0644\u064a\u0644": 3000, "\u2581\u0627\u0644\u0627\u062a\u0635\u0627\u0644": 3001, "\u2581\u0623\u0645\u0648\u0631": 3002, "\u2581\u062a\u062e\u0628\u0631\u0646\u064a": 3003, "liche": 3004, "Das": 3005, "\u2581Laden": 3006, "\u2581besteht": 3007, "\u2581\u0627\u0644\u0633\u0627\u0628\u0642": 3008, "\u2581bekommt": 3009, "\u2581\u0639\u062f\u062a": 3010, "\u2581stellt": 3011, "\u0631\u0648": 3012, "\u2581\u0627\u0644\u062c\u0631\u064a\u0645\u0629": 3013, "\u2581\u0627\u0633": 3014, "\u2581Wei\u00df": 3015, "\u0645\u0631": 3016, "\u2581De": 3017, "\u2581schicken": 3018, "\u2581Onkel": 3019, "\u2581\u062a\u0635\u0644": 3020, "\u2581\u062a\u0646\u0638\u0631": 3021, "\u2581\u0625\u062f\u0627\u0631\u0629": 3022, "\u2581\u2022": 3023, "\u2581arbeite": 3024, "\u2581\u0639\u0646\u062f\u064a": 3025, "\u062a\u0631": 3026, "\u2581Organisation": 3027, "\u2581neues": 3028, "\u0641\u0643": 3029, "\u2581\u0641\u0647\u064a": 3030, "\u2581Arschloch": 3031, "\u062e\u0630": 3032, "\u0630\u064a": 3033, "\u2581\u0628\u0639\u062f\u0647\u0627": 3034, "\u2581\u0633\u0627\u0645": 3035, "\u2581Wunder": 3036, "\u2581richtige": 3037, "\u2581Geben": 3038, "ischen": 3039, "\u2581Reise": 3040, "\u2581\u064a\u0639\u064a\u0634": 3041, "\u2581\u0627\u0644\u0646\u0645\u0648": 3042, "\u2581behalten": 3043, "\u0643\u0631": 3044, "\u2581\u0645\u0633\u062a\u0648\u0649": 3045, "\u062f\u0627\u0631": 3046, "\u25812004": 3047, "\u2581\u0627\u0644\u0635\u0648\u0631": 3048, "\u2581\u062d\u0627\u062c\u0629": 3049, "\u2581\u0642\u0636\u064a\u0629": 3050, "ir": 3051, "\u2581\u0648\u0636\u0639\u062a": 3052, "ger": 3053, "\u2581Eigentlich": 3054, "\u2581Allah": 3055, "th": 3056, "\u2581\u0627\u0644\u0644\u0642\u0627\u0621": 3057, "\u2581\u064a\u0642\u0648\u0644\u0648\u0646": 3058, "\u2581Stimme": 3059, "\u2581\u0625\u0630\u0647\u0628": 3060, "\u2581%": 3061, "\u2581\u0627\u0644\u0648": 3062, "\u0643\u0648\u0646": 3063, "\u2581George": 3064, "\u2581\u0628\u0627\u0644\u0643\u0627\u0645\u0644": 3065, "\u2581Kontakt": 3066, "\u2581\u0648\u062c\u062f": 3067, "\u2581bezahlt": 3068, "\u2581Immer": 3069, "\u2581\u0628\u0636\u0639\u0629": 3070, "\u2581\u0628\u0625\u0645\u0643\u0627\u0646\u0643": 3071, "\u2581Monat": 3072, "*": 3073, "\u2581Ernst": 3074, "\u0641\u064a\u0646": 3075, "\u2581still": 3076, "\u062d\u0627\u0648\u0644": 3077, "\u2581\u0646\u0642\u0637\u0629": 3078, "\u2581Leiche": 3079, "\u2581Ex": 3080, "\u2581rl": 3081, "\u2581\u0628\u0634\u062f\u0629": 3082, "\u062e\u0628\u0631": 3083, "\u2581\u0623\u0639\u0644\u0649": 3084, "ul": 3085, "\u062c\u062f": 3086, "\u2581\u062a\u063a\u064a\u0631": 3087, "\u2581\u0628\u0623\u0646\u064a": 3088, "\u258160": 3089, "\u2581Doktor": 3090, "\u25813.": 3091, "do": 3092, "\u2581\u062a\u0646\u0627\u0648\u0644": 3093, "\u2581Christen": 3094, "\u2581Regeln": 3095, "\u2581passt": 3096, "\u2581\u0648\u062f\u0627\u0639\u0627": 3097, "\u2581\u0645\u0633\u062a\u062d\u064a\u0644": 3098, "\u2581gelernt": 3099, "\u0645\u0627\u064a\u0643": 3100, "\u2581\u0645\u062d\u0627\u0648\u0644\u0629": 3101, "\u2581\u0627\u0644\u0641\u0631\u064a\u0642": 3102, "\u2581besch\u00fctzen": 3103, "\u2581w\u00fcnschte": 3104, "\u2581folgen": 3105, "\u2581wartet": 3106, "\u2581Hochzeit": 3107, "\u2581\u0623\u0637\u0644\u0642": 3108, "\u2581redest": 3109, "\u0642\u0627\u0644": 3110, "\u2581\u0627\u0644\u0628\u0634\u0631\u064a\u0629": 3111, "\u2581\u0625\u0637\u0644\u0627\u0642": 3112, "\u2581Zeiten": 3113, "\u2581\u0627\u0644\u0647\u062f\u0641": 3114, "\u2581Habt": 3115, "\u2581\u064a\u0633\u062a\u062d\u0642": 3116, "\u2581\u0661\u0667": 3117, "\u2581Nehmen": 3118, "\u2581Geb\u00e4ude": 3119, "\u0645\u0627\u0631\u064a": 3120, "\u2581Entschuldige": 3121, "\u2581\u0632\u064a\u0627\u062f\u0629": 3122, "\u2581Eis": 3123, "\u2581\u0639\u0627\u062f": 3124, "Was": 3125, "\u258123": 3126, "\u2581H\u00e4tte": 3127, "\u2581\u0627\u0644\u0642\u0648\u0644": 3128, "\u2581\u0631\u062f": 3129, "\u2581\u0641\u0636\u0644\u0627": 3130, "\u2581\u0623\u0631": 3131, "\u2581\u062a\u0631\u063a\u0628": 3132, "\u2581\u0648\u0633\u0623": 3133, "\u2581Finger": 3134, "\u2581Schritt": 3135, "\u2581\u0661\u0666": 3136, "\u2581\u062a\u0628\u062f\u0623": 3137, "\u2581erneut": 3138, "\u2581\u0627\u0644\u0644\u062d\u0638\u0629": 3139, "\u2581sch\u00fctzen": 3140, "\u2581\u0623\u0628\u062d\u062b": 3141, "\u2581\u0648\u0647\u0644": 3142, "\u2581diejenigen": 3143, "ko": 3144, "ol": 3145, "\u2581Druck": 3146, "19": 3147, "\u2581p": 3148, "\u2581\u0642\u0645": 3149, "\u2581\u0627\u0644\u0641\u0631\u0635\u0629": 3150, "\u2581Paulus": 3151, "\u2581\u062a\u0645\u0644\u0643": 3152, "\u2581d": 3153, "\u2581Botschaft": 3154, "\u201c,": 3155, "\u2581\u0627\u0644\u0623\u0633\u0627\u0633\u064a\u0629": 3156, "\u2581\u0642\u062f\u0645": 3157, "\u2581\u0627\u0644\u0647": 3158, "\u2581\u0623\u0643\u0631\u0647": 3159, "\u2581\u0641\u0643": 3160, "\u0641\u0627": 3161, "\u2581China": 3162, "\u2581Gericht": 3163, "\u2581\u0644\u062c\u0646\u0629": 3164, "\u2581Aufgabe": 3165, "\u2581\u0627\u0644\u0634\u064a\u0637\u0627\u0646": 3166, "\u0639\u062a": 3167, "\u2581Wert": 3168, "\u2581General": 3169, "\u2581\u0627\u0644\u062a\u0639\u0627\u0645\u0644": 3170, "\u2581\u062a\u0623\u0643\u064a\u062f": 3171, "\u2581\u0627\u0644\u0633\u0641\u064a\u0646\u0629": 3172, "\u2581verheiratet": 3173, "\u2581hey": 3174, "\u2581\u0646\u062c\u062f": 3175, "\u2581\u062a\u062d\u062f\u064a\u062f": 3176, "\u2581\u0627\u0644\u0623\u064a\u0627\u0645": 3177, "\u2581pl\u00f6tzlich": 3178, "\u2581schlimm": 3179, "\u2581\u062d\u0631\u0628": 3180, "\u2581Warten": 3181, "\u2581innerhalb": 3182, "\u2581\u0628\u0646\u0641\u0633\u064a": 3183, "\u2581brachte": 3184, "\u25812001": 3185, "\u2581hinten": 3186, "\u0643\u064a\u0646": 3187, "\u2581Tat": 3188, "\u2581\u0646\u064a\u0648\u064a\u0648\u0631\u0643": 3189, "\u2581\u0627\u0644\u062c": 3190, "\u0644\u0649": 3191, "\u0627\u0635": 3192, "\u2581Arm": 3193, "\u2581Dort": 3194, "\u2581\u0623\u0631\u0627\u062f": 3195, "\u2581Personen": 3196, "\u2581\u0627\u0644\u0645\u0647\u0645": 3197, "EN": 3198, "Name": 3199, "\u2581\u0627\u0644\u062a\u0627\u0644\u064a\u0629": 3200, "\u2581niemanden": 3201, "mann": 3202, "\u2581\u0627\u062e\u0631\u062c": 3203, "\u2581\u0641\u062a": 3204, "\u2581\u0645\u0633\u0623\u0644\u0629": 3205, "\u062d\u062a": 3206, "\u25812002": 3207, "di": 3208, "\u2581Foto": 3209, "\u2581\u0645\u0633\u0627\u0621": 3210, "\u2581\u0642\u0637\u0639\u0629": 3211, "\u2581tief": 3212, "\u2581\u0643\u0644\u0645\u0627": 3213, "\u2581internationale": 3214, "\u0627\u0636": 3215, "\u0633\u0623": 3216, "\u2581Daten": 3217, "\u2581\u0627\u062a\u0635\u0644": 3218, "\u2581\u0645\u0631\u0627\u062a": 3219, "\u2581Wein": 3220, "\u2581Beweise": 3221, "\u2581Max": 3222, "\u0639\u0646": 3223, "\u2581Idiot": 3224, "\u2581dahin": 3225, "\u2581\u0627\u0644\u0645\u064a\u0627\u0647": 3226, "\u0632\u0644": 3227, "\u2581Einer": 3228, "\u2581\u0642\u0627\u062a\u0644": 3229, "\u2581See": 3230, "\u2581euer": 3231, "\u2581\u062f\u0648\u0645\u0627": 3232, "\u2581Ob": 3233, "\u2581Menschenrechte": 3234, "\u2581halte": 3235, "\u2581\u0635\u0627\u062d\u0628": 3236, "\u064a\u0621": 3237, "\u2581Br\u00fcder": 3238, "id": 3239, "\u2581de": 3240, "\u2581All": 3241, "\u2581Ent": 3242, "\u2581Daf\u00fcr": 3243, "\u0627\u062b": 3244, "\u2581einschlie\u00dflich": 3245, "\u2581\u0627\u0644\u0633\u064a\u0637\u0631\u0629": 3246, "\u2581Bilder": 3247, "ut": 3248, "\u0628\u0627\u0631": 3249, "\u2581vorsichtig": 3250, "\u2581Behandlung": 3251, "\u2581\u0645\u0641\u0647\u0648\u0645": 3252, "\u2581Peter": 3253, "\u2581\u0623\u0637\u0644\u0628": 3254, "\u2581\u0645\u064a\u0644": 3255, "\u2581miteinander": 3256, "\u2581Brief": 3257, "\u2581\u0641\u0623\u0646\u062a": 3258, "isch": 3259, "\u0633\u062a\u0637\u064a\u0639": 3260, "\u2581\u062a\u0624\u0643\u062f": 3261, "\u2581\u0623\u0646\u062a\u064a": 3262, "\u2581\u062d\u0645\u0627\u064a\u0629": 3263, "\u2581ewig": 3264, "\u2581frage": 3265, "\u2581\u0644\u0645\u0646": 3266, "\u258121": 3267, "\u2581deswegen": 3268, "\u2581\u0633\u0644\u0627\u062d": 3269, "\u0628\u0646": 3270, "\u0631\u0627\u0621": 3271, "\u2581Sekunden": 3272, "\u2581\u0631\u0624\u064a\u062a\u0643": 3273, "\u064a\u062a\u064a": 3274, "\u2581schrieb": 3275, "ri": 3276, "\u2581\u062c\u0631\u064a\u0645\u0629": 3277, "\u2581\u0627\u0644\u0637\u0627\u0626\u0631\u0629": 3278, "\u2581gutes": 3279, "\u2581\u064a\u0639\u062a\u0642\u062f": 3280, "\u2581Fu\u00df": 3281, "\u2581\u0627\u062a\u062e\u0627\u0630": 3282, "\u2581Herren": 3283, "\u2581\u0627\u0644\u0628\u0644\u062f\u0629": 3284, "\u2581Weile": 3285, "\u2581\u0642\u064a\u0645\u0629": 3286, "\u2581Vergangenheit": 3287, "\u2581\u0645\u062d\u0644": 3288, "\u2581Will": 3289, "\u2581\u0627\u0644\u062a\u0627\u0631\u064a\u062e": 3290, "\u2581\u0639\u0645\u0644\u064a\u0627\u062a": 3291, "\u2581\u0623\u0646\u062a\u0638\u0631": 3292, "\u2581b\u00f6se": 3293, "\u0623\u062a": 3294, "\u2581Flug": 3295, "\u2581Erfolg": 3296, "\u2581\u0627\u0644\u0631\u063a\u0645": 3297, "\u2581\u00e4h": 3298, "\u2581\u0645\u0631\u062d\u0628": 3299, "\u2581Blick": 3300, "\u2581\u0623\u0645\u0631\u0627": 3301, "\u00f6": 3302, "\u2581\u0648\u0643\u0627\u0646\u062a": 3303, "\u2581\u0627\u0644\u0631\u0626\u064a\u0633\u064a": 3304, "\u2581\u064a\u062a\u0635\u0644": 3305, "\u2581Israel": 3306, "\u2581\u0638\u0647\u0631": 3307, "\u2581\u0625\u0646\u064a": 3308, "\u2581\u0645\u0635\u062f\u0631": 3309, "\u2581Zug": 3310, "\u2581unterwegs": 3311, "\u2581\u062e\u064a\u0631": 3312, "\u2581\u0630": 3313, "ren": 3314, "\u0628\u0627\u062a": 3315, "\u2581\u062a\u0639\u062a\u0642\u062f\u064a\u0646": 3316, "\u2581\u0633\u0628\u0642": 3317, "\u2581\u0627\u0644\u0627\u0648\u0644": 3318, "\u0631\u062c": 3319, "\u2581Form": 3320, "\u2581Geschenk": 3321, "\u2581Klappe": 3322, "\u2581\u0648\u0635\u0644": 3323, "\u2581ver\u00e4ndert": 3324, "\u2581\u0644\u0643\u0646\u0646\u0627": 3325, "\u0628\u064a\u062a": 3326, "\u2581\u0623\u0641\u0631\u064a\u0642\u064a\u0627": 3327, "\u2581\u0623\u062e\u0628\u0627\u0631": 3328, "haus": 3329, "\u2581w\u00fctend": 3330, "\u2581besorgt": 3331, "\u2581\u0633\u0623\u0642\u0648\u0645": 3332, "\u2581\u0639\u062f": 3333, "\u2581\u062a\u0639\u0627\u0644\u0649": 3334, "\u0639\u064a\u062f": 3335, "\u2581Gehirn": 3336, "\u2581\u0627\u0644\u0634\u0639\u0648\u0631": 3337, "\u2581\u0636": 3338, "\u2581\u0646\u0642\u0644": 3339, "\u2581Verbrechen": 3340, "\u2581bezahlen": 3341, "\u0631\u0628\u0645\u0627": 3342, "\u2581Einige": 3343, "\u064a\u0632": 3344, "\u2581\u0623\u062c\u062f": 3345, "\u2581\u0627\u0644\u0623\u0628": 3346, "\u2581geh\u00f6ren": 3347, "\u2581\u0623\u0639\u0648\u062f": 3348, "\u2581Gef\u00fchle": 3349, "\u2581Gefallen": 3350, "\u062a\u0648\u0646": 3351, "\u2581\u0634\u0647\u0648\u062f": 3352, "\u2581verkaufen": 3353, "\u2581\u0633\u0623\u0639\u0648\u062f": 3354, "\u2581\u0648\u0644\u062f": 3355, "\u2581\u0645\u0646\u062a\u0635\u0641": 3356, "\u2581\u0627\u0644\u0647\u0648\u0627\u0621": 3357, "\u0644\u0648\u0646": 3358, "\u2581Eins": 3359, "\u2581\u064a\u0623\u062e\u0630": 3360, "\u0631\u064a\u0633": 3361, "\u2581\u064a\u0645\u0648\u062a": 3362, "\u2581\u0627\u0644\u0639\u0631\u0636": 3363, "\u2581sch": 3364, "\u2581\u0648\u0633\u0637": 3365, "\u2581n\u00e4mlich": 3366, "\u0634\u0648": 3367, "\u2581\u0641\u0641\u064a": 3368, "\u2581\u0641\u0644\u0645": 3369, "\u2581\u0635\u0646\u0639": 3370, "\u2581unm\u00f6glich": 3371, "\u2581\u062a\u0642\u0635\u062f": 3372, "\u2581\u0623\u0647\u0644": 3373, "\u2581\u0642\u0637\u0639": 3374, "\u0627\u0630\u0627": 3375, "me": 3376, "mo": 3377, "\u2581Minute": 3378, "\u2581Pr\u00e4sidenten": 3379, "\u2581Programm": 3380, "\u2581Resolutionen": 3381, "\u0627\u062a\u064a": 3382, "\u2581Wohin": 3383, "\u2581ansehen": 3384, "\u2581perfekt": 3385, "\u2581\u0639\u062f\u0627": 3386, "\u2581bewegen": 3387, "\u2581Wegen": 3388, "\u2581\u0633\u0648\u0627\u0621": 3389, "\u2581\u0627\u0647": 3390, "\u0648\u0627\u0644": 3391, "\u2581\u0648\u0644\u0643\u0646\u0647\u0627": 3392, "\u2581\u0627\u0644\u0623\u062e\u064a\u0631": 3393, "\u0646\u062c": 3394, "\u2581\u0627\u0644\u062e\u0637\u0623": 3395, "\u2581weder": 3396, "\u2581rufe": 3397, "\u2581\u0627\u0644\u0628\u0644\u0627\u062f": 3398, "\u0645\u0643\u0646": 3399, "\u2581\u064a\u0635\u0644": 3400, "\u2581verantwortlich": 3401, "\u2581\u0627\u0644\u0642\u062f\u064a\u0645": 3402, "\u2581\u0642\u0644\u0628": 3403, "\u2581gestohlen": 3404, "\u2581\u0627\u0644\u0635\u062d\u064a\u062d": 3405, "\u2581\u062d\u0641\u0644\u0629": 3406, "\u2581\u0637\u0627\u0644\u0645\u0627": 3407, "\u2581Einsatz": 3408, "\u2581\u062d\u0642\u064a\u0642\u064a\u0629": 3409, "\u2581\u0627\u0644\u0642\u0627\u0626\u0645\u0629": 3410, "\u2581R\u00fccken": 3411, "\u2581\u0627\u0644\u0642\u062a\u0644": 3412, "\u2581\u0647\u0630\u0629": 3413, "\u2581daher": 3414, "\u2581\u0627\u0633\u0645\u0643": 3415, "\u0647\u0628": 3416, "\u0643\u0648": 3417, "aus": 3418, "\u0637\u0644\u0642": 3419, "\u2581\u0623\u062d\u0635\u0644": 3420, "\u2581\u0631\u0623\u064a\u062a\u0647": 3421, "\u25812006": 3422, "\u2581\u062b\u0645\u0629": 3423, "\u2581\u0627\u0644\u0627\u0645\u0648\u0631": 3424, "\u2581\u00c4h": 3425, "\u2581alter": 3426, "\u2581geliebt": 3427, "\u2581\u0635\u0648\u0631": 3428, "\u2581f\u00fchlt": 3429, "\u2581\u0623\u0645\u0644\u0643": 3430, "\u2581\u0661\u0668": 3431, "\u25814.": 3432, "ent": 3433, "\u2581Raus": 3434, "\u2581\u062f\u0639\u064a\u0646\u064a": 3435, "\u2581\u0628\u0625\u0645\u0643\u0627\u0646\u064a": 3436, "\u2581Schlaf": 3437, "\u2581besch\u00e4ftigt": 3438, "\u2581gelesen": 3439, "\u2581\u0627\u0644\u0645\u0647\u0645\u0629": 3440, "\u2581steckt": 3441, "\u2581\u0627\u0628\u064a": 3442, "\u2581nennt": 3443, "\u2581\u0645\u0639\u0646\u0649": 3444, "\u2581\u0627\u0644\u0631\u0626\u064a\u0633\u064a\u0629": 3445, "\u2581\u0642\u0644\u0642": 3446, "\u2581Natur": 3447, "\u2581\u062a\u0642\u0644": 3448, "\u2581\u0627\u0644\u064a\u0647": 3449, "\u2581\u0627\u0644\u0642\u0627\u062f\u0645": 3450, "\u2581\u062a\u0639\u0644\u0645\u0648\u0646": 3451, "schaft": 3452, "\u0648\u0646\u0647": 3453, "\u2581Sonst": 3454, "\u2581Firma": 3455, "\u2581\u0645\u0648\u0642\u0641": 3456, "it": 3457, "\u2581\u0648\u0644\u0643\u0646\u0643": 3458, "\u2581zer": 3459, "U": 3460, "\u2581G\u00fcte": 3461, "\u2581\u062a\u0645\u0648\u062a": 3462, "\u2581\u062d\u0628\u064a\u0628\u062a\u064a": 3463, "\u2581\u0627\u0644\u0642\u0635\u0629": 3464, "\u2581Schnell": 3465, "keit": 3466, "\u2581Ehre": 3467, "\u2581\u0627\u0644\u0642\u0644\u0628": 3468, "\u2581\u0633\u0645\u0627\u0639": 3469, "\u2581\u0636\u0645\u0646": 3470, "\u2581Alex": 3471, "\u2581obwohl": 3472, "\u2581\u201c.": 3473, "\u0627\u0626\u064a\u0629": 3474, "\u2581Mo": 3475, "\u2581Rede": 3476, "\u2581\u0644\u0628\u0639\u0636": 3477, "\u2581\u0627\u0644\u062b\u0627\u0644\u062b": 3478, "\u2581Einzige": 3479, "los": 3480, "ah": 3481, "\u2581unbedingt": 3482, "\u2581\u062d\u0627\u0644\u064a\u0627": 3483, "\u2581\u0627\u0644\u062f\u064a\u0646": 3484, "\u2581\u0628\u0648\u0644": 3485, "\u2581rufen": 3486, "\u2581gemeinsam": 3487, "\u2581\u0627\u0644\u0634\u0627\u0631\u0639": 3488, "\u2581\u0634\u0631\u0637\u0629": 3489, "\u2581\u0623\u0646\u0646\u0649": 3490, "\u2581\u0642\u0648\u064a": 3491, "\u2581\u0632\u064a": 3492, "\u2581meinte": 3493, "\u2581\u0623\u062d\u0636\u0631\u062a": 3494, "\u2581\u0623\u0642\u0633\u0645": 3495, "\u2581\u0628\u0627\u0628": 3496, "\u2581\u0646\u0637\u0627\u0642": 3497, "\u064a\u0639": 3498, "\u0644\u0633\u062a": 3499, "\u2581\u0627\u0644\u0646\u0648\u0648\u064a\u0629": 3500, "\u2581Verzeihung": 3501, "\u2581\u0632\u0648\u062c\u062a\u0643": 3502, "\u2581Vertrauen": 3503, "\u0628\u0627\u0646": 3504, "\u0628\u0631\u064a": 3505, "\u2581\u062d\u064a\u0627\u062a\u0647": 3506, "\u2581tu": 3507, "\u2581\u0646\u0638\u0631": 3508, "\u2581klein": 3509, "\u2581Augenblick": 3510, "\u2581\u062c\u0632\u064a\u0644\u0627": 3511, "\u2581Denken": 3512, "\u2581\u0623\u0631\u0633\u0644": 3513, "\u2581Engel": 3514, "\u2581Interesse": 3515, "\u2581Super": 3516, "\u2581r\u00fcber": 3517, "\u0641\u064a\u0631": 3518, "\u2581gearbeitet": 3519, "\u2581\u064a\u0646\u062a\u0647\u064a": 3520, "\u062d\u0642": 3521, "\u2581\u062a\u062f\u062e\u0644": 3522, "\u2581\u0639\u0645\u0644\u062a": 3523, "\u2581bewusst": 3524, "\u2581\u0622\u0647": 3525, "\u2581\u0627\u0644\u0645\u062d\u062a\u0645\u0644": 3526, "\u0633\u0627\u0639\u062f": 3527, "\u2581\u062a\u0628\u062d\u062b": 3528, "\u2581geboren": 3529, "\u2581\u0623\u0634\u062e\u0627\u0635": 3530, "ze": 3531, "\u2581\u0627\u0644\u0627\u0642\u062a\u0635\u0627\u062f": 3532, "\u2581Freiheit": 3533, "\u2581deines": 3534, "schen": 3535, "\u2581\u0627\u0644\u062b\u0627\u0644\u062b\u0629": 3536, "\u2581bekam": 3537, "\u0645\u0648\u0631": 3538, "\u2581Klasse": 3539, "\u2581\u0627\u0644\u0627\u0634\u064a\u0627\u0621": 3540, "\u062a\u0648\u0642\u0641": 3541, "\u2581\u064a\u0645\u0644\u0643": 3542, "\u2581Liebling": 3543, "\u2581Hotel": 3544, "\u2581Flugzeug": 3545, "\u2581\u0623\u0647\u062a\u0645": 3546, "\u2581\u0627\u0644\u0631\u0633\u0648\u0644": 3547, "\u2581Freude": 3548, "\u2581\u0627\u0644\u0632": 3549, "\u2581Zahl": 3550, "\u2581\u062a\u062c\u0639\u0644": 3551, "\u2581\u00c4rger": 3552, "\u0642\u064a": 3553, "\u2581erwarten": 3554, "\u062c\u0644": 3555, "Ja": 3556, "\u2581\u0636\u0639": 3557, "\u2581Gemeinschaft": 3558, "\u2581Bier": 3559, "ben": 3560, "\u2581200": 3561, "\u2581\u0627\u0628\u0646\u064a": 3562, "\u2581Unfall": 3563, "50": 3564, "\u2581statt": 3565, "\u2581\u0635\u062d": 3566, "\u2581entscheiden": 3567, "\u2581Besuch": 3568, "\u2581ran": 3569, "\u2581\u0641\u064a\u0644\u0645": 3570, "\u2581\u0627\u0644\u062f\u0643\u062a\u0648\u0631": 3571, "\u2581\u0627\u0644\u0642\u0627\u0626\u062f": 3572, "\u2581schneller": 3573, "\u2581Anruf": 3574, "\u2581Joe": 3575, "\u2581\u0643\u0646\u062a\u0645": 3576, "9": 3577, "\u0639\u0646\u062f\u0645\u0627": 3578, "\u2581\u0627\u0644\u062d\u0627\u0644\u064a": 3579, "\u2581\u0648\u0647\u0646\u0627\u0643": 3580, "\u2581Kirche": 3581, "\u2581\u0643\u064a\u0641\u064a\u0629": 3582, "\u2581weiteren": 3583, "\u2581\u0627\u0633\u0641": 3584, "\u2581pers\u00f6nlich": 3585, "\u2581\u0638\u0644": 3586, "\u2581\u0627\u0644\u0639\u062b\u0648\u0631": 3587, "\u0642\u0644": 3588, "\u2581\u0628\u062f\u0627\u064a\u0629": 3589, "\u062c\u0646": 3590, "\u2581anderem": 3591, "\u2581leisten": 3592, "ly": 3593, "\u2581\u0627\u0646\u062a\u0638\u0631\u064a": 3594, "\u2581neben": 3595, "\u2581\u0623\u0639\u062f\u0643": 3596, "\u2581\u0648\u0631\u0628\u0645\u0627": 3597, "\u25810": 3598, "\u2581Mary": 3599, "\u2581zuvor": 3600, "\u2581offensichtlich": 3601, "\u2581\u0628\u0623\u0646\u0646\u0627": 3602, "\u2581Amerika": 3603, "\u2581\u0648\u0627\u0646": 3604, "\u2581Bescheid": 3605, "ation": 3606, "ard": 3607, "\u2581\u062a\u064a": 3608, "\u2581\u0628\u0646\u0641\u0633": 3609, "ve": 3610, "\u2581\u0623\u0633\u0641\u0644": 3611, "\u2581gleichen": 3612, "\u2581halt": 3613, "\u2581\u0627\u0644\u0643\u0628\u064a\u0631\u0629": 3614, "\u2581\u0648\u0643\u0646\u062a": 3615, "\u2581zerst\u00f6rt": 3616, "\u2581L\u00f6sung": 3617, "\u2581\u0622\u0646\u0633\u0629": 3618, "\u2581\u0645\u0646\u0639": 3619, "\u2581\u0648\u0644\u0643\u0646\u0646\u064a": 3620, "\u2581\u0648\u0625\u0644\u0627": 3621, "\u2581\u0645\u0646\u0638\u0645\u0629": 3622, "\u2581Bring": 3623, "\u2581\u0642\u0627\u0645\u062a": 3624, "\u2581Seht": 3625, "\u2581\u0627\u0644\u062c\u0648": 3626, "\u2581Juni": 3627, "\u2581\u0627\u0633\u0645\u064a": 3628, "\u2581dumm": 3629, "\u2581Fleisch": 3630, "\u2581\u0645\u0648\u062a": 3631, "\u2581\u064a\u0643\u0648\u0646\u0648\u0627": 3632, "\u2581\u0641\u062a\u062d": 3633, "\u2581Detective": 3634, "\u2581\u0643\u0644\u0645\u0627\u062a": 3635, "\u2581K\u00f6nigreich": 3636, "\u2581Tier": 3637, "\u2581\u0645\u0627\u0644": 3638, "\u2581Henry": 3639, "\u2581versprochen": 3640, "\u2581\u062a\u0631\u064a": 3641, "\u2581hole": 3642, "\u2581laut": 3643, "\u2581\u0627\u062a\u0641\u0642\u0646\u0627": 3644, "\u2581\u0645\u0631\u064a\u0636": 3645, "\u0633\u064a\u0631": 3646, "\u2581Verantwortung": 3647, "\u2581\u0635\u062f\u064a\u0642\u0643": 3648, "\u2581\u0637\u0648\u064a\u0644\u0627": 3649, "\u2581\u0642\u0648\u064a\u0629": 3650, "\u2581Mich": 3651, "\u2581\u062d\u0641\u0644": 3652, "\u2581\u0625\u0637\u0627\u0631": 3653, "as": 3654, "\u2581\u0641\u0647\u0630\u0627": 3655, "\u2581Thema": 3656, "\u2581unglaublich": 3657, "\u2581\u0627\u0630": 3658, "\u2581\u0627\u0644\u062f\u0645\u0627\u0621": 3659, "\u2581\u0634\u0627\u0647\u062f": 3660, "\u2581Karte": 3661, "\u2581\u0643\u0628\u064a\u0631\u0627": 3662, "...\"": 3663, "\u2581\u062a\u0638\u0647\u0631": 3664, "\u2581\u0627\u0644\u0633\u064a\u0627\u0633\u064a\u0629": 3665, "ion": 3666, "men": 3667, "\u2581Jesu": 3668, "\u2581\u0623\u062a\u0639\u0644\u0645\u064a\u0646": 3669, "\u2581\u064a\u0634\u0639\u0631": 3670, "\u2581\u062d\u0641\u0638": 3671, "\u2581allerdings": 3672, "\u2581\u0634\u0639\u0648\u0631": 3673, "\u2581Europa": 3674, "\u2581\u0627\u0643\u0648\u0646": 3675, "\u2581Egal": 3676, "\u2581Sonne": 3677, "\u2581\u0628\u0635\u0648\u0631\u0629": 3678, "\u2581\u0622\u0645\u0646": 3679, "\u2581Zur\u00fcck": 3680, "\u2581Befehl": 3681, "\u2581\u062a\u0634\u0631\u064a": 3682, "\u2581W\u00e4hrend": 3683, "\u2581\u062e\u062f\u0645\u0629": 3684, "\u063a\u064a": 3685, "\u2581Wen": 3686, "\u2581geredet": 3687, "\u2581Bedeutung": 3688, "\u062d\u0629": 3689, "\u2581\u0644\u0644\u0625": 3690, "\u2581\u0627\u0642\u0648\u0644": 3691, "\u2581\u0627\u0644\u063a": 3692, "\u2581solange": 3693, "\u2581\u0627\u0649": 3694, "\u2581\u0627\u0644\u0639\u064a\u0634": 3695, "\u2581gr\u00f6\u00dfte": 3696, "\u062a\u0648\u0645": 3697, "\u0639\u0644": 3698, "\u2581Seiten": 3699, "\u2581\u0627\u0644\u062f\u0648\u0644\u0629": 3700, "\u2581\u0662\u0660": 3701, "\u2581herausfinden": 3702, "\u0627\u0646\u064a\u0629": 3703, "\u2581namens": 3704, "\u2581Wiedersehen": 3705, "\u2581\u0631\u0623\u0633\u0643": 3706, "\u2581m\u00fcsste": 3707, "\u2581junge": 3708, "\u2581Sekunde": 3709, "\u2581\u0648\u0633\u062a": 3710, "\u2581El": 3711, "\u2581V": 3712, "\u2581super": 3713, "\u2581\u0627\u0644\u0646\u0627\u0645\u064a\u0629": 3714, "\u2581\u0627\u0644\u062f\u0639\u0645": 3715, "\u2581gestellt": 3716, "\u2581Landes": 3717, "\u2581richtigen": 3718, "\u2581\u201c,": 3719, "\u2581Zusammenhang": 3720, "\u2581\u0647\u0631\u0627\u0621": 3721, "\u2581\u0627\u0644\u0645\u0633\u062a\u0634\u0641\u0649": 3722, "\u0645\u0648\u0646": 3723, "\u2581\u064a\u0645\u0643\u0646\u0646\u0649": 3724, "\u2581\u064a\u0639\u0631\u0641\u0648\u0646": 3725, "ik": 3726, "\u0633\u064a\u062f": 3727, "\u2581m\u00fcsst": 3728, "\u2581\u062a\u0628\u062f\u064a\u0646": 3729, "\u2581\u0671\u0644\u0644\u0647": 3730, "\u062c\u0627\u0631": 3731, "\u2581Erst": 3732, "\u2581Insel": 3733, "\u2581\u062a\u0642\u062a\u0644": 3734, "\u2581\u0627\u0644\u0641\u062a\u0631\u0629": 3735, "\u2581\u062c\u0627\u0647\u0632": 3736, "\u2581politischen": 3737, "\u2581\u0627\u0644\u0645\u0631": 3738, "\u2581\u0645\u0636\u0649": 3739, "\u2581Obwohl": 3740, "\u2581Meister": 3741, "\u2581\u062a\u0644\u0627\u062d\u0638": 3742, "\u2581\u0634\u0648": 3743, "\u0635\u0627\u0628": 3744, "\u2581\u062a\u0641\u0639\u0644\u064a": 3745, "\u0647\u0646\u0627\u0643": 3746, "\u2581Geburtstag": 3747, "\u2581\u0633\u0646\u0630\u0647\u0628": 3748, "\u2581erledigt": 3749, "\u0628\u0639\u062f": 3750, "\u2581\u0631\u062d\u0644\u0629": 3751, "\u0648\u064a\u0629": 3752, "\u2581\u0627\u062f": 3753, "\u2581Anstrengungen": 3754, "\u2581\u062a\u062a\u0630\u0643\u0631": 3755, "pa": 3756, "\u2581\u0634\u0639\u0631": 3757, "\u2581\u064a\u0642\u062f\u0645": 3758, "\u2581\u0627\u0644\u0634\u0626": 3759, "\u2581fliegen": 3760, "\u2581\u0644\u062d\u0645": 3761, "\u2581Geheimnis": 3762, "\u2581\u0637\u0628\u0639\u0627": 3763, "\u2581verdammte": 3764, "\u0638\u0647\u0631": 3765, "\u2581\u062a\u0633\u062a\u062e\u062f\u0645": 3766, "\u2581\u0641\u0645\u0627": 3767, "zeit": 3768, "\u2581\u0627\u062d\u0628": 3769, "\u2581\u062d\u064a\u0646\u0647\u0627": 3770, "\u2581\u0627\u0644\u0642\u064a\u0627\u062f\u0629": 3771, "Er": 3772, "\u2581\u062a\u062a\u0631\u0643": 3773, "\u0639\u064a\u0646": 3774, "\u2581\u0633\u0639\u064a\u062f\u0627": 3775, "\u2581\u0647\u0646": 3776, "\u062c\u0627\u0646": 3777, "\u2581\u0648\u0627\u0644\u062f": 3778, "\u2581\u0646\u062a\u064a\u062c\u0629": 3779, ")\"": 3780, "\u2581\u0645\u0644\u0641": 3781, "\u2581deutlich": 3782, "\u2581beweisen": 3783, "\u2581ans": 3784, "\u2581\u0627\u0644\u0634\u0631": 3785, "ka": 3786, "\u0631\u0647": 3787, "\u2581gewonnen": 3788, "\u2581\u0627\u0644\u062c\u0647\u0648\u062f": 3789, "\u00e9": 3790, "\u2581Lauf": 3791, "\u2581einigen": 3792, "ro": 3793, "\u2581\u062a\u062d\u062f\u062b\u062a": 3794, "\u063a\u064a\u0631": 3795, "\u2581Milit\u00e4r": 3796, "\u2581\u0628\u0627\u0644\u0623": 3797, "\u2581\u062e\u0627\u0626\u0641": 3798, "\u2581entschuldigen": 3799, "\u2581Boot": 3800, "\u2581Sicherheits": 3801, "\u2581\u0645\u0627\u0632\u0644\u062a": 3802, "\u2581Lady": 3803, "\u2581suche": 3804, "\u2581H\u00e4lfte": 3805, "\u2581\u062d\u062f\u0648\u062f": 3806, "\u2581Deal": 3807, "\u2581mussten": 3808, "\u2581\u0627\u0644\u0633\u0646": 3809, "\u2581La": 3810, "\u2581\u0625\u0633\u062a": 3811, "\u2581Treffen": 3812, "\u2581\u062f\u0631\u062c\u0629": 3813, "\u2581\u0641\u0639\u0644\u0647\u0627": 3814, "\u062f\u0648\u0631": 3815, "\u2581\u062a\u062d\u0631\u0643": 3816, "\u2581\u0623\u064a\u0645\u0643\u0646\u0643": 3817, "\u2581Sicherheitsrat": 3818, "\u2581\u0645\u064a\u0644\u0627\u062f": 3819, "iere": 3820, "\u2581lag": 3821, "\u2581Denk": 3822, "\u2581Chef": 3823, "ierung": 3824, "\u2581Zugang": 3825, "\u2581Vaters": 3826, "\u2581sobald": 3827, "\u0633\u0646\u0627": 3828, "\u25818.": 3829, "\u2581sitzt": 3830, "\u2581\u0645\u0636\u062d\u0643": 3831, "pf": 3832, "\u2581Tor": 3833, "\u2581\u0627\u0644\u0635\u0641": 3834, "\u0623\u0639\u062a\u0642\u062f": 3835, "\u2581\u0627\u0644\u0625\u0646": 3836, "\u2581s\u00fc\u00df": 3837, "\u2581\u0637\u0639\u0627\u0645": 3838, "\u2581Regierungen": 3839, "\u2581aussehen": 3840, "\u2581\u0632\u0648\u062c\u064a": 3841, "\u2581\u0641\u0627\u0646": 3842, "\u2581Witz": 3843, "\u2581gro\u00dfartig": 3844, "\u2581stirbt": 3845, "\u2581\u064a\u062e\u0631\u062c": 3846, "Be": 3847, "\u062f\u0627\u0621": 3848, "\u2581\u0642\u0627\u0644\u0648\u0627": 3849, "\u2581Je": 3850, "\u2581Wahrscheinlich": 3851, "\u2581\u0645\u0645\u062a\u0627\u0632": 3852, "\u2581entschieden": 3853, "ler": 3854, "\u2581erwischt": 3855, "\u2581genannt": 3856, "\u2581Risiko": 3857, "ungs": 3858, "\u2581leider": 3859, "\u2581\u0639\u0646\u062f\u0643": 3860, "\u2581sieh": 3861, "\u062f\u064a\u0644": 3862, "\u2581Gar": 3863, "\u2581\u0648\u0627\u062b\u0642": 3864, "\u2581\u0645\u0634\u0631\u0648\u0639": 3865, "\u2581\u0623\u0645\u0644": 3866, "\u2581t": 3867, "\u2581\u0628\u0627\u0644\u063a": 3868, "\u2581wach": 3869, "\u0627\u0634": 3870, "\u2581vermisst": 3871, "\u2581\u0623\u0646\u062d\u0627\u0621": 3872, "\u2581\u0627\u0644\u062f\u064a\u0645\u0642\u0631\u0627\u0637\u064a\u0629": 3873, "\u2581Hunger": 3874, "\u2581verkauft": 3875, "\u2581Riesen": 3876, "\u0641\u0642\u0637": 3877, "\u2581wenigstens": 3878, "\u2581Keiner": 3879, "\u2581\u0645\u0627\u0632\u0627\u0644": 3880, "\u2581\u0643\u0627\u0645\u0644\u0629": 3881, "\u0628\u0647": 3882, "\u2581Respekt": 3883, "\u2581\u0627\u0644\u0645\u0646": 3884, "\u2581\u0622\u064a": 3885, "\u2581\u064a\u0642\u062a\u0644": 3886, "\u2581traurig": 3887, "\u2581sauber": 3888, "\u2581erinnert": 3889, "\u2581Dem": 3890, "\u2581\u062a\u0648\u0642\u0641\u064a": 3891, "\u2581\u064a\u0638\u0647\u0631": 3892, "\u2581hinein": 3893, "\u2581\u0627\u0644\u0623\u0631\u062c\u062d": 3894, "\u0623\u0631\u064a\u062f": 3895, "\u062a\u0644": 3896, "\u2581legen": 3897, "\u2581\u0631\u0648\u062d": 3898, "\u2581\u201d": 3899, "\u2581\u0627\u0644\u062f\u0641\u0627\u0639": 3900, "\u2581\u0627\u0644\u063a\u062f": 3901, "\u2581geholfen": 3902, "\u2581nieder": 3903, "\u2581\u0623\u0639\u0631\u0641\u0647": 3904, "\u2581\u0627\u0644\u062d\u064a": 3905, "\u2581Schwierigkeiten": 3906, "\u2581\u0623\u062e\u0628\u0631\u062a": 3907, "\u2581\u0633\u0645\u062d\u062a": 3908, "\u0641\u0631\u0627\u0646\u0643": 3909, "\u2581zweite": 3910, "\u2581\u0628\u062c\u0627\u0646\u0628": 3911, "\u2581\u0623\u062c\u0644\u0643": 3912, "\u2581\u0623\u062d\u0645\u0642": 3913, "\u2581erreicht": 3914, "\u2581Versammlung": 3915, "\u2581irgendetwas": 3916, "\u2581$": 3917, "\u2581kalt": 3918, "\u2581\u0623\u062b\u0631": 3919, "\u2581Armee": 3920, "\u2581\u062d\u0643\u0648\u0645\u0629": 3921, "\u0633\u0627\u0646": 3922, "\u2581beginnen": 3923, "\u2581Wald": 3924, "\u0628\u0639": 3925, "ad": 3926, "\u2581\u0627\u0644\u0643\u0644": 3927, "\u2581\u0633\u0646\u0643\u0648\u0646": 3928, "\u2581ermordet": 3929, "\u2581\u0644\u0623\u0646\u0646\u0627": 3930, "\u2581\u0627\u0645\u064a": 3931, "\u2581\u0643\u0631\u0629": 3932, "\u2581\u0648\u0628\u0639\u062f\u0647\u0627": 3933, "Ver": 3934, "\u2581letzter": 3935, "\u2581Denkst": 3936, "\u2581Schicksal": 3937, "\u2581\u062a\u062f\u0641\u0639": 3938, "ha": 3939, "\u2581\u0627\u0644\u0633\u0646\u0648\u0627\u062a": 3940, "ho": 3941, "\u2581\u0627\u0644\u0644\u0639\u0628\u0629": 3942, "\u2581Patienten": 3943, "\u0631\u0642": 3944, "\u2581Seid": 3945, "\u2581Tee": 3946, "\u2581verschwunden": 3947, "\u062c\u064a\u062f": 3948, "\u2581dienen": 3949, "\u2581\u0627\u0644\u0645\u0648\u0627\u0631\u062f": 3950, "sa": 3951, "\u2581\u0623\u0628\u062f": 3952, "\u0628\u0643": 3953, "\u2581ge\u00e4ndert": 3954, "\u2581\u0627\u0644\u0623\u062e\u0628\u0627\u0631": 3955, "\u2581\u0627\u0644\u0645\u0627\u062f\u0629": 3956, "\u2581\u0627\u0644\u0648\u063a\u062f": 3957, "\u2581\u0633\u064a\u0645\u0627": 3958, "\u2581\u0627\u0644\u0643\u0644\u0645\u0627\u062a": 3959, "\u2581\u062a\u0633\u0645\u0639": 3960, "\u2581l": 3961, "\u2581schlagen": 3962, "\u0645\u0643\u0646\u0643": 3963, "\u0645\u0644": 3964, "\u2581hielt": 3965, "\u2581\u0628\u0627\u0633\u0645": 3966, "\u0646\u0638\u0631": 3967, "\u2581absolut": 3968, "\u2581Stellen": 3969, "\u2581K\u00f6nnte": 3970, "\u2581dasselbe": 3971, "\u2581\u0627\u0644\u0631\u0633\u0627\u0644\u0629": 3972, "\u0633\u0645": 3973, "\u2581\u0644\u0637\u064a\u0641\u0629": 3974, "\"!": 3975, "AR": 3976, "\u2581gesucht": 3977, "\u2581\u0642\u0631\u0631\u062a": 3978, "\u2581\u0639\u0630\u0631\u0627": 3979, "\u0642\u062a\u0644": 3980, "\u2581F\u00f6rderung": 3981, "\u062f\u0649": 3982, "\u2581Video": 3983, "\u2581\u0627\u0644\u0634\u0639\u0628": 3984, "\u2581W\u00e4re": 3985, "\u2581Zeitpunkt": 3986, "\u2581\u0625\u0644\u064a\u0646\u0627": 3987, "\u202c": 3988, "\u2581Uns": 3989, "\u2581\u0627\u0644\u062c\u064a\u0634": 3990, "\u2581\u00f6ffnen": 3991, "\u0628\u0627": 3992, "\u2581\u0627\u0644\u0628\u0644\u062f": 3993, "\u2581\u0634\u0628\u0627\u0628": 3994, "\u2581Ausdruck": 3995, "\u258115.": 3996, "\u2581\u0648\u0628\u064a\u0646": 3997, "\u062a\u0634": 3998, "\u0633\u062a\u0627\u0646": 3999, "\u25815.": 4000, "\u2581schauen": 4001, "Du": 4002, "up": 4003, "\u2581Einklang": 4004, "\u062f\u0647": 4005, "\u2581\u0627\u0644\u0645\u064a\u0644\u0627\u062f": 4006, "\u2581Bo": 4007, "\u2581\u00fcberrascht": 4008, "\u0644\u0648\u0643": 4009, "\u2581\u0627\u0644\u062d\u064a\u0648\u0627\u0646\u0627\u062a": 4010, "\u2581hei\u00df": 4011, "\u2581Gutes": 4012, "\u2581aufhalten": 4013, "\u2581\u0627\u0644\u0639\u0645\u0631": 4014, "\u2581\u064a\u062f\u0641\u0639": 4015, "\u2581Wovon": 4016, "ist": 4017, "\u2581Tasche": 4018, "ende": 4019, "\u2581Naja": 4020, "\u2581\u0635\u0641": 4021, "\u2581\u0641\u062c\u0623\u0629": 4022, "\u0627\u0626\u0647\u0627": 4023, "\u2581\u00fcbrig": 4024, "\u2581\u0644\u0644\u062d\u0635\u0648\u0644": 4025, "\u0635\u062d": 4026, "\u2581Manche": 4027, "\u2581\u0645\u0646\u0632\u0644\u064a": 4028, "\u2581\u0627\u0644\u0642\u0647\u0648\u0629": 4029, "\u2581gehabt": 4030, "\u2581\u0627\u0644\u062d\u062f\u0648\u062f": 4031, "ry": 4032, "\u0628\u0642\u064a": 4033, "\u2581\u0642\u0627\u0626\u062f": 4034, "\u2581sch\u00f6ne": 4035, "\u2581sauer": 4036, "\u2581\u062a\u0646\u062a\u0638\u0631": 4037, "\u2581gleiche": 4038, "\u2581komisch": 4039, "\u2581\u064a\u0634\u0643\u0644": 4040, "\u2581\u063a\u0628\u064a": 4041, "\u2581\u0625\u062d\u062f\u0649": 4042, "\u2581\u0645\u0648\u0636\u0648\u0639": 4043, "\u0648\u0644\u0627": 4044, "\u2581\u0639\u0645\u0644\u0643": 4045, "\u2581\u0646\u0639\u0645\u0644": 4046, "\u2581\u0634\u062f\u064a\u062f": 4047, "\u064a\u0648\u0646": 4048, "\u2581\u062d\u0643\u0645": 4049, "\u2581\u0627\u0644\u0642\u0627\u062a\u0644": 4050, "\u0627\u0644\u0629": 4051, "\u2581namentlich": 4052, "\u2581\u0647\u062f\u0641": 4053, "Y": 4054, "\u2581Nick": 4055, "\u2581\u064a\u0645\u0643\u0646\u0647\u0627": 4056, "\u0645\u0627\u0631\u0633": 4057, "\u2581\u0627\u0644\u0631\u0642\u0645": 4058, "\u2581gekauft": 4059, "\u2581Schmerz": 4060, "\u2581\u0623\u0646\u062a\u0645\u0627": 4061, "\u2581schw\u00f6re": 4062, "\u0631\u062f": 4063, "\u062f\u064a\u0631": 4064, "\u2581\u0645\u0627\u062a\u062a": 4065, "\u2581davor": 4066, "\u2581ungef\u00e4hr": 4067, "\u2581\u0628\u0644\u062f\u0627\u0646": 4068, "\u2581\u0627\u0644\u0644\u0627\u0632\u0645\u0629": 4069, "\u2581gelassen": 4070, "\u2581\u0636\u0631\u0628": 4071, "\u2581\u0627\u0644\u0641\u0643\u0631\u0629": 4072, "\u0627\u0644\u0635\u0648\u0631\u0629": 4073, "\u2581000": 4074, "\u2581Prozess": 4075, "\u2581\u064a\u0647\u062a\u0645": 4076, "\u2581K\u00f6nigin": 4077, "\u2581neuer": 4078, "\u2581\u0627\u0645\u0627": 4079, "\u2581Haut": 4080, "\u0627\u0631\u0627\u062a": 4081, "\u2581\u062d\u0631": 4082, "\u2581\u0627\u0644\u0633\u0644\u0637\u0629": 4083, "\u0644\u0627\u0646\u062f": 4084, "\u2581\u062f\u0648\u0644": 4085, "\u2581Politik": 4086, "\u0645\u064a\u0631": 4087, "\u2581darfst": 4088, "\u0641\u0648": 4089, "\u0648\u0647\u0645": 4090, "\u2581Gespr\u00e4ch": 4091, "\u2581\u0623\u0633\u0627\u0628\u064a\u0639": 4092, "\u2581\u0628\u0644\u0649": 4093, "\u2581\u0627\u0644\u0627\u0633\u062a": 4094, "\u2581\u0648\u0638\u064a\u0641\u0629": 4095, "\u2581Tun": 4096, "\u2581\u0627\u0644\u062f\u0627\u062e\u0644\u064a\u0629": 4097, "\u2581\u0627\u0644\u0644\u0639\u064a\u0646\u0629": 4098, "\u2581\u062f\u0648\u0644\u0629": 4099, "\u2581\u0644\u0637\u0627\u0644\u0645\u0627": 4100, "\u2581verstehst": 4101, "\u2581Rechte": 4102, "\u2581\u0645\u062b\u0644\u0627": 4103, "\u0646\u063a": 4104, "\u2581\u0628\u0627\u0644\u0639\u0645\u0644": 4105, "\u2581Ebene": 4106, "\u0628\u0648\u0628": 4107, "\u2581\u062c\u0627\u062f": 4108, "\u2581c": 4109, "\u2581Gelegenheit": 4110, "\u2581\u0622\u062e\u0630": 4111, "\u2581nutzen": 4112, "\u2581Ra": 4113, "\u2581Meer": 4114, "\u2581verraten": 4115, "\u2581\u0639\u0627\u0626\u0644\u062a\u064a": 4116, "\u2581\u0648\u062d\u062a\u0649": 4117, "\u2581wussten": 4118, "\u2581\u0623\u062e": 4119, "\u0634\u0631": 4120, "\u2581\u0623\u0633\u0628\u0648\u0639": 4121, "l\u00e4": 4122, "ier": 4123, "\u2581\u0633\u0648\u064a\u0627": 4124, "\u2581\u0623\u062e\u0634\u0649": 4125, "\u2581Christus": 4126, "\u0632\u0631": 4127, "\u2581\u0623\u062f\u062e\u0644": 4128, "\u2581Juli": 4129, "\u2581\u062a\u0645\u0627\u0645": 4130, "\u2581\u0633\u0627\u0628\u0642\u0627": 4131, "\u2581Jo": 4132, "\u2581\u0645\u0624\u062a\u0645\u0631": 4133, "\u2581\u0648\u0627\u0644\u062f\u062a\u0643": 4134, "\u2581Park": 4135, "\u2581\u062c\u062f\u0648\u0644": 4136, "zen": 4137, "\u2581\u0632\u0645\u0646": 4138, "\u2581\u0645\u0632\u064a\u062f": 4139, "\u2581\u0645\u0643\u0627\u0646\u0643": 4140, "\u2581dadurch": 4141, "\u2581Glas": 4142, "\u2581Schlag": 4143, "\u0641\u0649": 4144, "\u2581bisher": 4145, "\u2581Angebot": 4146, "V": 4147, "\u2581\u062a\u0623\u062b\u064a\u0631": 4148, "\u2581\u0627\u062d\u062a\u0627\u062c": 4149, "\u2581\u0627\u0644\u0623\u0639\u0644\u0649": 4150, "\u0643\u0633": 4151, "\u2581Paul": 4152, "An": 4153, "\u2581\u0627\u0644\u0645\u0633\u062a\u0648\u0649": 4154, "\u2581\u0627\u0644\u0625\u0642\u0644\u064a\u0645\u064a\u0629": 4155, "\u2581kaputt": 4156, "\u2581Finanz": 4157, "\u2581\u0627\u0644\u0634\u0627\u0628": 4158, "\u2581\u0644\u064a\u0633\u0648\u0627": 4159, "to": 4160, "\u00e4r": 4161, "\u2581Sicherheitsrats": 4162, "\u2581\u0623\u0642\u0631\u0628": 4163, "\u2581\u0623\u0633\u062a\u0637\u0639": 4164, "\u2581\u0625\u0646\u0642\u0627\u0630": 4165, "ic": 4166, "\u0634\u0627\u0631": 4167, "\u2581\u062c\u0645\u0639": 4168, "\u2581Hals": 4169, "\u2581gebeten": 4170, "\u2581\u0648\u0639\u062f": 4171, "\u2581Toten": 4172, "\u2581\u064a\u062f\u064a": 4173, "\u2581Wirtschafts": 4174, "\u062d\u0627\u0644": 4175, "Sie": 4176, "\u0623\u0644": 4177, "\u2581Co": 4178, "\u00df": 4179, "\u062c\u0627\u0628": 4180, "\u2581\u0623\u0633\u0641": 4181, "os": 4182, "\u2581Internet": 4183, "\u2581\u0627\u0644\u0634\u0631\u0643\u0629": 4184, "\u2581\u0627\u0644\u0645\u0631\u0621": 4185, "ce": 4186, "\u0645\u0643": 4187, "\u2581Suche": 4188, "ling": 4189, "\u2581f\u00fcrchte": 4190, "\u2581Zuhause": 4191, "\u2581glaub": 4192, "\u2581re": 4193, "\u2581\u0627\u0645\u0627\u0645": 4194, "\u2581Daniel": 4195, "\u2581\u0623\u0633\u062a": 4196, "pe": 4197, "\u2581\u0627\u0644\u0641\u0636\u0627\u0621": 4198, "\u2581\u0642\u0627\u062f\u0631": 4199, "\u2581Richter": 4200, "igkeit": 4201, "\u2581\u0633\u0646\u0641\u0639\u0644": 4202, "\u2581Achtung": 4203, "\u2581\u0627\u0644\u062d\u0643\u0648\u0645\u0627\u062a": 4204, "\u2581Stein": 4205, "\u2581\u0628\u0623\u0645\u0631": 4206, "20": 4207, "\u0623\u0633": 4208, "\u2581\u00fcbernehmen": 4209, "\u2581\u062a\u062a\u062d\u0631\u0643": 4210, "\u2581\u0631\u0648\u0633\u064a\u0627": 4211, "\u2581Planeten": 4212, "10": 4213, "\u2581\u062f\u064a\u0646": 4214, "\u2581m": 4215, "\u2581\u0628\u0627\u0644\u062f\u0627\u062e\u0644": 4216, "\u2581\u0642\u0645\u0646\u0627": 4217, "\u0648\u0644\u062f": 4218, "\u2581\u064a\u062c\u062f\u0631": 4219, "\u2581\u064a\u062f\u064a\u0643": 4220, "\u2581\u0628\u0627\u0644\u0625": 4221, "\u2581\u0627\u0644\u0641\u0642\u0631\u0629": 4222, "\u2581\u0627\u0644\u062d\u0642\u064a\u0642\u064a\u0629": 4223, "\u063a\u0648": 4224, "\u0628\u0637": 4225, "\u2581\u0627\u0644\u0635\u0646\u062f\u0648\u0642": 4226, "\u2581\u0623\u0628\u0639\u062f": 4227, "\u2581versteckt": 4228, "\u2581\u0623\u0641\u0639\u0644\u0647": 4229, "\u2581\u0648\u063a\u064a\u0631": 4230, "\u2581schie\u00dfen": 4231, "\u2581erledigen": 4232, "\u2581wisst": 4233, "end": 4234, "\u2581\u0627\u062b\u0646\u064a\u0646": 4235, "\u0641\u0639": 4236, "\u2581Deswegen": 4237, "\u2581\u0627\u0646\u062a\u0645": 4238, "\u0631\u0633": 4239, "\u2581bedeuten": 4240, "\u2581Ressourcen": 4241, "\u2581normal": 4242, "\u2581\u0627\u0648\u0644": 4243, "\u2581\u062e\u0631\u062c\u062a": 4244, "\u2581Rechts": 4245, "\u2581sucht": 4246, "\u2581\u0627\u0644\u0639\u0646\u0641": 4247, "\u2581\u0627\u0644\u0645\u062d\u0644\u064a": 4248, "\u2581\u062a\u0648\u0642": 4249, "\u2581\u0623\u0630\u0627": 4250, "\u2581\u0645\u0648\u0627\u0635\u0644\u0629": 4251, "\u2581seien": 4252, "\u2581\u0627\u0644\u0639\u0645\u064a\u0644": 4253, "\u2581Muss": 4254, "\u2581gr\u00f6\u00dfer": 4255, "\u2581Monster": 4256, "fe": 4257, "\u2581Position": 4258, "\u2581\u0635\u062d\u064a\u062d\u0627": 4259, "\u2581\u0627\u062a\u0641\u0627\u0642": 4260, "\u2581\u0627\u0644\u062f\u0646\u064a\u0627": 4261, "\u2581besuchen": 4262, "\u2581\u0627\u0644\u0627\u0633\u0645": 4263, "\u2581\u0627\u0644\u062b\u0642\u0629": 4264, "nt": 4265, "\u2581gro\u00dfes": 4266, "\u2581\u062f\u0645\u0627\u0621": 4267, "\u2581dringend": 4268, "\u2581Stra\u00dfen": 4269, "\u2581\u062d\u0638": 4270, "\u2581500": 4271, "\u0645\u0627\u062a": 4272, "\u2581Lehrer": 4273, "\u2581redet": 4274, "\u0628\u064a\u062a\u0631": 4275, "\u2581Bau": 4276, "\u2581Bevor": 4277, "\u2581\u0639\u0644\u0645\u0627": 4278, "kommen": 4279, "\u2581\u0645\u0639\u0630\u0631\u0629": 4280, "\u2581e": 4281, "\u2581\u0645\u0648\u062c\u0648\u062f\u0629": 4282, "\u2581Ring": 4283, "\u2581\u0639\u0644\u0627\u062c": 4284, "\u2581\u0645\u062f\u064a\u0631": 4285, "\u2581heim": 4286, "\u2581\u0627\u0633\u0645\u0639\u064a": 4287, "\u2581\u0623\u062a\u0649": 4288, "\u2581Kunst": 4289, "\u2581Projekt": 4290, "Wir": 4291, "\u2581beschlie\u00dft": 4292, "\u2581fehlt": 4293, "li": 4294, "\u2581Feind": 4295, "\u2581\u0647\u0630": 4296, "\u2581unseres": 4297, "\u2581Mut": 4298, "\u2581\u062a\u0633\u062a\u0637\u064a\u0639\u064a\u0646": 4299, "\u2581Ehemann": 4300, "\u062b\u0645": 4301, "\u2581\u0633\u064a\u0626\u0627": 4302, "\u2581\u062a\u062a\u0643\u0644\u0645": 4303, "\u2581\u0643\u0644\u0646\u0627": 4304, "\u2581\u0627\u0644\u0645\u0633\u0623\u0644\u0629": 4305, "\u2581\u0628\u0627\u0644\u0643\u0627\u062f": 4306, "\u2581Tiere": 4307, "\u2581schlechte": 4308, "\u2581verbunden": 4309, "\u2581\u062a\u0631\u064a\u062f\u0647": 4310, "\u2581Ziele": 4311, "\u2581\u064a\u0624\u062f\u064a": 4312, "\u2581verspreche": 4313, "\u2581\u0627\u0644\u062e\u062f\u0645\u0629": 4314, "\u2581\u0639\u0646\u062f\u0647\u0627": 4315, "\u2581\u0628\u0639\u0636\u0647\u0645": 4316, "\u2581fangen": 4317, "\u2581\u0627\u0644\u0635\u0648\u062a": 4318, "\u2581zerst\u00f6ren": 4319, "\u2581Unterschied": 4320, "\u0628\u0648\u0646": 4321, "\u2581Show": 4322, "\u2581Sollte": 4323, "\u2581\u062c\u0639\u0644\u062a": 4324, "\u2581James": 4325, "\u2581ebenfalls": 4326, "\u2581\u0627\u0644\u0628\u064a\u0627\u0646\u0627\u062a": 4327, "\u062c\u064a\u0644": 4328, "\u2581\u0622\u0644\u0627\u0641": 4329, "\u2581Sheriff": 4330, "\u2581_": 4331, "\u2581\u0633\u064a\u0631": 4332, "\u2581\u0645\u062a\u0623\u062e\u0631": 4333, "\u2581\u00fcberleben": 4334, "\u2581Aufmerksamkeit": 4335, "ber": 4336, "\u2581Weiter": 4337, "\u2581\u064a\u062d\u0645\u0644": 4338, "\u2581\u0643\u0644\u0628": 4339, "\u2581\u0623\u0631\u063a\u0628": 4340, "\u2581f\u00f6rdern": 4341, "\u2581\u062e\u0627\u0626\u0641\u0629": 4342, "\u2581\u0645\u062a\u0646": 4343, "\u2581\u064a\u0627\u0631\u062c\u0644": 4344, "nd": 4345, "\u2581\u0641\u0623": 4346, "\u2581teilen": 4347, "\u2581\u0627\u0644\u0633\u064a\u0627\u0633\u064a": 4348, "raum": 4349, "\u2581Ko": 4350, "\u2581n": 4351, "\u2581\u0642\u0644\u062a\u0647": 4352, "\u2581welcher": 4353, "\u2581\u0627\u0644\u0628\u0631": 4354, "\u2581\u0646\u062a": 4355, "\u2581\u0646\u0628\u062f\u0623": 4356, "\u2581\u064a\u0633\u0627\u0639\u062f": 4357, "\u2581Pro": 4358, "\u2581Tats\u00e4chlich": 4359, "\u2581\u0627\u0644\u0646\u0642\u0648\u062f": 4360, "\u2581\u062a\u0633\u0645\u062d": 4361, "\u2581bring": 4362, "\u2581Damen": 4363, "\u2581politische": 4364, "\u2581\u0632\u0648\u062c\u062a\u0647": 4365, "\u2581\u0662\u0662": 4366, "\u2581Soldaten": 4367, "\u2581\u0627\u0644\u0628\u0627\u0631\u062d\u0629": 4368, "\u2581\u062a\u062c\u0627\u0647": 4369, "J": 4370, "\u0631\u0648\u0627": 4371, "\u2581\u0627\u0644\u0642\u062a\u0627\u0644": 4372, "\u2581\u064a\u0633\u0645\u062d": 4373, "\u0622\u0646": 4374, "\u2581Fortschritte": 4375, "\u2581\u0642\u0631\u0623\u062a": 4376, "Es": 4377, "\u2581legt": 4378, "\u2581m\u00fcde": 4379, "\u2581\u0635\u0628\u0627\u062d\u0627": 4380, "bald": 4381, "pi": 4382, "\u2581Paris": 4383, "\u2581\u0639\u0645\u0644\u0647": 4384, "\u2581Region": 4385, "\u2581\u0627\u0644\u0647\u0631\u0627\u0621": 4386, "\u0636\u0639": 4387, "\u0639\u0644\u064a": 4388, "\u0621": 4389, "\u2581\u0623\u063a\u0644\u0628": 4390, "ell": 4391, "\u2581\u063a\u0627\u0644\u0628\u0627": 4392, "\u2581fragte": 4393, "\u2581\u062d\u0632\u064a\u0631\u0627\u0646": 4394, "\u2581\u0637\u0648\u0644": 4395, "\u2581Labor": 4396, "\u2581\u0647\u0627\u062a\u0641": 4397, "\u2581\u0627\u0634\u0639\u0631": 4398, "\u2581\u0628\u0633\u064a\u0637": 4399, "\u0646\u0632": 4400, "\u0628\u0633": 4401, "\u2581\u0623\u0646\u0643\u0645": 4402, "\u0625\u064a": 4403, "\u0646\u064a\u0643": 4404, "\u2581angefangen": 4405, "\u2581Sarah": 4406, "\u2581\u00fcberzeugt": 4407, "\u2581dankbar": 4408, "\u2581\u00dcberraschung": 4409, "\u0645\u064a\u0646": 4410, "\u2581Bus": 4411, "\u2581Setz": 4412, "\u2581\u0627\u062e\u062a\u064a\u0627\u0631": 4413, "\u2581Unternehmen": 4414, "\u2581\u062a\u0644\u0639\u0628": 4415, "\u2581\u064a\u0628\u062f\u0623": 4416, "che": 4417, "\u2581M\u00e4nnern": 4418, "\u2581\u0644\u0623\u062d\u062f": 4419, "\u2581\u064a\u062a\u0637\u0644\u0628": 4420, "\u2581Pa": 4421, "\u2581Tatsache": 4422, "vor": 4423, "\u2581\u062a\u0643": 4424, "\u2581kriegt": 4425, "\u2581lief": 4426, "\u2581\u0627\u0644\u062d\u0643\u0648\u0645\u064a\u0629": 4427, "\u2581\u0627\u0644\u0636\u0648\u0621": 4428, "\u2581\u062a\u0642\u0631\u0631": 4429, "\u2581\u0627\u0644\u0628\u0646\u0643": 4430, "\u25816.": 4431, "\u2581\u0627\u0644\u0634\u062e\u0635\u064a\u0629": 4432, "\u2581\u0648\u062c\u062f\u0646\u0627": 4433, "\"...": 4434, "\u2581na": 4435, "\u0639\u0648\u062f": 4436, "\u0641\u0627\u0646": 4437, "\u2581\u062a\u0647\u062a\u0645": 4438, "\u2581\u064a\u062c\u0639\u0644\u0643": 4439, "\u0627\u062a\u0647\u0627": 4440, "\u2581Reihe": 4441, "\u2581\u0631\u0641\u064a\u0642": 4442, "\u2581\u0642\u0644\u0628\u064a": 4443, "\u2581Ray": 4444, "\u2581\u0641\u0648\u0631\u0627": 4445, "\u2581\u0627\u0644\u062d\u0627\u062c\u0629": 4446, "\u0645\u064a\u0644": 4447, "\u0637\u0644": 4448, "\u2581\u0627\u0644\u0645\u0627\u0644\u064a": 4449, "\u2581\u0627\u0644\u0645\u0639\u0630\u0631\u0629": 4450, "\u2581\u0645\u0631\u0636": 4451, "\u2581dauert": 4452, "\u2581\u0627\u0644\u063a\u064a\u0631": 4453, "\u2581\u0646\u062e\u0631\u062c": 4454, "\u2581\u0644\u0644\u0623": 4455, "\u2581\u0645\u0645": 4456, "\u0645\u0643\u0646\u0646\u064a": 4457, "\u2581\u0642\u0636\u064a\u062a": 4458, "\u063a\u0644": 4459, "\u2581sagtest": 4460, "\u2581\u0627\u0644\u0633\u064a\u0627\u0631\u0627\u062a": 4461, "\u2581Gerechtigkeit": 4462, "\u2581wohin": 4463, "\u2581schlie\u00dflich": 4464, "\u2581\u0643\u0648\u0646\u064a": 4465, "\u2581Jahrhundert": 4466, "\u2581lieb": 4467, "\u2581Wind": 4468, "\u2581verliebt": 4469, "\u2581\u062f\u0627\u0626\u0645": 4470, "\u2581\u062e\u0644\u0642": 4471, "\u2581\u0623\u0643\u0644": 4472, "\u2581\u0645\u064a": 4473, "\u2581gebrochen": 4474, "\u2581\u0625\u0639\u0644\u0627\u0646": 4475, "Ge": 4476, "\u2581Beweis": 4477, "\u2581\u0627\u0628\u062a\u0639\u062f": 4478, "\u2581\u0627\u0644\u0645\u0648\u0633\u064a\u0642\u0649": 4479, "\u2581\u0646\u0638\u0631\u062a": 4480, "\u2581\u0627\u0644\u0643\u0644\u0628": 4481, "ismus": 4482, "\u2581Fahr": 4483, "\u2581solchen": 4484, "\u2581\u0628\u0645\u0627\u0630\u0627": 4485, "\u2581\u062f\u062e\u0644": 4486, "\u2581\u0648\u0647\u0643\u0630\u0627": 4487, "\u0634\u064a\u0631": 4488, "\u063a\u0631": 4489, "\u2581Baum": 4490, "\u2581\u0627\u0644\u0646\u0648\u0648\u064a": 4491, "\u2581\u064a\u0637\u0644\u0628": 4492, "\u2581verdammten": 4493, "\u2581;": 4494, "\u25812007": 4495, "\u2581\u062d\u064a\u0627": 4496, "\u2581\u0623\u0639": 4497, "\u2581\u0623\u062e\u0628\u0631\u062a\u0646\u064a": 4498, "\u2581Folgen": 4499, "ken": 4500, "\u0639\u0645\u0644": 4501, "\u2581sowieso": 4502, "\u2581sch\u00e4tzen": 4503, "ca": 4504, "\u2581Sprache": 4505, "\u2581echte": 4506, "\u2581schuldig": 4507, "\u2581\u062c\u0648\u0631\u062c": 4508, "\u2581Fotos": 4509, "\u0623\u0639\u0644\u0645": 4510, "\u2581gib": 4511, "\u062f\u0639\u0649": 4512, "\u2581\u0627\u0644\u0642\u062f\u0631\u0629": 4513, "\u2581st\u00e4rker": 4514, "\u2581\u0627\u0646\u0638\u0631\u0648\u0627": 4515, "\u2581Messer": 4516, "\u2581\u0627\u0644\u0628\u0634\u0631\u064a": 4517, "\u2581\u00d6l": 4518, "\u2581\u0643\u0647\u0630\u0647": 4519, "\u2581bauen": 4520, "\u2581\u0628\u0628\u0633\u0627\u0637\u0629": 4521, "\u2581fanden": 4522, "\u2581h\u00e4ltst": 4523, "\u2581schwierig": 4524, "gt": 4525, "\u2581stecken": 4526, "he": 4527, "\u2581Bev\u00f6lkerung": 4528, "\u2581z": 4529, "\u2581\u0623\u0631\u0636": 4530, "\u2581Apostel": 4531, "\u2581Chuck": 4532, "\u2581aussieht": 4533, "\u2581Echt": 4534, "\u062c\u0648\u0631\u062c": 4535, "\u2581\u0628\u0644\u062f": 4536, "Nein": 4537, "\u0633\u0629": 4538, "\u2581\u0627\u0644\u0645\u062f\u064a\u0631": 4539, "\u2581\u064a\u0648\u062d\u0646\u0627": 4540, "\u2581\u064a\u0641\u0639\u0644\u0647": 4541, "\u0645\u0648": 4542, "\u2581Angriff": 4543, "\u2581\u0639\u0645\u064a\u0644": 4544, "\u0627\u062a\u0643": 4545, "\u2581\u0631\u0648\u0645\u0627": 4546, "\u2581Majest\u00e4t": 4547, "ed": 4548, "\u2581\u0627\u0644\u0642\u0644\u0642": 4549, "\u2581\u064a\u0645\u0643\u0646\u0647\u0645": 4550, "\u2581\u0633\u064a\u062a\u0645": 4551, "mit": 4552, "\u0648\u062e": 4553, "\u2581Diener": 4554, "\u2581\u0627\u0644\u0623\u062d\u0645\u0642": 4555, "\u2581S\u00fc\u00dfe": 4556, "\u2581\u0671\u0644\u062a": 4557, "\u2581\u0642\u0627\u0628\u0644": 4558, "\u2581\u0627\u0644\u062e\u0644\u0641": 4559, "\u2581Sommer": 4560, "\u2581\u0628\u0645\u0648\u062c\u0628": 4561, "\u0642\u0637": 4562, "\u2581Gesundheit": 4563, "\u2581\u0628\u0648\u0633\u0639\u064a": 4564, "\u2581\u064a\u0631\u0649": 4565, "\u0642\u0627\u0645": 4566, "\u2581\u062a\u0642\u0644\u0642\u064a": 4567, "\u2581falschen": 4568, "\u2581\u0625\u0645\u0631\u0623\u0629": 4569, "\u0644\u0630\u0627": 4570, "\u2581Reden": 4571, "\u2581\u062d\u0633\u0627\u0628": 4572, "30": 4573, "ley": 4574, "\u2581Sp": 4575, "\u2581rechts": 4576, "\u2581\u0646\u062a\u0627\u0626\u062c": 4577, "\u0645\u0627\u064a\u0643\u0644": 4578, "\u2581tr\u00e4gt": 4579, "\u2581falsche": 4580, "\u2581zweiten": 4581, "\u2581\u0645\u0646\u0627\u0633\u0628": 4582, "\u2581hei\u00dfe": 4583, "\u2581F\u00fcnf": 4584, "\u2581\u0634\u0623\u0646\u0647": 4585, "\u2581Vorsicht": 4586, "\u2581gezeigt": 4587, "\u2581beenden": 4588, "\u2581\u0627\u0644\u0633\u0631\u064a\u0631": 4589, "\u2581\u0627\u0644\u0625\u062a\u0635\u0627\u0644": 4590, "\u064a\u062a\u0647": 4591, "\u2581\u0641\u0647\u0644": 4592, "\u2581\u0642\u0631\u0627\u0621\u0629": 4593, "\u2581Band": 4594, "\u2581Haar": 4595, "\u2581Streit": 4596, "\u2581seltsam": 4597, "\u2581Berichts": 4598, "\u2581nimm": 4599, "\u2581\u0634\u0631\u0637\u064a": 4600, "\u062d\u064a": 4601, "\u2581\u0627\u0644\u0634\u0628\u0627\u0628": 4602, "\u0632\u0648": 4603, "\u0645\u0627\u0643\u0633": 4604, "\u2581zumindest": 4605, "\u2581\u0633\u064a\u0626": 4606, "her": 4607, "\u0644\u062f\u064a": 4608, "\u2581Auftrag": 4609, "\u064a\u0648\u0645": 4610, "ium": 4611, "\u2581\u0625\u0628\u0646": 4612, "\u2581\u063a\u0631\u064a\u0628\u0629": 4613, "\u2581x": 4614, "\u2581\u0645\u062b\u0644\u064a": 4615, "\u2581m\u00f6chtest": 4616, "\u2581ganzes": 4617, "\u2581\u0623\u0644\u062f\u064a\u0643": 4618, "Sch": 4619, "\u2581Krankheit": 4620, "\u2581nachdr\u00fccklich": 4621, "ft": 4622, "\u2581Erfahrung": 4623, "\u2581euren": 4624, "\u2581\u062a\u0633\u062a\u062d\u0642": 4625, "\u2581H\u00e4nden": 4626, "\u2581\u064a\u062f\u0643": 4627, "\u2581Test": 4628, "\u2581begann": 4629, "\u2581\u062a\u0634\u0643\u0644": 4630, "\u2581\u0639\u0638\u064a\u0645\u0629": 4631, "\u25811,": 4632, "\u2581verhindern": 4633, "zi": 4634, "\u2581\u0645\u0631\u0647": 4635, "\u2581Eier": 4636, "\u2581\u0644\u0644\u0623\u0628\u062f": 4637, "\u0643\u0627\u0646\u062a": 4638, "\u2581\u0627\u0644\u0637\u0627\u0628\u0642": 4639, "\u2581\u0662\u0664": 4640, "\u2581\u062f\u0648": 4641, "\u2581Kamera": 4642, "\u2581Ziffer": 4643, "\u2581\u0627\u0644\u0639\u0627\u0647\u0631\u0629": 4644, "\u2581\u062c\u0631": 4645, "\u2581\u0627\u062b\u0646\u0627\u0646": 4646, "\u062f\u0645": 4647, "\u2581\u0643\u0644\u0627\u0646\u0627": 4648, "\u2581\u0645\u062b\u064a\u0631\u0629": 4649, "\u0623\u0645": 4650, "\u0627\u0644\u0622\u0646": 4651, "\u0635\u062d\u064a\u062d": 4652, "ug": 4653, "\u2581\u0627\u0644\u062e\u0637\u0629": 4654, "\u2581\u0644\u0635\u0627\u0644\u062d": 4655, "\u2581g": 4656, "\u2581\u0627\u0644\u0633\u0648\u0642": 4657, "\u2581\u064a\u0648": 4658, "\u2581abge": 4659, "\u2581\u0628\u062d\u0644\u0648\u0644": 4660, "\u2581schrecklich": 4661, "\u2581\u0637\u064a\u0628": 4662, "\u2581\u0644\u0623\u0646\u0647\u0645": 4663, "\u2581Nachdem": 4664, "\u2581\u0648\u062c\u0647\u0643": 4665, "\u2581B\u00fccher": 4666, "\u2581X": 4667, "\u2581Operation": 4668, "\u2581\u0627\u0644\u0632\u0645\u0646": 4669, "\u2581\u0644\u062f\u064a\u0643\u0645": 4670, "tisch": 4671, "\u2581HERR": 4672, "\u2581gilt": 4673, "\u2581\u0627\u0633\u062a\u062e\u062f\u0645": 4674, "\u2581\u0622\u0646": 4675, "\u2581\u0627\u062e\u0630": 4676, "\u258145": 4677, "\u2581Meter": 4678, "\u2581behandelt": 4679, "\u2581\u0627\u0644\u0645\u062d\u064a\u0637": 4680, "\u2581\u0637\u0631\u0642": 4681, "\u2581\u0634\u062e\u0635\u064a\u0629": 4682, "\u2581wichtiger": 4683, "\u2581Bill": 4684, "\u2581\u0623\u0631\u0628\u0639": 4685, "\u2581Sofort": 4686, "\u2581\u0633\u062c\u0644": 4687, "000": 4688, "\u2581Freunden": 4689, "\u2581\u0648\u0633\u064a\u0644\u0629": 4690, "\u2581\u062d\u062a\u064a": 4691, "\u2581begr\u00fc\u00dft": 4692, "\u2581\u0627\u0644\u0625\u0646\u062a\u0631\u0646\u062a": 4693, "\u2581Berg": 4694, "\u2581\u0623\u0633\u0639\u0627\u0631": 4695, "\u2581\u062a\u0639\u0631\u0636": 4696, "\u2581Ball": 4697, "\u2581werd": 4698, "\u2581\u0627\u0631": 4699, "\u2581\u0627\u0644\u0633\u0631": 4700, "\u2581Kosten": 4701, "\u2581dachten": 4702, "\u2581\u0644\u0639\u064a\u0646": 4703, "\u2581\u0627\u0644\u0639\u0638\u064a\u0645": 4704, "\u0648\u064a\u0646": 4705, "\u2581\u0627\u0644\u0628\u0631\u0646\u0627\u0645\u062c": 4706, "\u2581jungen": 4707, "\u2581trifft": 4708, "\u2581\u0637\u0628\u064a\u0639\u064a": 4709, "\u2581Einfach": 4710, "\u2581\u0628\u062f\u0627": 4711, "\u2581\u0628\u0637\u0644": 4712, "\u0631\u0639": 4713, "\u0627\u062a\u0647\u0645": 4714, "\u2581daraus": 4715, "\u2581\u0627\u0644\u0643\u0646\u064a\u0633\u0629": 4716, "\u2581\u0628\u0627\u0644\u0646": 4717, "\u2581\u0627\u0644\u0641\u0635\u0644": 4718, "dem": 4719, "\u0627\u0626\u0644": 4720, "\u2581\u0627\u0644\u0646\u062d\u0648": 4721, "\u2581Herausforderung": 4722, "\u2581geschlafen": 4723, "\u2581wahre": 4724, "\u2581\u0645\u0644\u0627\u0628\u0633": 4725, "\u2581Schwert": 4726, "\u2581\u0627\u0644\u0625\u0646\u0633\u0627\u0646\u064a\u0629": 4727, "\u2581\u0627\u0644\u062d\u0643\u0645": 4728, "\u2581\u0646\u062d\u0627\u0648\u0644": 4729, "\u2581Ho": 4730, "iger": 4731, "\u2581\u0644\u0646\u0641\u0633\u0643": 4732, "\u2581\u0644\u0639\u0628": 4733, "Der": 4734, "\u2581\u062a\u0633\u0627\u0639\u062f": 4735, "\u2581wichtige": 4736, "\u2581Milliarden": 4737, "\u2581\u0627\u0644\u0647\u0646\u062f": 4738, "\u2581\u0623\u0631\u0633\u0644\u062a": 4739, "\u2581zahlen": 4740, "\u0628\u0627\u0644\u0637\u0628\u0639": 4741, "\u0648\u0649": 4742, "\u2581Erz\u00e4hl": 4743, "\u2581schlie\u00dfen": 4744, "\u2581\u0623\u0639\u0636\u0627\u0621": 4745, "\u2581\u062d\u064a\u0627\u062a\u0646\u0627": 4746, "\u2581\u062f\u0627\u0631": 4747, "ers": 4748, "\u2581\u0627\u0644\u0645\u0631\u0627\u0642\u0628\u0629": 4749, "\u2581\u0625\u0639\u062a\u0642\u062f\u062a": 4750, "\u2581Professor": 4751, "\u2581\u0627\u0631\u062f\u062a": 4752, "\u2581\u0645\u0627\u0647\u0648": 4753, "lichkeit": 4754, "\u2581hol": 4755, "\u2581erw\u00e4hnt": 4756, "\u2581neun": 4757, "\u2581\u0648\u0627\u0644\u0623": 4758, "\u2581\u0634\u0631\u0627\u0628": 4759, "\u2581\u0648\u0642\u0639": 4760, "\u2581Haare": 4761, "\u2581\u062a\u0628": 4762, "\u062f\u0631\u064a": 4763, "\u2581\u0623\u0639\u062a\u0630\u0631": 4764, "\u2581\u0627\u0644\u062d\u0645\u0627\u0645": 4765, "\u2581betreffend": 4766, "\u0627\u0641\u0629": 4767, "\u2581Mark": 4768, "\u2581\u0623\u0634\u0643\u0631\u0643": 4769, "\u2581bessere": 4770, "\u2581\u062c\u0646\u0648\u0646": 4771, "\u2581\u0627\u0644\u062a\u0642\u062f\u0645": 4772, "\u2581Vereinigten": 4773, "\u2581\u064a\u062f\u0639\u0649": 4774, "\u2581f": 4775, "\u2581fern": 4776, "\u2581\u0625\u0645\u0627": 4777, "12": 4778, "\u2581\u0641\u0627\u062a": 4779, "\u2581\u0645\u0639\u0649": 4780, "\u0641\u0648\u0646": 4781, "\u2581Afrika": 4782, "\u2581\u0632\u0648\u062c\u0629": 4783, "ei": 4784, "\u2581\u0627\u0644\u0645\u0644\u0627\u0628\u0633": 4785, "\u2581\u0625\u062c\u0631\u0627\u0621": 4786, "\u2581\u0627\u0646\u062a\u064a": 4787, "\u2581Adresse": 4788, "\u2581Willen": 4789, "\u2581\u0628\u0641\u0639\u0644": 4790, "\u0642\u0628\u0644": 4791, "\u2581gehalten": 4792, "mm": 4793, "\u2581\u0627\u0644\u0623\u0645\u0648\u0627\u0644": 4794, "\u0631\u0648\u0641": 4795, "\u0631\u0627\u0646": 4796, "\u0628\u064a\u0639": 4797, "\u2581gefangen": 4798, "\u2581\u0641\u0631\u0627\u0646\u0643": 4799, "lichen": 4800, "\u2581Kleine": 4801, "\u2581\u062f\u062e\u0648\u0644": 4802, "\u2581\u0644\u0634\u062e\u0635": 4803, "\u2581schwanger": 4804, "\u2581\u0627\u0644\u0648\u0637\u0646\u064a": 4805, "\u2581soweit": 4806, "\u2581Toll": 4807, "\u2581Leg": 4808, "\u2581\u0627\u0644\u0623\u0633\u0626\u0644\u0629": 4809, "\u2581\u062a\u062a\u0648\u0642\u0641": 4810, "\u2581Ihm": 4811, "\u2581Personal": 4812, "\u2581\u064a\u062c\u062f": 4813, "\u2581\u0633\u0646\u0642\u0648\u0645": 4814, "\u2581witzig": 4815, "\u2581zieht": 4816, "\u2581\u0627\u0644\u064a\u0643": 4817, "\u25817.": 4818, "\u2581Spur": 4819, "\u2581\u0634\u0627\u0628": 4820, "\u2581\u0647\u062f\u064a\u0629": 4821, "\u062d\u062f": 4822, "\u2581Verhalten": 4823, "\u2581\u0627\u0644\u062c\u0645\u064a\u0644\u0629": 4824, "\u2581\u064a\u0645\u0643\u0646\u0643\u0645": 4825, "\u0648\u0631\u0629": 4826, "\u2581irgendwann": 4827, "\u2581\u064a\u0628\u0642\u0649": 4828, "\u0627\u0626\u0646\u0627": 4829, "\u2581Nase": 4830, "\u2581\u0628\u0648\u0644\u0633": 4831, "\u2581\u0647\u064a\u0626\u0629": 4832, "stellen": 4833, "\u2581Ausschusses": 4834, "\u2581Wissenschaft": 4835, "\u2581\u0631\u0648": 4836, "\u2581\u0648\u062d\u062f\u0629": 4837, "\u2581\u0627\u0644\u0636": 4838, "\u0643\u0627\u0631": 4839, "\u2581Menschheit": 4840, "\u2581\u0644\u0643\u0646\u0647\u0645": 4841, "werk": 4842, "\u2581\u062a\u0645\u062a": 4843, "\u2581\u0633\u0627\u0628\u0642": 4844, "\u2581kannte": 4845, "\u2581\u062c\u064a\u0646": 4846, "\u258120.": 4847, "\u2581Vergiss": 4848, "\u2581\u0627\u0644\u0634\u0647\u0631": 4849, "\u2581\u0628\u0645\u062c\u0631\u062f": 4850, "\u25812008": 4851, "\u2581\u0623\u0631\u064a\u062f\u0647": 4852, "\u2581\u0627\u0644\u0643\u0641\u0627\u064a\u0629": 4853, "\u2581Eines": 4854, "\u2581\u0627\u0644\u062e\u0648\u0641": 4855, "\u2581Abendessen": 4856, "\u2581Bord": 4857, "\u2581Gegend": 4858, "\u2581verstecken": 4859, "\u2581Bereich": 4860, "\u2581\u0625\u0646\u0634\u0627\u0621": 4861, "\u2581\u062f\u062e\u0644\u062a": 4862, "\u2581entsprechend": 4863, "\u2581Umsetzung": 4864, "\u2581jung": 4865, "\u2581\u0627\u062a\u0631\u0643": 4866, "\u2581\u0627\u0644\u0638\u0644\u0627\u0645": 4867, "\u2581\u0639\u0646\u0647\u0645": 4868, "\u064a\u0634": 4869, "\u2581Mai": 4870, "\u2581\u0642\u0648": 4871, "\u2581\u0627\u0644\u0645\u0648\u0642\u0639": 4872, "\u0633\u0628": 4873, "\u2581\u0625\u0645": 4874, "\u2581\u0627\u0644\u0633\u064a\u0627\u0633\u0629": 4875, "\u2581\u0646\u0634\u0631": 4876, "\u2581findest": 4877, "\u2581\u0627\u0644\u0642\u0628\u0636": 4878, "\u2581\u0627\u0644\u0641\u0648\u0631": 4879, "\u2581\u0639\u0636\u0648": 4880, "\u2581Staat": 4881, "\u2581Laut": 4882, "\u2581\u0627\u0644\u0643\u0644\u0645\u0629": 4883, "\u2581\u0632\u0648\u062c\u0643": 4884, "\u2581\u0642\u0627\u062f\u0631\u0629": 4885, "\u062f\u0641\u0639": 4886, "wie": 4887, "\u2581\u0627\u064a\u0627\u0645": 4888, "\u2581\u0648\u0644\u0645\u0627\u0630\u0627": 4889, "\u0644\u0648\u0633": 4890, "\u2581300": 4891, "\u2581Entscheidungen": 4892, "\u2581\u062c\u0646\u0648\u0628": 4893, "\u2581\u0627\u0644\u0644\u0639\u0628": 4894, "\u2581funktionieren": 4895, "\u2581\u0644\u0627\u062d\u0642": 4896, "\u2581Jane": 4897, "\u2581\u0623\u062b\u0642": 4898, "\u2581\u0627\u0644\u0642\u062f\u0631": 4899, "\u2581\u0639\u0646\u0648\u0627\u0646": 4900, "\u0631\u0648\u0633": 4901, "\u2581\u0648\u062d\u062f\u0647": 4902, "\u2581Konferenz": 4903, "\u2581niemandem": 4904, "\u2581vermutlich": 4905, "\u2581\u0628\u0645\u0643\u0627\u0646": 4906, "\u2581weiss": 4907, "\u0633\u0644": 4908, "go": 4909, "\u2581\u0627\u0638\u0646": 4910, "\u0648\u0627\u062a": 4911, "\u2581\u0627\u0644\u0641\u064a\u0644\u0645": 4912, "\u2581\u0627\u0644\u0623\u062d\u064a\u0627\u0646": 4913, "\u2581vollkommen": 4914, "\u2581bekomme": 4915, "\u2581gingen": 4916, "\u2581\u0627\u0644\u0623\u0628\u064a\u0636": 4917, "\u2581\u0627\u0644\u0645\u0639\u0646\u064a\u0629": 4918, "\u2581Verstand": 4919, "\u2581\u0645\u0637\u0644\u0642\u0627": 4920, "\u0635\u0641": 4921, "\u0644\u0648\u064a\u0633": 4922, "\u064a\u0648\u0646\u064a\u0647": 4923, "\u2581\u0627\u0644\u0639\u062c\u0648\u0632": 4924, "\u2581\u064a\u0636\u0639": 4925, "\u258190": 4926, "\u2581verschiedenen": 4927, "\u2581\u0623\u0646\u0638\u0631\u064a": 4928, "ll": 4929, "\u2581\u0631\u0627\u0626\u062d\u0629": 4930, "\u0622\u064a": 4931, "\u2581verhaftet": 4932, "\u2581\u0645\u0644\u0627\u064a\u064a\u0646": 4933, "ant": 4934, "\u2581Jim": 4935, "\u2581\u0646\u062d\u0635\u0644": 4936, "\u2581\u0623\u062a\u0635\u0644": 4937, "\u062b\u0631": 4938, "\u2581Dame": 4939, "\u2581\u062c\u0644\u0628": 4940, "\u2581\u0646\u0628\u062d\u062b": 4941, "\u2581Anteil": 4942, "\u2581\u0623\u0648\u0644\u0627\u062f": 4943, "\u2581\u0627\u0633\u0631\u0627\u0626\u064a\u0644": 4944, "\u2581Vier": 4945, "\u2581Wunsch": 4946, "\u2581\u062a\u0631\u064a\u0646": 4947, "\u2581\u0623\u062a\u0641\u0647\u0645": 4948, "\u0642\u0648\u0644": 4949, "\u2581handelt": 4950, "\u258112.": 4951, "\u2581rief": 4952, "\u2581\u0627\u0644\u0645\u0628\u0646\u0649": 4953, "\u2581\u0636\u0639\u0641": 4954, "\u2581\u0627\u0644\u0639\u0644\u0627\u062c": 4955, "\u2581wohnen": 4956, "\u2581\u0627\u0644\u0633\u0631\u0639\u0629": 4957, "ga": 4958, "\u0631\u0632": 4959, "\u2581\u0627\u0644\u0642\u0637\u0627\u0631": 4960, "\u062f\u0639": 4961, "\u2581\u0627\u0644\u0634\u0639\u0631": 4962, "ett": 4963, "\u2581\u0627\u0644\u0639\u0633\u0643\u0631\u064a\u0629": 4964, "\u2581Zeig": 4965, "\u2581\u0646\u0642\u0635": 4966, "\u0628\u064a\u0631": 4967, "\u2581\u0627\u0644\u0627\u062c\u062a\u0645\u0627\u0639\u064a\u0629": 4968, "\u2581\u0639\u062f\u064a\u062f\u0629": 4969, "\u2581\u062e\u0637\u0628": 4970, "\u2581\u0628\u064a\u0644": 4971, "\u2581Le": 4972, "15": 4973, "\u2581\u0627\u0639\u0645\u0627\u0644": 4974, "\u2581\u062a\u0641\u0642\u062f": 4975, "\u2581\u0627\u0644\u063a\u0627\u0628\u0629": 4976, "\u2581Wochenende": 4977, "\u2581\u0633\u062a\u0639\u0645\u0644": 4978, "\u2581\u0627\u0644\u0625\u062f\u0627\u0631\u0629": 4979, "\u2581\u0627\u0644\u0634\u0631\u0643\u0627\u062a": 4980, "\u2581\u0646\u0635\u0644": 4981, "\u2581\u0646\u0639\u0648\u062f": 4982, "\u2581\u062e\u0637\u064a\u0631": 4983, "\u0646\u064a\u0648\u064a\u0648\u0631\u0643": 4984, "\u2581betont": 4985, "\u2581Auswirkungen": 4986, "\u2581\u0628\u0642\u064a\u0629": 4987, "\u2581\u062c\u0632\u0621\u0627": 4988, "laden": 4989, "\u2581beginnt": 4990, "\u2581nerv\u00f6s": 4991, "\u2581gesamte": 4992, "\u2581\u0662\u0661": 4993, "\u2581Ehren": 4994, "\u2581Dach": 4995, "\u2581Schlampe": 4996, "\u2581wundersch\u00f6n": 4997, "\u2581verpasst": 4998, "\u2581Bob": 4999, "innen": 5000, "\u2581\u0627\u0644\u0627\u0646\u062a\u0638\u0627\u0631": 5001, "\u2581lasst": 5002, "\u2581\u0642\u0631": 5003, "\u2581Wand": 5004, "\u064a\u0644\u0629": 5005, "\u2581\u0639\u0628\u0627\u0631\u0629": 5006, "\u2581Verf\u00fcgung": 5007, "\u2581\u0642\u0627\u062f\u0645\u0629": 5008, "\u2581\u0633\u0631\u064a\u0639\u0627": 5009, "\u062c\u0629": 5010, "\u0641\u0627\u062a": 5011, "\u2581\u00dcbersetzung": 5012, "\u2581\u0639\u0627\u062f\u064a": 5013, "\u2581\u0627\u0644\u0643\u0627\u0645\u0644": 5014, "\u2581\u0622": 5015, "\u2581\u0623\u0633": 5016, "\u2581\u0627\u0644\u062a\u0639\u0644\u064a\u0645": 5017, "\u2581\u0628\u064a\u0639": 5018, "\u2581\u0627\u0644\u0623\u0648": 5019, "\u2581Bem\u00fchungen": 5020, "\u2581\u0627\u0644\u0631\u0627\u0626\u0639": 5021, "\u2581\u0627\u0631\u062c\u0648\u0643": 5022, "lo": 5023, "\u2581\u0634\u0631\u0627\u0621": 5024, "\u2581M\u00f6glichkeiten": 5025, "\u2581meint": 5026, "\u2581\u0627\u062a\u0635\u0644\u062a": 5027, "\u2581\u062b\u0645\u0646": 5028, "\u2581\u0627\u0628\u0646\u062a\u064a": 5029, "\u2581\u062a\u0646\u062a\u0647\u064a": 5030, "\u2581\u0641\u0644\u064a": 5031, "\u0643\u0627\u0644": 5032, "\u2581Tony": 5033, "\u2581nah": 5034, "stand": 5035, "\u2581\u062a\u0633\u064a\u0631": 5036, "\u063a\u0627": 5037, "\u2581College": 5038, "\u0631\u0627\u0642\u0628": 5039, "\u2581\u062a\u062a\u0635\u0644": 5040, "\u2581\u062a\u0642\u0628\u0644": 5041, "\u2581\u0627\u0644\u0637\u0644\u0628": 5042, "so": 5043, "\u2581\u0648\u0644\u0627\u064a\u0629": 5044, "\u0641\u062a\u0631\u0636": 5045, "\u2581Antworten": 5046, "\u2581Falle": 5047, "\u2581\u0632\u0648\u062c": 5048, "\u2581\u0633\u062e\u064a\u0641": 5049, "\u2581\u0627\u0644\u062b\u0644\u0627\u062b\u0629": 5050, "\u2581\u0648\u0643\u0623\u0646": 5051, "\u258128": 5052, "\u2581drinnen": 5053, "\u2581angetan": 5054, "\u2581\u0628\u0627\u0644\u0625\u0636\u0627\u0641\u0629": 5055, "\u2581\u0645\u0648\u0633\u0649": 5056, "\u2581\u0646\u0642\u0648\u0644": 5057, "\u2581lautet": 5058, "\u2581Hunde": 5059, "\u2581Schul": 5060, "\u2581sahen": 5061, "\u2581werfen": 5062, "\u2581Feld": 5063, "ien": 5064, "\u2581Harry": 5065, "\u2581\u0623\u0648\u0642\u0641": 5066, "\u2581\u0644\u0631\u0624\u064a\u0629": 5067, "\u2581Tante": 5068, "\u2581\u0627\u0644\u062a\u062c\u0627\u0631\u0629": 5069, "\u2581\u0627\u0644\u0645\u0646\u0627\u0637\u0642": 5070, "\u25819.": 5071, "\u2581verfolgt": 5072, "\u2581\u0648\u0627\u0644\u0648\u0627\u0642\u0639": 5073, "\u2581Zweifel": 5074, "\u2581\u0627\u0644\u0645\u0637\u0627\u0641": 5075, "\u2581Priester": 5076, "\u2581\u0644\u0641\u0639\u0644": 5077, "\u0631\u0648\u0632": 5078, "\u2581\u0645\u062d\u0627\u0645\u064a": 5079, "\u2581\u0645\u0634": 5080, "\u2581wette": 5081, "\u2581\u0645\u062f\u0631\u0633\u0629": 5082, "\u2581\u0645\u0635\u0631": 5083, "\u2581\u0671": 5084, "weise": 5085, "\u0627\u062f\u064a": 5086, "\u0634\u0643\u0631": 5087, "\u0639\u0644\u0645": 5088, "\u2581\u0642\u0627\u0646\u0648\u0646": 5089, "\u2581unternehmen": 5090, "ow": 5091, "\u2581\u0623\u0635\u0644": 5092, "\u062a\u0634\u0627\u0631\u0644\u064a": 5093, "\u2581Friedens": 5094, "\u2581leiden": 5095, "\u0628\u0627\u0631\u0643": 5096, "\u2581dauern": 5097, "\u2581gef\u00fchrt": 5098, "tz": 5099, "\u2581selber": 5100, "\u2581entlang": 5101, "\u2581\u062c\u0647\u0648\u062f": 5102, "\u0625\u0630\u0646": 5103, "\u2581Dan": 5104, "\u2581\u0635\u0627\u0644\u062d": 5105, "\u2581Richtige": 5106, "\u200d": 5107, "\u2581sicherzustellen": 5108, "\u2581\u0633\u0648\u0621": 5109, "\u2581Halten": 5110, "\u2581\u062b\u0642": 5111, "\u2581\u0633\u0644\u0627\u0645": 5112, "\u2581\u0641\u0633\u0648\u0641": 5113, "\u2581Sonder": 5114, "\u2581\u0623\u0645\u0631\u064a\u0643\u0627": 5115, "\u0623\u0644\u064a\u0633": 5116, "\u2581\u0645\u0630\u0647\u0644": 5117, "\u2581\u064a\u0633\u062a\u062e\u062f\u0645": 5118, "\u2581vertraut": 5119, "\u2581\u062e\u0627\u0637\u0626": 5120, "\u2581\u064a\u0634\u0628\u0647": 5121, "\u2581\u0645\u062f": 5122, "\u2581\u0648\u062c\u0647\u064a": 5123, "\u2581\u0637\u0631\u064a\u0642\u064a": 5124, "\u2581l\u00f6sen": 5125, "\u2581\u0628\u062d\u064a\u062b": 5126, "Ein": 5127, "\u2581\u0627\u0644\u0645\u0633": 5128, "\u062e\u0631\u062c": 5129, "\u2581\u062c\u0627\u0645\u0639\u0629": 5130, "\u2581\u0645\u062f\u0629": 5131, "\u2581Parteien": 5132, "r\u00fc": 5133, "\u2581ergibt": 5134, "\u2581\u0627\u0644\u0645\u062d\u0644\u064a\u0629": 5135, "\u2581\u0642\u0631\u0628": 5136, "we": 5137, "\u25811999": 5138, "\u2581gesund": 5139, "\u2581\u0639\u0645\u0644\u0627": 5140, "\u2581Einheit": 5141, "\u2581\u0623\u0636\u0639": 5142, "\u2581\u0623\u0646\u0627\u0633": 5143, "\u2581\u0641\u0625\u0646\u0647": 5144, "\u2581London": 5145, "\u2581einander": 5146, "\u2581\u0627\u0644\u0639\u0634\u0631\u064a\u0646": 5147, "\u2581Letzte": 5148, "\u2581\u062a\u0645\u0631": 5149, "\u2581verbringen": 5150, "\u2581\u062f\u0639": 5151, "\u062e\u0631": 5152, "\u0648\u0646\u0647\u0627": 5153, "\u258180": 5154, "\u2581H\u00f6he": 5155, "\u2581Lieblings": 5156, "\u2581\u0627\u062a\u0635\u0627\u0644": 5157, "\u2581\u0627\u0644\u062a\u062d\u0643\u0645": 5158, "\u2581\u00fcberpr\u00fcfen": 5159, "\u2581\u0642\u0644\u064a\u0644\u0629": 5160, "\u2581\u062d\u0627\u0645\u0644": 5161, "\u2581Jimmy": 5162, "\u0642\u0636\u064a": 5163, "\u2581Vorstellung": 5164, "\u2581Klingt": 5165, "\u2581\u0627\u0644\u0642\u0645\u0631": 5166, "\u258110.": 5167, "\u2581\u0633\u0648": 5168, "\u2581\u0636\u0631\u0648\u0631\u0629": 5169, "\u2581links": 5170, "cH": 5171, "\u2581Beziehungen": 5172, "\u0628\u0646\u064a": 5173, "\u2581Yeah": 5174, "\u0627\u0644\u0643": 5175, "\u2581Schulden": 5176, "\u2581erschossen": 5177, "\u2581fahre": 5178, "\u2581\u0623\u062d\u0633\u0646\u062a": 5179, "\u2581Neues": 5180, "\u2581Todes": 5181, "\u2581sch\u00f6nen": 5182, "\u2581Gruppen": 5183, "\u2581\u0632\u0627\u0644\u062a": 5184, "\u2581\u0648\u0633\u0646": 5185, "\u2581\u064a\u062a\u0631\u0643": 5186, "\u2581\u0642\u0627\u0639\u062f\u0629": 5187, "\u0648\u0644\u064a": 5188, "\u2581\u0644\u0631\u0628\u0645\u0627": 5189, "\u2581tolle": 5190, "\u2581\u0633\u0631\u064a\u0639": 5191, "\u0630\u0631": 5192, "\u2581\u0637\u0627\u0626\u0631\u0629": 5193, "\u0641\u0648\u0631": 5194, "\u2581verfolgen": 5195, "\u2581gebaut": 5196, "\u2581Danny": 5197, "\u2581\u062f\u0639\u064a\u0646\u0627": 5198, "\u2581\u0642\u0648\u0644\u0647": 5199, "\u2581\u0645\u0639\u0643\u0645": 5200, "\u2581stehe": 5201, "\u2581\u0641\u0643\u0631": 5202, "\u2581bleibe": 5203, "\u2581Colonel": 5204, "\u2581Presse": 5205, "\u2581\u062a\u0635\u062f\u0642": 5206, "ine": 5207, "\u2581Fisch": 5208, "\u2581\u0627\u064a\u0629": 5209, "\u2581Markt": 5210, "\u2581\u0648\u0644\u0647\u0630\u0627": 5211, "\u2581f\u00e4hrt": 5212, "\u0634\u0627\u0647\u062f": 5213, "\u2581\u0627\u0644\u062a\u062f\u0627\u0628\u064a\u0631": 5214, "\u2581\u0648\u0642\u0639\u062a": 5215, "\u2581h\u00e4ngt": 5216, "\u2581h\u00fcbsch": 5217, "\u0622\u0644": 5218, "\u064a\u0627\u0621": 5219, "\u2581w\u00fcsste": 5220, "\u2581Au\u00dfer": 5221, "\u2581\u0645\u0627\u0631\u064a": 5222, "sh": 5223, "\u0639\u0648\u0646": 5224, "\u2581geschlossen": 5225, "\u2581\u062a\u062f\u0639\u0648": 5226, "\u2581\u062d\u0631\u0643\u0629": 5227, "\u064a\u0628\u062f\u0648": 5228, "\u2581au\u00dferhalb": 5229, "\u2581\u0627\u0644\u0643\u0631": 5230, "\u2581Regel": 5231, "\u0647\u0631\u0628": 5232, "\u0661": 5233, "\u2581Gr\u00f6\u00dfe": 5234, "\u2581\u0633\u0623\u062e\u0628\u0631\u0643": 5235, "\u2581Weihnachten": 5236, "\u2581\u062e\u0630\u064a": 5237, "\u2581\u062a\u062f\u0631\u0643": 5238, "25": 5239, "\u2581Kr\u00e4fte": 5240, "\u2581Rachel": 5241, "\u0633\u0627\u0631\u0629": 5242, "\u2581liebst": 5243, "\u2581\u0635\u062f": 5244, "\u2581\u0645\u0627\u0647\u064a": 5245, "\u062b\u064a\u0631": 5246, "\u2581\u0648\u0631\u063a\u0645": 5247, "\u258127": 5248, "\u2581Ergebnisse": 5249, "\u2581\u062d\u0627\u0644\u0627\u062a": 5250, "\u2581\u0628\u0623\u0645\u0627\u0646": 5251, "\u2581bewegt": 5252, "\u2581eingeladen": 5253, "\u2581Kurz": 5254, "\u2581\u0628\u0642\u064a\u062a": 5255, "lu": 5256, "\u2581\u0623\u0645\u0633\u0643": 5257, "\u2581\u0627\u0644\u0634\u0631\u0642": 5258, "\u2581\u0631\u0623\u0633\u064a": 5259, "\u2581\u064a\u062f\u062e\u0644": 5260, "\u2581San": 5261, "\u2581\u0623\u0639\u0638\u0645": 5262, "\u2581\u0641\u062d\u0635": 5263, "\u2581\u0643\u0644\u0627\u0645": 5264, "\u2581\u062c\u0631\u0649": 5265, "\u0644\u0627\u0646": 5266, "\u2581Hilf": 5267, "\u062e\u0635": 5268, "\u2581verdienen": 5269, "\u2581\u0628\u0636\u0639": 5270, "\u2581\u062a\u062e\u0628\u0631": 5271, "\u2581\u062a\u0639\u0644": 5272, "\u2581\u0648\u0627\u0644\u0627\u0646": 5273, "\u2581\u0627\u0644\u0645\u0631\u0636": 5274, "\u2581Lust": 5275, "\u2581Strom": 5276, "\u2581\u0627\u0644\u0627\u0646\u0633\u0627\u0646": 5277, "\u2581\u0645\u0643\u0627\u0641\u062d\u0629": 5278, "\u2581traf": 5279, "\u2581\u0648\u0627\u0644\u0646": 5280, "\u0634\u0639\u0631": 5281, "\u2581\u0623\u0631\u062f": 5282, "iz": 5283, "\u2581Ehrlich": 5284, "\u2581HERRN": 5285, "if": 5286, "\u2581\u0628\u0642\u064a": 5287, "v": 5288, "\u0643\u0627\u062a": 5289, "\u2581\u0623\u062a\u0631\u0643": 5290, "\u2581\u062a\u0645\u0632\u062d": 5291, "innerst": 5292, "\u0641\u0639\u0644": 5293, "\u2581\u062a\u062e\u064a\u0644": 5294, "\u2581\u0645\u062d\u0642\u0629": 5295, "ak": 5296, "\u2581Bereit": 5297, "\u2581Claire": 5298, "\u2581brauchte": 5299, "\u2581Bezug": 5300, "\u2581\u062d\u062f\u0648\u062b": 5301, "\u2581halb": 5302, "\u2581Runter": 5303, "\u2581\u062a\u0633\u0623\u0644": 5304, "\u2581\u0633\u0647\u0644": 5305, "\u2581\u0646\u0623\u062e\u0630": 5306, "\u0648\u062c": 5307, "\u062d\u0638\u0649": 5308, "\u2581\u0625\u0633\u0631\u0627\u0626\u064a\u0644": 5309, "fahren": 5310, "\u2581\u063a\u064a": 5311, "\u2581hie\u00df": 5312, "\u2581\u0628\u0627\u0644\u0645\u0646\u0627\u0633\u0628\u0629": 5313, "\u2581Steuer": 5314, "\u2581\u0623\u062a\u0631\u0649": 5315, "\u2581Zweck": 5316, "\u2581Text": 5317, "\u2581\u062d\u0633": 5318, "\u2581\u0645\u0627\u0621": 5319, "\u2581Bein": 5320, "\u2581\u0648\u0625\u0644\u0649": 5321, "\u2581\u064a\u0634\u064a\u0631": 5322, "\u2581\u0623\u0631\u0627\u0647\u0646": 5323, "\u2581Date": 5324, "\u2581Rom": 5325, "\u2581\u062a\u062d\u0648\u0644": 5326, "\u2581\u0642\u0627\u0628\u0644\u062a": 5327, "ert": 5328, "\u2581Vi": 5329, "\u2581letztes": 5330, "\u2581\u0627\u0644\u0645\u062d\u0642\u0642": 5331, "\u2581Ryan": 5332, "\u2581\u0627\u0644\u0642\u0627\u0639\u062f\u0629": 5333, "\u2581\u0627\u0644\u062d\u0644": 5334, "\u2581\u0633\u0628\u0639\u0629": 5335, "est": 5336, "\u2581\u0644\u0644\u0642\u064a\u0627\u0645": 5337, "\u2581\u062d\u062c\u0645": 5338, "\u2581\u0627\u0644\u0628\u062d\u0631\u064a\u0629": 5339, "\u0648\u0634": 5340, "\u2581Loch": 5341, "\u2581gegessen": 5342, "\u2581Systems": 5343, "\u2581Information": 5344, "\u2581fiel": 5345, "\u0627\u062e": 5346, "\u2581\u062a\u0635\u0631\u0641": 5347, "\u2581\u0623\u0646\u0641\u0633\u0647\u0645": 5348, "\u2581\u0633\u0645": 5349, "\u2581\u0623\u0642\u062f\u0645": 5350, "\u2581\u0637\u064a\u0644\u0629": 5351, "\u2581versuchte": 5352, "\u2581\u0623\u0642\u0648\u0644\u0647": 5353, "\u2581\u0627\u0644\u062c\u0645\u064a\u0644": 5354, "\u062b\u0642": 5355, "\u0639\u062a\u0642\u062f": 5356, "\u2581September": 5357, "\u2581erlaubt": 5358, "\u0628\u062f\u0623": 5359, "\u2581Gang": 5360, "\u2581Staats": 5361, "\u2581\u0627\u0644\u0645\u0641\u062a\u0627\u062d": 5362, "\u2581Lord": 5363, "\u2581Schuhe": 5364, "\u2581of": 5365, "\u2581\u062a\u0628\u0642\u064a": 5366, "\u2581\u0645\u062b\u0644\u0645\u0627": 5367, "by": 5368, "plan": 5369, "\u2581Wege": 5370, "\u2581gemeint": 5371, "\u2581stellte": 5372, "\u2581\u0623\u0646\u0632\u0644": 5373, "\u0635\u062f\u0642": 5374, "\u2581\u0627\u0642\u0644": 5375, "\u0642\u0627\u062a\u0644": 5376, "\u2581W\u00fcrden": 5377, "\u2581Dorf": 5378, "\u062d\u062a\u0627\u062c": 5379, "\u0635\u0628\u062d": 5380, "\u2581\u062a\u0645\u0627\u0646\u0639": 5381, "\u2581Zustand": 5382, "\u2581\u0639\u0627\u0626\u0644\u062a\u0643": 5383, "\u258111.": 5384, "\u2581Haufen": 5385, "\u2581\u0627\u0644\u0641\u0627\u0626\u062f\u0629": 5386, "\u0648\u0636": 5387, "\u2581\u0623\u062e\u062a\u064a": 5388, "\u2581\u0645\u0641\u062a\u0627\u062d": 5389, "\u2581\u062a\u062c\u0631\u064a": 5390, "\u2581Clark": 5391, "\u2581\u0628\u0639": 5392, "ph": 5393, "\u2581\u062f\u0648\u0631\u062a\u0647\u0627": 5394, "\u2581interessant": 5395, "\u2581\u0627\u0633\u062a\u064a\u0642\u0638": 5396, "\u00e4h": 5397, "\u2581magst": 5398, "\u2581\u062a\u0639": 5399, "\u2581Erinnerung": 5400, "\u2581Witze": 5401, "\u2581\u062a\u062a\u0628\u0639": 5402, "\u0631\u0648\u064a": 5403, "\u2581\u0631\u0641\u0636": 5404, "\u2581\u064a\u0630\u0643\u0631": 5405, "\u0623\u0639\u0631\u0641": 5406, "\u2581\u0627\u0644\u0627\u0633": 5407, "staatlichen": 5408, "\u2581\u0645\u0648\u0627\u0641\u0642": 5409, "\u0642\u0636": 5410, "\u2581Maschine": 5411, "\u2581erschaffen": 5412, "\u2581\u0643\u0627\u0641\u064a\u0629": 5413, "\u0639\u0631\u0641": 5414, "\u2581\u0627\u0644\u0642\u0628\u064a\u0644": 5415, "\u2581gebraucht": 5416, "\u2581\u062a\u0648\u0641\u064a\u0631": 5417, "\u2581Drink": 5418, "\u2581h\u00f6rst": 5419, "\u0642\u0637\u0639": 5420, "\u2581erster": 5421, "\u2581gewusst": 5422, "\u2581\u062e\u0637\u0648\u0629": 5423, "\u2581\u0627\u0644\u0643\u062a\u0628": 5424, "\u2581Po": 5425, "\u2581\u063a\u0627\u0636\u0628": 5426, "\u2581ebenso": 5427, "\u2581rund": 5428, "\u2581\u0627\u0644\u0642\u062f\u0645": 5429, "\u0640\u0640\u0640\u0640": 5430, "\u2581ange": 5431, "\u2581\u0623\u063a\u0644\u0642": 5432, "\u2581\u0628\u0627\u062a": 5433, "\u2581Krebs": 5434, "\u2581\u0644\u0642": 5435, "\u0644\u0623\u0646": 5436, "\u2581\u0642\u062a\u0644\u0647": 5437, "\u0631\u0633\u0644": 5438, "\u2581Dean": 5439, "\u062a\u062d\u062f": 5440, "\u2581k\u00fcmmert": 5441, "\u2581\u0627\u0644\u0623\u0644\u0645": 5442, "erweise": 5443, "\u2581verwenden": 5444, "\u2581manche": 5445, "\u2581\u0648\u0627\u0636\u062d\u0629": 5446, "\u2581Ton": 5447, "\u2581Mar": 5448, "\u2581betrunken": 5449, "\u2581\u0627\u0644\u0648\u0644\u062f": 5450, "\u2581Meinst": 5451, "St": 5452, "\u0627\u0628\u0629": 5453, "\u0631\u0634": 5454, "\u2581schau": 5455, "gel": 5456, "\u2581\u0641\u0646": 5457, "\u0643\u0631\u0627": 5458, "\u2581Folge": 5459, "\u2581\u0625\u0644\u064a\u0647\u0645": 5460, "\u2581\u0631\u0623\u0649": 5461, "\u2581\u0627\u0644\u062e\u0627\u0645\u0633\u0629": 5462, "\u2581Wieder": 5463, "\u2581\u0627\u0644\u0639\u0645": 5464, "\u2581gr\u00f6\u00dften": 5465, "\u2581wovon": 5466, "\u2581\u062c\u0645\u064a\u0639\u0646\u0627": 5467, "\u2581\u0633\u062c\u0646": 5468, "\u2581Gl\u00fcckwunsch": 5469, "\u2581gegenseitig": 5470, "\u2581\u062a\u0648\u0645": 5471, "\u2581\u0642\u0648\u0645": 5472, "\u2581\u0645\u0648\u0627\u062c\u0647\u0629": 5473, "\u2581\u0627\u062c\u062a\u0645\u0627\u0639": 5474, "\u2581\u0627\u0644\u0645\u0648\u0642\u0641": 5475, "\u2581\u0627\u0644\u0633\u0644\u0627\u0645\u0629": 5476, "\u2581gespielt": 5477, "\u2581\u0623\u0643": 5478, "\u2581mehrere": 5479, "isten": 5480, "\u2581\u0645\u0646\u0632\u0644\u0643": 5481, "\u2581verlangt": 5482, "\u2581\u0627\u0644\u063a\u062f\u0627\u0621": 5483, "\u2581entgegen": 5484, "\u2581geschlagen": 5485, "\u2581\u0627\u0644\u0637\u0628\u064a\u0639\u064a\u0629": 5486, "\u0641\u0643\u0631": 5487, "\u2581\u0628\u0633\u064a\u0637\u0629": 5488, "\u2581Empfehlungen": 5489, "\u2581\u062e\u0628\u0631": 5490, "\u2581\u0633\u0623\u062a\u0635\u0644": 5491, "gekommen": 5492, "\u0627\u0626\u0645": 5493, "\u2581\u0628\u0648\u062c\u0648\u062f": 5494, "\u2581\u062a\u0623\u0643\u0644": 5495, "\u0639\u0642\u062f": 5496, "\u2581Hoch": 5497, "\u2581Leichen": 5498, "\u2581\u0633\u0627\u0639\u062f\u0646\u064a": 5499, "\u0647\u0646\u0631\u064a": 5500, "\u2581Geschichten": 5501, "\u2581voraus": 5502, "\u2581danken": 5503, "\u2581\u0627\u0644\u0641\u0642\u0631": 5504, "\u2581geplant": 5505, "\u062d\u062a\u0649": 5506, "\u2581Mond": 5507, "\u0635\u064a\u0628": 5508, "\u2581Werk": 5509, "\u2581\u0627\u0644\u0645\u062c\u0627\u0644": 5510, "\u062c\u0644\u0633": 5511, "\u2581%1": 5512, "\u2581\u0627\u0644\u0645\u0648\u0627\u062f": 5513, "\u2581\u0644\u0643\u0649": 5514, "\u2581\u0623\u062c\u0644\u064a": 5515, "\u0627\u0626\u0647\u0645": 5516, "\u2581\u062c\u0644\u0628\u062a": 5517, "\u2581\u0648\u0635\u0644\u0646\u0627": 5518, "\u2581Schaden": 5519, "\u2581\u0623\u0645\u0646": 5520, "\u2581\u0633\u0623\u0642\u0648\u0644": 5521, "\u2581\u0633\u062a\u0630\u0647\u0628": 5522, "\u2581\u0648\u0643\u0645\u0627": 5523, "\u2581\u0627\u0644\u0631\u062d\u064a\u0644": 5524, "\u2581\u0627\u0644\u0623\u0645\u0631\u064a\u0643\u064a\u0629": 5525, "\u2581\u062a\u0642\u0648\u0644\u064a\u0646": 5526, "\u2581\u0623\u0642\u0648\u0649": 5527, "des": 5528, "\u2581Van": 5529, "hm": 5530, "\u2581Vogel": 5531, "\u2581\u0627\u0644\u0622\u0646\u0633\u0629": 5532, "\u2581\u0627\u0644\u0644\u062d\u0645": 5533, "\u2581\u062a\u062f\u0627\u0628\u064a\u0631": 5534, "\u2581zuf\u00e4llig": 5535, "\u2581\u0628\u0637\u0627\u0642\u0629": 5536, "\u2581\u062a\u0638\u0646\u064a\u0646": 5537, "\u2581L\u00fcge": 5538, "\u2581eigenes": 5539, "\u0627\u062f\u0627\u062a": 5540, "\u2581Mannes": 5541, "\u2581Vergn\u00fcgen": 5542, "\u2581\u0622\u062a\u064a": 5543, "\u062a\u0639\u0644\u0645": 5544, "\u2581\u0627\u0644\u0636\u063a\u0637": 5545, "\u2581Mag": 5546, "\u2581Osten": 5547, "\u2581Dazu": 5548, "\u2581behandeln": 5549, "\u2581\u0623\u0628\u062f\u0648": 5550, "\u2581\u0627\u0644\u062a\u0642\u0631\u064a\u0631": 5551, "\u2581\u00fcbel": 5552, "\u2581\u064a\u0641\u0639\u0644\u0648\u0646": 5553, "\u2581bieten": 5554, "\u2581Wohl": 5555, "\u2581Zieh": 5556, "\u2581nachgedacht": 5557, "ziehen": 5558, "\u2581\u0623\u0635\u062f\u0642\u0627\u0626\u064a": 5559, "\u2581Garten": 5560, "\u2581setzt": 5561, "\u2581\u0644\u0644\u0645\u0633\u0627\u0639\u062f\u0629": 5562, "\u2581\u0645\u0634\u0627\u0639\u0631": 5563, "\u2581wahren": 5564, "\u2581Kleid": 5565, "\u2581leer": 5566, "\u2581Bleiben": 5567, "\u2581\u0648\u062c\u0647\u0629": 5568, "\u2581\u062a\u062d\u064a\u0637": 5569, "\u2581\u0639\u0631\u0641": 5570, "\u2581\u0644\u0644\u0630\u0647\u0627\u0628": 5571, "\u2581Feinde": 5572, "X": 5573, "\u0632\u064a\u0646": 5574, "\u2581\u062a\u0643\u0630\u0628": 5575, "\u2581\u0634\u062e\u0635\u064a\u0627": 5576, "\u2581f\u00fchlst": 5577, "\u2581\u0623\u062f\u0646\u0649": 5578, "\u2581\u0645\u0633\u062a\u0639\u062f\u0629": 5579, "\u2581Erste": 5580, "\u2581abzu": 5581, "\u2581\u00c4hm": 5582, "()": 5583, "\u2581Rache": 5584, "\u2581lie\u00dfen": 5585, "\u2581\u0634\u0628\u0643\u0629": 5586, "\u2581\u0627\u0644\u0639\u0644\u0645": 5587, "\u2581\u064a\u0628\u062f\u0648\u0627": 5588, "\u2581f\u00fchrte": 5589, "leben": 5590, "\u2581helfe": 5591, "\u2581nationalen": 5592, "eln": 5593, "\u2581brechen": 5594, "\u2581\u0636\u0648\u0621": 5595, "\u2581\u0642\u0635\u064a\u0631\u0629": 5596, "\u2581\u0643\u0648\u0644": 5597, "kt": 5598, "tra": 5599, "\u2581November": 5600, "\u2581\u0623\u062f\u0631\u0643": 5601, "\u2581Bombe": 5602, "\u2581Lager": 5603, "\u2581\u0627\u0641\u062a\u062d": 5604, "ba": 5605, "\u2581\u0623\u0639\u064a\u0634": 5606, "\u2581\u0633\u0641\u064a\u0646\u0629": 5607, "\u2581Leider": 5608, "\u0641\u0627\u0642": 5609, "\u2581geschah": 5610, "\u2581\u0644\u0627\u0646\u0647": 5611, "\u2581\u062a\u0642\u0639": 5612, "\u2581\u0643\u0648\u0646": 5613, "\u2581Strafe": 5614, "\u2581Westen": 5615, "\u2581besorgen": 5616, "\u2581welches": 5617, "\u2581\u0642\u062f\u0631\u0629": 5618, "\u2581Siehe": 5619, "\u0628\u0642": 5620, "\u2581\u0628\u0648": 5621, "\u2581\u0627\u0644\u0645\u0641\u0636\u0644": 5622, "\u2581Wesen": 5623, "\u2581lebendig": 5624, "\u2581\u062a\u0634\u063a\u064a\u0644": 5625, "min": 5626, "\u2581handeln": 5627, "\u2581unterhalten": 5628, "\u2581\u0625\u0631\u0633\u0627\u0644": 5629, "\u2581\u0628\u0649": 5630, "\u2581einge": 5631, "\u2581\u0628\u0642\u062a\u0644": 5632, "\u2581\u062a\u062a\u0645": 5633, "\u2581\u0627\u0644\u0623\u0632\u0645\u0629": 5634, "\u2581\u0627\u0644\u0631\u0642\u0635": 5635, "\u2581\u0645\u062c\u0646\u0648\u0646\u0629": 5636, "form": 5637, "\u2581Neuigkeiten": 5638, "\u2581\u0639\u0627\u0645\u0644": 5639, "\u0647\u064a\u0628": 5640, "\u2581einzigen": 5641, "\u2581\u0627\u0644\u0642\u0648\u0627\u062a": 5642, "\u2581\u0627\u0644\u0643\u0628\u0631\u0649": 5643, "ick": 5644, "\u2581K\u00fcche": 5645, "\u2581\u0623\u062e\u0628\u0631\u064a\u0646\u064a": 5646, "\u2581\u0627\u0644\u0633\u0647\u0644": 5647, "\u2581\u0642\u062f\u064a\u0645": 5648, "\u2581Adam": 5649, "\u0644\u0646\u062f": 5650, "\u2581\u064a\u0628\u062d\u062b": 5651, "\u0627\u0626\u0631": 5652, "\u2581welchem": 5653, "\u2581\u0641\u062a\u064a\u0627\u062a": 5654, "\u258170": 5655, "\u2581\u0627\u0644\u0645\u0634\u0631\u0648\u0639": 5656, "\u2581\u0646\u0627\u062f\u064a": 5657, "\u2581unterschiedlich": 5658, "\u2581\u063a\u062f": 5659, "\u0632\u0645": 5660, "\u0631\u0627\u0641": 5661, "\u2581Republik": 5662, "\u00fcber": 5663, "\u2581Maria": 5664, "\u2581\u0630\u0643\u064a": 5665, "\u2581\u0627\u0644\u0641\u0646\u062f\u0642": 5666, "\u2581\u062a\u0631\u062d\u0628": 5667, "\u2581Stopp": 5668, "\u2581reichen": 5669, "\u2581Ihres": 5670, "\u2581Schwanz": 5671, "\u2581bat": 5672, "\u2581\u0623\u062a\u0648\u0642\u0639": 5673, "\u258126": 5674, "\u2581\u0627\u0644\u0643\u0648\u0646": 5675, "\u2581hasst": 5676, "\u2581feiern": 5677, "\u0639\u0644\u064a\u0643": 5678, "\u2581Kleiner": 5679, "\u2581Paar": 5680, "\u2581Ms": 5681, "\u2581\u062a\u062d\u0633\u064a\u0646": 5682, "\u2581Beine": 5683, "\u2581Zeitung": 5684, "\u2581\u0633\u0627\u0639\u062f": 5685, "\u2581woher": 5686, "\u2581\u062e\u0637\u0637": 5687, "\u2581\u0634\u062e\u0635\u064a": 5688, "\u2581Einfluss": 5689, "\u2581\u0644\u0644\u062c\u0645\u064a\u0639": 5690, "\u258122.": 5691, "\u2581\u0627\u0644\u062a\u0644\u0641\u0627\u0632": 5692, "\u2581\u0645\u0639\u062c\u0628": 5693, "\u2581Sport": 5694, "\u2581\u0623\u0633\u0623\u0644\u0643": 5695, "\u2581\u0627\u0644\u0623\u0628\u062f": 5696, "va": 5697, "\u2581\u0627\u0644\u0633\u0627\u062f\u0629": 5698, "\u2581\u0627\u0644\u0633\u0643\u0627\u0646": 5699, "machen": 5700, "\u2581l\u00e4cherlich": 5701, "\u2581\u0627\u0631\u062a\u0641\u0627\u0639": 5702, "\u2581\u0662\u0663": 5703, "\u2581Charles": 5704, "\u0626\u0629": 5705, "\u2581Kenn": 5706, "\u2581Ne": 5707, "\u2581\u0628\u0631\u0648": 5708, "Wie": 5709, "\u2581\u0628\u0644\u062f\u064a": 5710, "\u2581\u064a\u062a\u0648\u0642\u0641": 5711, "\u2581\u0627\u0648\u0644\u0627": 5712, "\u2581lebe": 5713, "\u2581Li": 5714, "dienst": 5715, "\u258135": 5716, "\u2581Religion": 5717, "\u2581verschiedene": 5718, "\u2581\u0627\u0644\u0643\u0631\u0629": 5719, "\u2581zufrieden": 5720, "\u0637\u0628": 5721, "\u0635\u0627\u0631": 5722, "\u2581bittet": 5723, "\u2581\u0627\u0644\u0633\u0627\u062f\u0633\u0629": 5724, "\u2581\u0627\u0644\u0634\u0643\u0644": 5725, "\u2581irgendwelche": 5726, "\u2581\u0646\u0633\u0628\u0629": 5727, "\u2581ver\u00e4ndern": 5728, "\u2581Ecke": 5729, "\u2581\u00e4hnlich": 5730, "\u2581Schwestern": 5731, "\u2581\u0634\u0627\u0631\u0639": 5732, "au": 5733, "\u2581tanzen": 5734, "\u2581\u0625\u0635\u0644\u0627\u062d": 5735, "\u2581\u062a\u0639\u0631\u0641\u064a": 5736, "\u2581\u0645\u0627\u064a\u0643": 5737, "\u2581\u0648\u0628\u0627\u0644": 5738, "\u2581\u0639\u0644\u0627\u0645\u0629": 5739, "\u0642\u0644\u062a": 5740, "\u2581Ri": 5741, "\u2581\u0641\u0639\u0644\u062a\u0647\u0627": 5742, "\u2581\u0645\u0633\u0628\u0642\u0627": 5743, "\u2581Liebes": 5744, "\u2581\u0628\u0646\u0643": 5745, "\u2581\u0642\u0631\u0627\u0631\u0647\u0627": 5746, "\u2581\u00e4hm": 5747, "\u2581\u064a\u0646\u0638\u0631": 5748, "\u0632\u0639": 5749, "\u2581Dingen": 5750, "\u2581\u0623\u0639\u0637": 5751, "\u2581\u064a\u0639\u0645\u0644\u0648\u0646": 5752, "\u2581\u0627\u0644\u0646\u0627\u0641\u0630\u0629": 5753, "\u2581\u0628\u064a\u062f": 5754, "\u2581trotz": 5755, "\u2581\u0635\u0641\u0642\u0629": 5756, "\u2581Amerikaner": 5757, "\u2581Sagt": 5758, "\u2581Zur": 5759, "\u2581\u0627\u0639\u0646\u064a": 5760, "\u2581\u0645\u0631\u062a\u064a\u0646": 5761, "\u2581Go": 5762, "\u2581No": 5763, "\u2581herein": 5764, "\u2581\u0628\u0623\u0646\u0647\u0645": 5765, "\u2581\u0627\u0644\u0625\u0633\u062a": 5766, "\u2581kriege": 5767, "\u2581\u0627\u0646\u062a\u0647\u062a": 5768, "\u0632\u0646": 5769, "\u2581\u0627\u0633\u0645\u0647\u0627": 5770, "ina": 5771, "\u064a\u062a\u0647\u0627": 5772, "\u2581\u0625\u0633\u0645": 5773, "\u2581Ohren": 5774, "\u2581\u0628\u0642\u0648\u0629": 5775, "\u0631\u062c\u0644": 5776, "\u2581\u062d\u0628\u064a\u0628\u064a": 5777, "\u2581ruf": 5778, "\u2581\u0623\u0641\u062a\u0631\u0636": 5779, "\u2581\u0627\u0639": 5780, "\u2581\u0623\u0647\u0645": 5781, "\u2581\u0644\u062a\u0644\u0643": 5782, "\u062d\u0635": 5783, "\u0631\u0627\u062f": 5784, "\u2581Russland": 5785, "\u2581unterst\u00fctzt": 5786, "\u2581Wirtschaft": 5787, "\u0632\u0627\u0645": 5788, "\u2581\u0627\u0644\u0628\u0631\u064a\u062f": 5789, "\u2581\u0625\u062b\u0646\u0627\u0646": 5790, "ator": 5791, "\u2581\u0627\u0644\u0627\u0648\u0644\u0649": 5792, "\u2581Verpflichtungen": 5793, "\u2581h\u00e4ngen": 5794, "\u2581Keller": 5795, "\u2581\u064a\u062f\u0639\u0648": 5796, "\u2581\u0627\u0644\u0642\u0627\u0636\u064a": 5797, "\u2581erz\u00e4hlte": 5798, "\u2581\u062a\u0639\u0627\u0646\u064a": 5799, "\u2581entwickelt": 5800, "\u2581\u0648\u0635\u0648\u0644": 5801, "\u2581)!": 5802, "\u2581Not": 5803, "\u2581\u0627\u0644\u0635\u064a\u0641": 5804, "\u2581\u0634\u0631\u064a\u0643": 5805, "\u2581\u0646\u0633\u062e\u0629": 5806, "\u0637\u0644\u0628": 5807, "\u2581\u0645\u0648": 5808, "\u2581\u0646\u0627\u0631": 5809, "\u00e4ng": 5810, "\u2581\u0645\u0627\u064a\u0631\u0627\u0645": 5811, "\u258148": 5812, "\u2581\u0627\u0644\u0645\u062c\u0645\u0648\u0639\u0629": 5813, "\u2581April": 5814, "\u2581geschieht": 5815, "\u2581\u062d\u0627\u0644\u0645\u0627": 5816, "\u2581\u0642\u0627\u0645\u0648\u0627": 5817, "\u062f\u0627\u0646\u064a": 5818, "\u062a\u0634\u064a": 5819, "\u2581Kugel": 5820, "\u2581Sand": 5821, "\u2581\u0641\u0646\u062d\u0646": 5822, "\u062c\u064a\u0645": 5823, "\u2581mu\u00df": 5824, "\u0627\u0644\u0628": 5825, "\u2581Kommission": 5826, "\u2581\u0641\u0633\u064a": 5827, "\u2581\u064a\u0638\u0646": 5828, "\u2581=": 5829, "\u2581Pferd": 5830, "\u2581kriegst": 5831, "\u2581\u0627\u0644\u062c\u0632\u064a\u0631\u0629": 5832, "\u2581\u0643\u0648": 5833, "\u2581Pl\u00e4ne": 5834, "\u0628\u0627\u0621": 5835, "\u2581Ed": 5836, "\u2581Hu": 5837, "\u2581\u0628\u0639\u0636\u0627": 5838, "\u2581\u064a\u0633\u062a": 5839, "\u064a\u062a\u0643": 5840, "\u0665": 5841, "\u2581Lee": 5842, "\u2581freue": 5843, "\u064a\u0627\u0646": 5844, "\u2581Kunden": 5845, "legen": 5846, "\u2581\u062a\u0648\u0642\u0641\u062a": 5847, "\u0641\u0646": 5848, "\u2581Brauch": 5849, "\u2581\u0623\u0633\u0627\u0633": 5850, "\u2581Daher": 5851, "\u2581hervor": 5852, "\u2581mindestens": 5853, "\u2581\u0627\u0644\u0648\u062c\u0647": 5854, "\u0633\u0649": 5855, "\u2581B\u00fcrger": 5856, "\u2581\u0628\u0627\u0644\u0643": 5857, "\u2581\u062a\u0642\u0641": 5858, "\u2581\u0627\u062c\u0644\u0633": 5859, "\u2581\u0627\u0644\u0631\u0648\u062d": 5860, "\u2581\u0643\u062a\u0628\u062a": 5861, "\u2581\u0631\u0641\u0639": 5862, "\u2581Hut": 5863, "\u2581mitten": 5864, "\u2581Schauen": 5865, "\u2581\u0628\u0639\u062f\u0645\u0627": 5866, "\u062a\u0644\u0643": 5867, "\u2581\u0627\u0633\u062a\u0645\u0631": 5868, "\u2581Schmerzen": 5869, "\u2581verwendet": 5870, "\u2581Alkohol": 5871, "\u2581Frankreich": 5872, "\u2581\u062a\u0642\u062f\u064a\u0631": 5873, "\u0644\u0627\u062a": 5874, "\u2581Kon": 5875, "\u2581\u0627\u0644\u0641\u064a\u062f\u0631\u0627\u0644\u064a": 5876, "\u062c\u0627\u0644": 5877, "\u2581Medizin": 5878, "\u2581gleichzeitig": 5879, "\u0642\u0648\u0627": 5880, "\u2581Besser": 5881, "\u2581vorne": 5882, "\u2581\u0641\u0634\u0644": 5883, "\u258131": 5884, "\u0641\u062c\u0631": 5885, "\u2581Wahnsinn": 5886, "\u2581\u0627\u0630\u0647\u0628\u064a": 5887, "\u2581\u062a\u0642\u0648\u0644\u0647": 5888, "\u2581\u062e\u062f\u0645\u0627\u062a": 5889, "\u2581\u0634\u0645\u0627\u0644": 5890, "hu": 5891, "schlag": 5892, "\u2581\u0627\u0628\u0642": 5893, "\u2581Sch\u00e4tzchen": 5894, "\u2581\u0627\u0644\u062a\u062d\u0642\u064a\u0642": 5895, "\u2581Club": 5896, "\u2581gesamten": 5897, "\u2581\u0623\u062a\u0631\u064a\u062f\u064a\u0646": 5898, "\u2581Farbe": 5899, "\u2581Handels": 5900, "\u2581\u0622\u062e\u0631\u064a\u0646": 5901, "\u2581Gas": 5902, "\u2581Kultur": 5903, "\u2581freuen": 5904, "\u2581\u064a\u062a\u0639\u064a\u0646": 5905, "ale": 5906, "voll": 5907, "\u2581k\u00fcmmere": 5908, "\u2581\u0627\u0644\u0633\u064a\u0627\u0633\u0627\u062a": 5909, "\u2581\u0627\u0644\u0637\u0631\u0642": 5910, "\u2581\u062b\u0645\u0627\u0646\u064a\u0629": 5911, "\u2581\u062e\u0631\u062c": 5912, "\u2581\u0627\u0644\u0628\u064a\u0636": 5913, "\u2581ruft": 5914, "\u2581Emily": 5915, "\u2581Untersuchung": 5916, "\u2581betrifft": 5917, "\u2581\u0639\u0630\u0627\u0628": 5918, "\u2581\u0648\u063a\u064a\u0631\u0647\u0627": 5919, "\u2581komplett": 5920, "\u0633\u062a\u0648\u0646": 5921, "\u2581Louis": 5922, "\u2581Sprich": 5923, "\u2581\u0645\u0631\u062d\u0644\u0629": 5924, "\u0623\u0628\u064a": 5925, "\u2581dorthin": 5926, "\u2581\u0627\u0644\u0634\u0631\u0627\u0628": 5927, "\u2581\u062a\u0639\u0631\u0641\u0648\u0646": 5928, "11": 5929, "\u2581\u0641\u0635\u0644": 5930, "\u0645\u0627\u0643": 5931, "\u2581Wozu": 5932, "\u2581\u0646\u0632\u0639": 5933, "\u062f\u0639\u0648": 5934, "\u2581\u0627\u0644\u0633\u062d\u0631": 5935, "\u2581\u0627\u0644\u0638\u0631\u0648\u0641": 5936, "\u2581\u063a\u0636\u0648\u0646": 5937, "\u2581Stand": 5938, "\u2581\u062c\u064a\u0634": 5939, "\u0642\u0648\u062f": 5940, "\u25aa": 5941, "\u0639\u0627\u062f": 5942, "\u2581Einstellung": 5943, "\u2581Wartet": 5944, "\u2581\u062d\u0635\u0644\u0646\u0627": 5945, "\u2581\u062a\u0631\u064a\u062f\u0646\u064a": 5946, "\u2581\u062a\u0642\u0648\u0644\u064a": 5947, "\u2581\u064a\u0642\u0644": 5948, "\u2581Pause": 5949, "\u2581\u0627\u0644\u0627\u062a\u0641\u0627\u0642\u064a\u0629": 5950, "\u2581ergreifen": 5951, "\u2581Bringen": 5952, "\u2581Waren": 5953, "\u2581\u0644\u0627\u062d\u0638\u062a": 5954, "\u2581\u0645\u0645\u0627\u0631\u0633\u0629": 5955, "\u0645\u0648\u062a": 5956, "\u2581\u062c\u062f\u064a": 5957, "\u2581Wissenschaftler": 5958, "\u062f\u0627\u062f": 5959, "\u2581Lu": 5960, "\u2581Versprechen": 5961, "\u2581\u0628\u0627\u0639\u062a\u0628\u0627\u0631\u0647": 5962, "\u2581\u0623\u0644\u0646": 5963, "\u2581\u0627\u0644\u062c\u0644\u0648\u0633": 5964, "\u0628\u0648\u0631": 5965, "\u2581\u0627\u0644\u062a\u062f\u0631\u064a\u0628": 5966, "\u2581bleibst": 5967, "\u2581vergeben": 5968, "\u2581\u0648\u0642": 5969, "\u2581\u0628\u0633\u0647\u0648\u0644\u0629": 5970, "\u2581Taxi": 5971, "\u2581entwickeln": 5972, "\u2581Grenzen": 5973, "\u2581\u0623\u062a\u0638\u0646": 5974, "\u2581sowohl": 5975, "lin": 5976, "\u2581keinem": 5977, "\u2581\u0625\u0633\u0645\u0639": 5978, "\u2581\u0627\u0644\u062d\u0641\u0644\u0629": 5979, "\u2581\u0636\u063a\u0637": 5980, "\u0623\u0646\u0647": 5981, "\u062a\u0648\u0631": 5982, "dy": 5983, "\u2581entkommen": 5984, "\u2581\u0623\u0631\u0627\u0647": 5985, "\u2581\u062d\u0627\u062f\u062b": 5986, "\u2581\u0648\u0627\u0642\u0639": 5987, "\u2581Blumen": 5988, "\u2581\u00d6ffentlichkeit": 5989, "\u2581\u0633\u0643\u0627\u0646": 5990, "sp": 5991, "\u2581Anna": 5992, "\u2581Tommy": 5993, "\u2581\u0641\u0631\u0646\u0633\u0627": 5994, "\u2581\u0645\u062f\u064a\u0646": 5995, "\u2581\u064a\u0642\u0648\u062f": 5996, "\u0643\u0644\u0627\u0631\u0643": 5997, "\u2581Aufgaben": 5998, "\u2581Schatten": 5999, "\u2581\u0645\u064a\u062a\u0629": 6000, "ER": 6001, "\u2581gewartet": 6002, "\u2581\u0628\u0627\u0644\u0642\u0631\u0628": 6003, "tag": 6004, "\u0639\u0631": 6005, "\u2581\u0645\u0634\u063a\u0648\u0644": 6006, "du": 6007, "\u0643\u062a\u0628": 6008, "\u2581\u0627\u0644\u062a\u0648\u0642\u0641": 6009, "\u2581\u0627\u0644\u0645\u0642\u062f\u0633\u0629": 6010, "\u2581Walter": 6011, "bel": 6012, "\u2581\u0627\u0644\u0645\u062e": 6013, "\u2581\u062a\u0648\u0627\u062c\u0647": 6014, "j": 6015, "\u0637\u0641": 6016, "\u2581Fr\u00fchst\u00fcck": 6017, "gegangen": 6018, "\u2581\u0641\u0631\u062f": 6019, "\u2581Kate": 6020, "40": 6021, "\u2581Beim": 6022, "\u2581\u0627\u0644\u0631\u0627\u0628\u0639": 6023, "\u2581\u064a\u0639\u062a\u0628\u0631": 6024, "\u0628\u0627\u0628": 6025, "\u2581\u064a\u0639\u062a\u0645\u062f": 6026, "\u2581\u064a\u0645\u0631": 6027, "bringen": 6028, "rt": 6029, "\u2581\u064a\u0642\u0648\u0645\u0648\u0646": 6030, "\u2581ALLAH": 6031, "\u2581\u202c": 6032, "\u2581\u0627\u0644\u0625\u0639\u0644\u0627\u0645": 6033, "\u2581Allerdings": 6034, "\u2581Gegen": 6035, "\u2581Knochen": 6036, "\u2581\u00f6ffentlichen": 6037, "\u2581Anlage": 6038, "\u2581Armut": 6039, "\u2581\u062a\u0645\u0648\u0632": 6040, "\u2581\u0648\u0627\u0644\u0625": 6041, "\u2581Ted": 6042, "\u2581\u0627\u0631\u0636": 6043, "\u2581\u0627\u0644\u0634\u0627\u062d\u0646\u0629": 6044, "\u2581\u0639\u0627\u062f\u062a": 6045, "\u2581\u063a\u0627\u064a\u0629": 6046, "\u2581\u0628\u0648\u0633\u0639\u0643": 6047, "\u2581\u0645\u0635\u0627\u0628": 6048, "\u0641\u0635\u0644": 6049, "\u2581Stell": 6050, "\u2581\u0635\u062f\u064a\u0642\u0629": 6051, "\u2581F\u00fchrung": 6052, "\u2581entf\u00fchrt": 6053, "\u2581\u0623\u0639\u0648\u0627\u0645": 6054, "\u2581\u0627\u0644\u0623\u0633\u0648\u062f": 6055, "\u2581\u0627\u0644\u0646\u0647\u0631": 6056, "\u2581\u0627\u0644\u0637\u0628\u064a\u0639\u064a": 6057, "\u2581\u0627\u0644\u0646\u0641\u0633": 6058, "\u0628\u0627\u0633": 6059, "\u2581Worten": 6060, "\u2581\u0628\u0645\u062b\u0627\u0628\u0629": 6061, "\u2581\u062a\u0639\u0631\u0641\u0647": 6062, "\u2581\u0628\u0625\u0645\u0643\u0627\u0646\u0646\u0627": 6063, "\u2581\u062c\u0627\u0647\u0632\u0629": 6064, "\u2581\u0648\u0627\u0644\u0639": 6065, "\u0642\u064a\u0645": 6066, "\u0649\u0621": 6067, "\u2581wirkt": 6068, "\u2581\u0627\u0644\u0648\u062d\u062f\u0629": 6069, "\u2581gezogen": 6070, "\u2581\u0645\u062c\u0631": 6071, "\u2581\u0623\u0633\u0626\u0644\u0629": 6072, "\u2581\u0627\u0644\u0630": 6073, "\u2581\u062a\u062a\u062d\u062f\u062b\u064a\u0646": 6074, "\u2581Fluss": 6075, "\u2581\u0637\u0631\u064a\u0642\u0647": 6076, "\u2581\u0623\u064a\u0645\u0643\u0646\u0646\u064a": 6077, "\u2581\u0627\u0644\u0628\u0646\u0648\u0643": 6078, "\u2581Ideen": 6079, "\u2581\u0625\u064a\u0642\u0627\u0641": 6080, "\u2581\u0627\u0644\u0645\u0646\u0638\u0645\u0627\u062a": 6081, "\u2581Ad": 6082, "\u2581machten": 6083, "\u2581\u0647\u0627\u0645": 6084, "\u2581The": 6085, "\u0628\u0627\u0643": 6086, "\u0643\u0648\u0645": 6087, "\u2581\u0645\u0632\u0645\u0648\u0631": 6088, "\u2581Tsch\u00fcss": 6089, "\u2581\u0627\u0644\u064a\u0627\u0628\u0627\u0646": 6090, "\u2581\u0645\u0633": 6091, "\u2581i": 6092, "\u2581Bullen": 6093, "\u2581\u0627\u0644\u0642\u0636\u0627\u0621": 6094, "\u2581\u062a\u062f\u0631\u064a\u0628": 6095, "\u2581konzentrieren": 6096, "\u2581\u0627\u0644\u0631\u0627\u0628\u0639\u0629": 6097, "\u2581\u0627\u0644\u0627\u0634\u062e\u0627\u0635": 6098, "\u2581Robert": 6099, "\u2581\u062a\u0634\u0639\u0631\u064a\u0646": 6100, "ag": 6101, "\u2581\u0627\u0644\u0635\u062f\u062f": 6102, "\u2581\u0627\u0644\u0644\u0639\u0646\u0647": 6103, "\u0642\u0633\u0645": 6104, "\u2581\u0631\u0627\u064a": 6105, "\u2581\u0645\u0633\u062f\u0633": 6106, "\u2581\u0639\u064a\u0646": 6107, "\u064a\u0646\u0646\u064a": 6108, "\u2581\u0633\u0627\u0631": 6109, "\u2581auszu": 6110, "\u2581\u0627\u0644\u063a\u0631\u0628": 6111, "\u2581\u0623\u0641\u0631\u0627\u062f": 6112, "\u2581\u0627\u0644\u0631\u062d\u0644\u0629": 6113, "\u0633\u0631": 6114, "\u2581\u0627\u0644\u0641\u064a\u062f\u064a\u0648": 6115, "\u2581Gleich": 6116, "\u2581menschliche": 6117, "\u2581\u062a\u062c\u0631\u0628\u0629": 6118, "\u2581\u0631\u0623\u0633\u0647": 6119, "\u2581Werden": 6120, "\u2581\u0645\u0633\u062a": 6121, "\u2581\u0627\u062d\u0636\u0631": 6122, "\u2581\u0646\u0645\u0644\u0643": 6123, "\u2581Zauber": 6124, "\u2581\u0622\u062b\u0627\u0631": 6125, "\u2581\u0623\u0645\u0648\u0627\u0644": 6126, "ball": 6127, "\u2581\u0627\u0644\u062f\u0631\u062c\u0629": 6128, "\u2581\u0631\u0628\u0627\u0647": 6129, "\u2581ausge": 6130, "\u0644\u064a\u0648": 6131, "\u2581\u0622\u0644\u0629": 6132, "\u2581\u0627\u0631\u0649": 6133, "\u2581\u0646\u0639\u064a\u0634": 6134, "\u2581Arme": 6135, "\u062c\u0632": 6136, "\u2581Mitte": 6137, "\u2581\u0628\u0639\u064a\u062f\u0629": 6138, "\u2581\u0642\u0644\u0628\u0643": 6139, "\u0631\u0627\u0631": 6140, "\u2581\u0623\u0628\u0642\u0649": 6141, "\u0644\u0642": 6142, "\u2581\u0625\u0644\u0647": 6143, "\u0671": 6144, "\u2581Hinsicht": 6145, "\u2581herauszufinden": 6146, "\u2581nachdenken": 6147, "\u2581\u062a\u062b\u0642": 6148, "\u2581\u0645\u0627\u064a\u0643\u0644": 6149, "\u2581Jedes": 6150, "\u0632\u0627": 6151, "\u2581\u0645\u0633\u0627\u0639\u062f\u062a\u064a": 6152, "\u2581\u0645\u062e": 6153, "\u2581\u0627\u0644\u062c\u0644\u0633\u0629": 6154, "\u064a\u0631\u0629": 6155, "\u2581\u062f\u0627\u0639\u064a": 6156, "\u2581\u0648\u0635\u0641": 6157, "\u2581\u0627\u0644\u0639\u0631\u0627\u0642": 6158, "\u2581\u0641\u0646\u062f\u0642": 6159, "\u2581furchtbar": 6160, "\u2581\u0637\u0631\u0641": 6161, "\u0627\u0626\u062f": 6162, "\u0632\u0627\u0644": 6163, "\u258114.": 6164, "\u2581\u0635\u0639\u0628\u0629": 6165, "bi": 6166, "\u2581entweder": 6167, "\u0622\u0633\u0641": 6168, "\u0623\u0644\u0627": 6169, "\u2581\u0628\u0645\u0646": 6170, "\u2581Ausschuss": 6171, "\u2581\u0643\u0634\u0641": 6172, "\u2581Fernsehen": 6173, "\u2581\u062a\u0624\u062f\u064a": 6174, "\u2581\u0642\u062f\u0645\u0627": 6175, "\u0627\u0642\u0629": 6176, "\u0641\u0648\u0631\u062f": 6177, "\u2581\u0628\u0627\u0644\u0631\u063a\u0645": 6178, "\u2581\u0645\u064a\u062a\u0627": 6179, "\u2581unbe": 6180, "stelle": 6181, "\u2581\u0644\u0637\u064a\u0641\u0627": 6182, "\u2581\u0623\u0642\u062f\u0631": 6183, "\u2581\u0627\u0644\u062b\u0644\u062c": 6184, "\u2581\u0628\u0646\u0641\u0633\u0647": 6185, "\u2581\u0623\u0634\u0643\u0627\u0644": 6186, "\u0637\u0631": 6187, "\u0664": 6188, "\u2581\u0623\u0635\u062d\u0627\u0628": 6189, "\u2581f\u00fchlte": 6190, "\u2581bemerkt": 6191, "\u2581Lo": 6192, "\u2581Regen": 6193, "\u2581Umwelt": 6194, "\u2581Vertrag": 6195, "\u2581\u062a\u0639\u064a\u062f": 6196, "\u2581versteht": 6197, "\u2581\u062a\u0641\u0639\u0644\u064a\u0646\u0647": 6198, "\u2581\u0643\u0630\u0628\u062a": 6199, "sche": 6200, "\u2581blieb": 6201, "\u2581\u0625\u0634\u0627\u0631\u0629": 6202, "\u2581Karten": 6203, "gehen": 6204, "\u2581spreche": 6205, "\u2581\u062a\u0639\u0644\u0645\u062a": 6206, "\u2581\u0642\u062f\u0645\u062a": 6207, "berg": 6208, "ierte": 6209, "\u2581Sogar": 6210, "\u2581angegriffen": 6211, "\u2581\u0633\u0631\u0642\u0629": 6212, "\u2581\u0627\u0644\u0639\u062f\u062f": 6213, "\u2581\u0644\u0644\u0628\u064a\u062a": 6214, "\u0663": 6215, "\u2581\u0641\u0631\u0642": 6216, "\u2581erf\u00fcllt": 6217, "\u2581\u064a\u0644\u0632\u0645": 6218, "\u2581\u064a\u0646\u062a\u0638\u0631": 6219, "\u2581Con": 6220, "\u2581verbessern": 6221, "\u2581\u0641\u0625\u0630\u0627": 6222, "\u2581\u0627\u0644\u0623\u0648\u0644\u0627\u062f": 6223, "\u2581seht": 6224, "\u2581\u0630\u0643\u0631\u062a": 6225, "\u2581\u0641\u0627\u0626\u062f\u0629": 6226, "\u2581gesetzt": 6227, "\u2581\u0637\u0641\u0644\u0627": 6228, "\u2581\u0627\u0644\u0645\u0631\u0643\u0632": 6229, "\u2581\u064a\u0646\u062c\u062d": 6230, "\u0633\u0627\u0631": 6231, "\u0644\u0648\u0627": 6232, "\u2581\u0625\u064a\u0627\u0647": 6233, "\u2581\u062a\u062f\u0645\u064a\u0631": 6234, "\u2581\u062a\u0648\u0627\u0635\u0644": 6235, "\u2581Ar": 6236, "\u2581\u0642\u0627\u0626\u0644\u0627": 6237, "arbeit": 6238, "\u2581willkommen": 6239, "\u2581\u0627\u0628\u0646\u0643": 6240, "\u0639\u0647": 6241, "si": 6242, "\u0641\u0627\u0644": 6243, "\u0646\u0627\u0647\u0627": 6244, "\u0648\u0637": 6245, "\u2581\u0645\u0647\u062a\u0645": 6246, "\u2581Don": 6247, "\u2581\u0627\u0643\u0628\u0631": 6248, "\u2581\u062a\u0642\u0648\u062f": 6249, "\u2581\u0627\u0644\u062d\u0627\u0644\u064a\u0629": 6250, "\u2581\u062a\u0637\u0644\u0642": 6251, "\u258129": 6252, "\u2581Geheimnisse": 6253, "\u2581\u0627\u0643\u0646": 6254, "\u2581\u062f\u0627\u0646": 6255, "\u2581\u0627\u0628": 6256, "\u2581\u062a\u0641\u0633\u064a\u0631": 6257, "\u0651\u064d": 6258, "\u2581Red": 6259, "\u2581\u0627\u0644\u0633\u064a\u0631": 6260, "\u2581Vampir": 6261, "\u2581nimmst": 6262, "\u2581seh": 6263, "\u2581\u062a\u062d\u0636\u0631": 6264, "ere": 6265, "\u2581\u062d\u0644\u0645": 6266, "\u2581Code": 6267, "\u2581Mitglieder": 6268, "\u2581\u0628\u062d\u062b": 6269, "\u062f\u0627\u0645": 6270, "\u2581\u0627\u0644\u062e\u0637\u0628": 6271, "\u2581Grab": 6272, "\u2581desto": 6273, "\u2581\u0628\u0634\u0631": 6274, "ac": 6275, "\u2581\u0625\u0633": 6276, "\u2581\u0623\u0637\u0648\u0644": 6277, "\u0627\u062f\u0629": 6278, "\u2581Technologie": 6279, "\u2581\u0639\u064a\u0646\u064a\u0643": 6280, "\u2581\u0627\u0644\u0631\u0623\u0633": 6281, "ang": 6282, "\u2581Zahlen": 6283, "\u0627\u0643\u0633": 6284, "\u2581Grundlage": 6285, "\u2581Kapitel": 6286, "\u2581\u0627\u0646\u0646\u0649": 6287, "\u2581aufgrund": 6288, "\u2581h\u00f6her": 6289, "\u2581\u0631\u0633\u0627\u0626\u0644": 6290, "\u2581\u0627\u0644\u0645\u0624\u062a\u0645\u0631": 6291, "\u2581\u0627\u0644\u0622": 6292, "\u2581\u0648\u0644\u064a": 6293, "\u2581\u0627\u0633\u062a\u0639\u0645\u0627\u0644": 6294, "\u2581\u0644\u0645\u0639\u0631\u0641\u0629": 6295, "(190,230)}": 6296, "\u2581\u0634\u0627\u0647\u062f\u062a": 6297, "\u2581\u0627\u0644\u0645\u0631\u0641\u0642": 6298, "\u0648\u062b": 6299, "\u2581\u062a\u0631\u062f": 6300, "\u2581\u0645\u0633\u0627\u0631": 6301, "ment": 6302, "\u2581\u062f\u0631\u0633": 6303, "\u2581\u0641\u0648": 6304, "\u0632\u0627\u0646": 6305, "\u2581Bedrohung": 6306, "\u2581Richard": 6307, "\u2581\u0627\u0644\u0642\u0637\u0627\u0639": 6308, "\u2581verursacht": 6309, "\u2581\u0627\u0644\u0631\u0633\u0645\u064a\u0629": 6310, "\u2581\u0627\u0644\u0645\u0631\u0643\u0632\u064a\u0629": 6311, "ps": 6312, "\u2581\u0628\u0634\u0623\u0646\u0647": 6313, "\u2581treten": 6314, "\u2581\u0631\u0623\u064a": 6315, "\u2581\u0633\u0641\u0631": 6316, "\u2581\u0643\u0641\u0627\u064a\u0629": 6317, "\u2581\u0646\u0641\u0639\u0644\u0647": 6318, "\u2581\u0627\u0644\u0633\u0639\u0627\u062f\u0629": 6319, "\u2581\u0627\u0644\u0647\u062c\u0648\u0645": 6320, "\u0635\u062f": 6321, "\u2581EU": 6322, "\u0637\u064a\u0631": 6323, "\u2581Rose": 6324, "\u2581\u0622\u0631": 6325, "\u2581\u062a\u0631\u0627\u062c\u0639": 6326, "\u2581konntest": 6327, "\u2581kontrollieren": 6328, "\u2581\u0627\u0644\u0643\u0648\u0643\u0628": 6329, "\u2581\u062a\u0633\u0628\u0628": 6330, "ck": 6331, "\u2581ha": 6332, "\u2581melden": 6333, "\u2581\u0628\u064a\u0627\u0646\u0627\u062a": 6334, "\u2581\u0648\u0643\u0623\u0646\u0647": 6335, "\u0642\u062f\u0645": 6336, "\u2581Ta": 6337, "\u2581\u064a\u062a\u0648\u062c\u0628": 6338, "\u0648\u0642\u0641": 6339, "\u2581gibst": 6340, "\u2581reich": 6341, "\u2581\u0627\u0635\u0628\u062d": 6342, "\u0639\u0637\u064a": 6343, "\u2581Selbstmord": 6344, "\u2581\u0623\u062a\u0639\u062a\u0642\u062f": 6345, "\u2581\u062a\u0643\u0644\u0645": 6346, "\u2581\u0641\u0631\u0635": 6347, "\u2581\u0627\u0644\u0646\u0627\u062a\u062c": 6348, "\u0641\u0636": 6349, "\u2581\u0627\u0644\u0641\u0648\u0636\u0649": 6350, "\u2581\u0642\u0648\u0627\u062a": 6351, "elt": 6352, "\u2581Milch": 6353, "\u2581eindeutig": 6354, "\u0631\u0627\u0643": 6355, "\u2581hinterlassen": 6356, "\u2581aktiv": 6357, "\u2581\u0627\u0628\u062d\u062b": 6358, "\u2581\u0625\u0632\u0627\u0621": 6359, "\u2581\u062a\u062d\u0631": 6360, "\u2581\u0639\u062f\u0648": 6361, "\u2581\u0645\u0639\u0631\u0648\u0641": 6362, "\u0627\u0646\u0647\u0627": 6363, "\u2581\u0623\u062a\u0639\u0631\u0641\u064a\u0646": 6364, "\u2581stelle": 6365, "\u2581\u0627\u0644\u0623\u062d\u0645\u0631": 6366, "\u2581\u0633\u064a\u0623\u062a\u064a": 6367, "igt": 6368, "\u2581\u0645\u0639\u062f\u0644": 6369, "\u258130.": 6370, "\u2581\u0642\u0635": 6371, "\u2581Karriere": 6372, "\u2581Lily": 6373, "\u2581\u0627\u0644\u062e\u0627\u0631\u062c\u064a\u0629": 6374, "\u2581\u0627\u0644\u064a\u0647\u0648\u062f": 6375, "\u2581selten": 6376, "\u2581Fick": 6377, "\u2581beobachten": 6378, "\u2581\u0627\u0644\u0642\u0633\u0645": 6379, "\u2581z\u00e4hlt": 6380, "\u2581aufzu": 6381, "\u2581gelaufen": 6382, "\u2581\u062a\u062d\u062f": 6383, "\u2581\u064a\u0643": 6384, "it\u00e4t": 6385, "\u2581l\u00fcgen": 6386, "\u2581\u062a\u0633\u062a\u0645\u0631": 6387, "\u2581\u062d\u0645\u0644": 6388, "\u2581Zuerst": 6389, "\u2581\u0623\u0631\u064a": 6390, "\u2581\u0627\u0633\u062a\u0639\u062f\u0627\u062f": 6391, "\u2581\u0627\u0644\u0642\u0645\u0629": 6392, "\u2581Deutschland": 6393, "\u2581welchen": 6394, "\u2581\u0627\u062d\u062a\u0631\u0627\u0645": 6395, "\u2581zog": 6396, "\u2581\u0643\u0623\u0646": 6397, "\u064a\u0647\u0645": 6398, "gang": 6399, "lassen": 6400, "\u2581Stich": 6401, "\u2581\u0627\u0644\u0645\u0633\u062a\u062f\u0627\u0645\u0629": 6402, "\u2581schlechter": 6403, "\u062d\u0635\u0644": 6404, "\u2581Aussage": 6405, "\u2581F\u00e4higkeiten": 6406, "\u2581entdeckt": 6407, "\u2581\u0647\u0627\u064a": 6408, "\u2581irre": 6409, "\u2581\u0627\u0644\u062c\u0647\u0627\u0632": 6410, "\u2581\u0627\u0644\u0646\u0641\u0637": 6411, "In": 6412, "\u2581\u0627\u0644\u064a\u0645\u064a\u0646": 6413, "\u2581Bobby": 6414, "ek": 6415, "\u2581Brust": 6416, "\u2581L\u00fcgen": 6417, "\u0627\u0646\u0629": 6418, "\u0627\u0648\u0644": 6419, "\u2581Martin": 6420, "\u2581\u0623\u0642\u062a\u0644": 6421, "\u2581\u062a\u062d\u0648\u064a\u0644": 6422, "\u2581\u0648\u0644\u0644": 6423, "\u2581Grenze": 6424, "\u2581\u0633\u062a\u0642\u0648\u0645": 6425, "\u2581\u0627\u0633\u062a\u0645\u0639": 6426, "\u2581\u062a\u0637\u0628\u064a\u0642": 6427, "\u2581\u0627\u0644\u0633\u0631\u064a\u0639": 6428, "\u2581Handel": 6429, "\u2581\u0642\u062f\u064a\u0645\u0629": 6430, "\u2581\u0644\u0648\u0646": 6431, "\u2581\u0644\u0644\u062d\u0638\u0629": 6432, "\u2581\u064a\u0648\u0645\u064a\u0646": 6433, "\u2581\u0627\u0644\u0633\u0641\u0631": 6434, "\u2581\u0627\u0644\u0639\u0644\u0627\u0642\u0629": 6435, "\u2581\u0627\u0644\u0641\u0631\u0642": 6436, "\u2581\u0633\u0631\u0642": 6437, "\u2581\u0648\u064a\u0644": 6438, "sel": 6439, "\u2581\u00fcberlebt": 6440, "\u2581\u0627\u0644\u0645\u0646\u0627\u0633\u0628\u0629": 6441, "\u2581\u0644\u0644\u062e\u0631\u0648\u062c": 6442, "\u2581\u0644\u0646\u0631\u0649": 6443, "\u2581\u0648\u0627\u0644\u062a\u0646\u0645\u064a\u0629": 6444, "\u062f\u062e\u0644": 6445, "\u2581Notfall": 6446, "\u2581mitnehmen": 6447, "\u2581\u0627\u0644\u0639\u0644\u0627\u0642\u0627\u062a": 6448, "\u2581\u0623\u0645\u064a\u0631\u0643\u0627": 6449, "\u2581\u0627\u0644\u0646\u0635": 6450, "\u2581\u062c\u0645\u0627\u0639\u0629": 6451, "\u2581\u0645\u0635": 6452, "\u2581City": 6453, "\u2581?": 6454, "\u2581England": 6455, "\u2581anzu": 6456, "\u2581fassen": 6457, "\u2581Lieutenant": 6458, "\u2581\u0623\u0633\u0627\u0639\u062f\u0643": 6459, "system": 6460, "\u2581Krise": 6461, "\u2581gefahren": 6462, "\u2581Wisst": 6463, "\u2581K\u00f6nnten": 6464, "\u2581\u0639\u0627\u0644\u064a\u0629": 6465, "\u2581\u0623\u0630\u0643\u0631": 6466, "\u2581\u0645\u0631\u0648\u0631": 6467, "sehen": 6468, "\u2581Autos": 6469, "\u2581\u0627\u0644\u0639\u0642\u062f": 6470, "\u2581\u062a\u0645\u0648\u064a\u0644": 6471, "\u2581\u0648\u0627\u0644\u062f\u062a\u064a": 6472, "zug": 6473, "\u2581Y": 6474, "\u2581M\u00fcll": 6475, "\u2581\u0627\u0644\u062c\u062f": 6476, "\u2581\u062a\u062d\u0628\u064a\u0646": 6477, "\u2581\u0645\u0643\u0627\u0646\u0647": 6478, "\u2581brauch": 6479, "\u2581Juden": 6480, "\u2581\u0627\u0644\u0645\u0639\u0631\u0641\u0629": 6481, "\u2581\u0645\u062d\u0637\u0629": 6482, "\u2581Schwein": 6483, "\u2581Uh": 6484, "\u2581\u0627\u0644\u0646\u0647\u0627\u0631": 6485, "\u062f\u0648\u0627": 6486, "\u2581\u0627\u0644\u0623\u0647\u062f\u0627\u0641": 6487, "\u2581\u064a\u0631\u063a\u0628": 6488, "\u0628\u0627\u064a": 6489, "\u0636\u0631\u0628": 6490, "\u2581kennenzulernen": 6491, "\u0639\u062a\u0628\u0631": 6492, "\u2581Verfahren": 6493, "\u2581\u0623\u0633\u0623\u0644": 6494, "\u2581\u0627\u0644\u062b": 6495, "\u2581\u0644\u0644\u0647\u0648\u0644": 6496, "\u2581derjenige": 6497, "\u0641\u0627\u0631": 6498, "\u2581einschl\u00e4gige": 6499, "\u2581\u0627\u0644\u0627\u0648\u0644\u0627\u062f": 6500, "\u2581\u0627\u0644\u0645\u0633\u062f\u0633": 6501, "\u2581\u0633\u0637\u062d": 6502, "\u2581Fahren": 6503, "\u2581\u0628\u0631\u062c": 6504, "\u2581\u0648\u0627\u0644\u0645\u0646\u0638\u0645\u0627\u062a": 6505, "\u2581\u0631\u062d\u0644\u062a": 6506, "\u2581\u0644\u0644\u0623\u0645\u0645": 6507, "\u2581\u0627\u0644\u062c\u064a\u062f\u0629": 6508, "\u2581\u0628\u0648\u0628": 6509, "\u2581\u0646\u0648\u0631": 6510, "\u0643\u0648\u0644": 6511, "\u2581h": 6512, "\u2581\u0627\u0644\u0643\u0630\u0628": 6513, "\u2581Su": 6514, "\u2581\u0633\u0644\u0633\u0644\u0629": 6515, "\u2581existiert": 6516, "\u2581\u0628\u0627\u0633\u062a\u062e\u062f\u0627\u0645": 6517, "bild": 6518, "\u0667": 6519, "\u2581Magie": 6520, "\u2581Setzen": 6521, "\u2581jagen": 6522, "\u2581\u0627\u0644\u0645\u0646\u0638\u0645\u0629": 6523, "\u2581\u0644\u0646\u062f\u0646": 6524, "\u2581\u0648\u0628\u0627\u0644\u062a\u0627\u0644\u064a": 6525, "\u2581\u0648\u0644\u0643\u0646\u0646\u0627": 6526, "\u2581Scott": 6527, "\u2581wohnt": 6528, "\u2581Jahres": 6529, "\u2581\u0627\u0644\u062f\u0648\u0631\u0629": 6530, "\u2581\u0627\u0644\u0645\u0624\u0633\u0633\u0627\u062a": 6531, "\u258119.": 6532, "\u2581Schuss": 6533, "\u2581\u062f\u0641\u0639\u062a": 6534, "\u2581\u0639\u064a\u0646\u064a": 6535, "\u258132": 6536, "\u2581\u0631\u062c": 6537, "\u2581\u063a\u0627\u062f\u0631\u062a": 6538, "op": 6539, "\u2581Steh": 6540, "\u2581\u0643\u0641": 6541, "\u2581\u0648\u0627\u062d\u062f\u0647": 6542, "\u2581Ausbildung": 6543, "\u2581angesehen": 6544, "\u258118.": 6545, "\u2581\u0634\u0631\u0641": 6546, "\u2581uh": 6547, "\u2581\u0622\u0628": 6548, "\u0648\u0631\u064a": 6549, "\u2581bekommst": 6550, "\u062d\u0636\u0631": 6551, "\u2581Monsieur": 6552, "\u2581Tr\u00e4ume": 6553, "\u0643\u0631\u064a\u0633": 6554, "\u2581wunderbar": 6555, "\u2581\u0627\u0644\u0645\u0644\u0627\u0632\u0645": 6556, "\u2581getrennt": 6557, "\u2581\u0633\u0623\u062d\u0636\u0631": 6558, "\u2581\u0644\u0623\u0645\u0631": 6559, "\u0627\u0644\u0633": 6560, "\u2581bleib": 6561, "\u2581kostet": 6562, "\u2581vorbereitet": 6563, "\u2581\u0639\u0645\u0631\u0647": 6564, "\u2581\u0627\u0644\u062c\u0646\u0629": 6565, "\u2581\u0633\u0645\u0639": 6566, "\u0623\u0633\u0631\u0639": 6567, "\u2581schafft": 6568, "\u2581\u0642\u0627\u0644\u0647": 6569, "\u2581\u0644\u0639\u0627\u0645": 6570, "\u2581Gift": 6571, "-20": 6572, "\u2581Gern": 6573, "\u2581Gro\u00dfartig": 6574, "\u2581Verstehst": 6575, "\u2581\u0627\u0644\u062d\u0642\u064a\u0631": 6576, "\u2581\u0642\u064a\u0627\u062f\u0629": 6577, "\u2581B\u00fcrgermeister": 6578, "\u2581Maul": 6579, "\u2581Start": 6580, "\u2581m\u00f6glicherweise": 6581, "\u258116.": 6582, "\u2581Wof\u00fcr": 6583, "\u2581Zufall": 6584, "\u2581\u0627\u0644\u0623\u0633\u0641\u0644": 6585, "\u2581\u0628\u0648\u0636\u0639": 6586, "\u2581\u0630\u064a": 6587, "\u2581Absicht": 6588, "\u2581Irak": 6589, "\u2581n\u00e4chstes": 6590, "\u2581\u0627\u0644\u0648\u062d\u0634": 6591, "\u2581langweilig": 6592, "\u2581\u0637\u0631\u062f": 6593, "\u2581schwach": 6594, "\u2581\u0627\u0644\u0628\u0648": 6595, "\u2581Sal": 6596, "\u2581\u0627\u0644\u0648\u0627\u0631\u062f\u0629": 6597, "\u2581\u0627\u0644\u063a\u0628\u064a": 6598, "\u2581\u0631\u0648\u0632": 6599, "\u2581\u0648\u0633": 6600, "\u2581Norden": 6601, "\u2581\u0627\u0644\u062a\u062c\u0627\u0631\u064a\u0629": 6602,
[...]
