{"</s>": 0, "<unk>": 1, ">>ara<<": 2, ".": 3, ",": 4, "\u2581-": 5, "?": 6, "\u060c": 7, "\u064b": 8, "\u064e": 9, "\u061f": 10, "\u2581\u0645\u0646": 11, "\u2581die": 12, "\u2581ist": 13, "\u2581Ich": 14, "\u2581\u0641\u064a": 15, "\u2581ich": 16, "\u2581nicht": 17, "\u2581und": 18, "\u2581(": 19, "\u0651": 20, "\u2581Sie": 21, "\u2581der": 22, "!": 23, "\u0627": 24, "\u2581\u0644\u0627": 25, "\u2581\u0623\u0646": 26, "\u2581das": 27, "\u0650": 28, "\u064f": 29, "\u2581du": 30, "\u2581zu": 31, "\u0647": 32, "\u2581\u0648": 33, "...": 34, "\u2581es": 35, "\u064a": 36, "\u0629": 37, "\u2581\u0647\u0630\u0627": 38, ")": 39, "\u2581\u0639\u0644\u0649": 40, "\u2581.": 41, "\u2581\"": 42, "\u2581in": 43, "s": 44, "\u2581\u060c": 45, "\u2581sie": 46, "\u2581\u0645\u0627": 47, "\u2581\u061f": 48, "\u2581ein": 49, "en": 50, "\u2581den": 51, "\u0643": 52, "\u2581mit": 53, "\u2581wir": 54, "\u2581auf": 55, "\u2581dass": 56, "\u2581Das": 57, "\u2581": 58, "\u0652": 59, "\u2581von": 60, "e": 61, "\u0646": 62, "\u2581mir": 63, "\u2581\u0630\u0644\u0643": 64, "\u0647\u0627": 65, "\u2581eine": 66, "\u2581f\u00fcr": 67, "n": 68, "\u2581er": 69, "\u2581\u0623\u0646\u0627": 70, "\u2581\u064a\u0627": 71, "\u2581was": 72, "\u2581mich": 73, "\u2581\u0644\u0645": 74, "\u2581\u0625\u0644\u0649": 75, "\u2581\u0647\u0644": 76, "\u0645": 77, "-": 78, "\u2581Du": 79, "\u2581hat": 80, "\u2581Was": 81, "\u2581,": 82, "\u062a": 83, "\u2581an": 84, "\u2581\u0644\u0642\u062f": 85, "\"": 86, "\u2581sind": 87, "\u2581Und": 88, "\u2581haben": 89, "\u0640": 90, "\u2581war": 91, "\u2581Es": 92, "\u2581sich": 93, "\u2581Wir": 94, "\u2581\u0643\u0627\u0646": 95, "\u2581\u0639\u0646": 96, "\u064a\u0646": 97, "\u2581so": 98, "\u2581wie": 99, "\u2581\u0645": 100, "\u2581\u0623\u0646\u062a": 101, "\u2581\u0627\u0646": 102, "\u2581dich": 103, "\u2581dem": 104, "\u2581habe": 105, "\u0644": 106, "\u2581\u064a": 107, "\u0646\u0627": 108, "\u2581\u0628": 109, "\u2581Er": 110, "\u2581\u0647\u0646\u0627": 111, "\u2581\u0647\u0630\u0647": 112, "\u2581\u0647\u0648": 113, "\u2581hier": 114, "\u2581\u0644": 115, "\u0648\u0646": 116, "\u2581\u0645\u0627\u0630\u0627": 117, "\u2581einen": 118, "\u2581uns": 119, "\u2581\u0643\u0644": 120, "\u2581Die": 121, "\u2581bin": 122, "\u2581\u062d\u0633\u0646\u0627": 123, "\u2581noch": 124, "\u2581um": 125, "\u2581aus": 126, "\u2581\u062a": 127, "\u2581dir": 128, "\u2581als": 129, "\u2581\u0623": 130, "\u2581nur": 131, "\u0648\u0627": 132, "\u0627\u062a": 133, "\u2581...": 134, "\u0631": 135, "\u0649": 136, "\u2581im": 137, "\u2581sein": 138, ":": 139, "\u2581wird": 140, "\u2581Nein": 141, "\u2581wenn": 142, "\u2581auch": 143, "\u2581Ja": 144, "\u2581\u0645\u0639": 145, "\u2581des": 146, "\u2581\u0627\u0644\u0630\u064a": 147, "\u2581aber": 148, "\u2581kann": 149, "\u2581\u0643\u0646\u062a": 150, "\u062f": 151, "er": 152, "\u2581ihr": 153, "\u2581ihn": 154, "\u2581\u0647\u0646\u0627\u0643": 155, "\u2581werden": 156, "\u0647\u0645": 157, "\u2581Aber": 158, "\u2581hast": 159, "\u2581\u0644\u064a\u0633": 160, "'": 161, "\u2581oder": 162, "\u2581\u0627\u0644\u0622\u0646": 163, "\u2581da": 164, "\u2581Wie": 165, "\u2581\u0627\u0644\u062a\u064a": 166, "\u2581\u0627\u0644": 167, "\u2581\u0634\u064a\u0621": 168, "\u0648": 169, "\u2581schon": 170, "\u2581\u0623\u064a": 171, "\u2581nach": 172, "\u2581\u0625\u0646": 173, "\u0628": 174, "t": 175, "\u2581\u0644\u0643": 176, "\u2581\u0644\u0643\u0646": 177, "\u2581\u0644\u0646": 178, "\u2581\u00fcber": 179, "\u0651\u064e": 180, "\u2581wei\u00df": 181, "\u2581\u0644\u064a": 182, "\u2581meine": 183, "\u2581\u0641\u0642\u0637": 184, "\u2581!": 185, "\u2581\u0623\u0648": 186, "\u2581gut": 187, "\u2581\u0625\u0630\u0627": 188, "\u0639": 189, "\u0646\u064a": 190, "\u2581bist": 191, "\u2581\u0627\u0644\u0645": 192, "\u2581bei": 193, "\u0633": 194, "\u2581vor": 195, "\u2581\u00bb": 196, "\u2581Der": 197, "\u2581\u0647\u064a": 198, "\u2581\u00ab": 199, "\u2581Wenn": 200, "\u2581mal": 201, "\u2581\u064a\u062c\u0628": 202, "\u2581..": 203, "\u2581jetzt": 204, "\u2581\u0646\u0639\u0645": 205, "\u2581\u0642\u062f": 206, "\u2581\u0646": 207, "\u2581:": 208, "\u2581etwas": 209, "\u2581dann": 210, "\u2581\u0644\u0644": 211, "\u2581mehr": 212, "\u064a\u0629": 213, "\u2581man": 214, "\u2581\u0643\u064a\u0641": 215, "\u0644\u0627": 216, "\u2581einem": 217, "\u2581muss": 218, "\u2581einer": 219, "\u2581\u0643\u0627\u0646\u062a": 220, "\u2581keine": 221, "\u2581mein": 222, "\u2581k\u00f6nnen": 223, "\u2581\u0627\u0644\u0649": 224, "\u2581will": 225, "\u2581immer": 226, "\u2581)": 227, "\u0627\u0646": 228, "\u2581\u0628\u0627\u0644": 229, "\u2581\u0643": 230, "\u2581alles": 231, "\u2581\u0628\u0639\u062f": 232, "\u2581\u0623\u062c\u0644": 233, "\u2581doch": 234, "\u2581\u0625\u0646\u0647": 235, "\u2581\u0627\u0644\u0623\u0645\u0631": 236, "\u2581\u0648\u0644\u0643\u0646": 237, "\u0627\u0644": 238, "\u2581\u0623\u0646\u0647": 239, "\u2581ja": 240, "\u2581\u0641": 241, "\u2581geht": 242, "\u2581\u0648\u0627\u0644": 243, "\u2581zum": 244, "\u2581\u0639\u0646\u062f\u0645\u0627": 245, "\u2581nichts": 246, "\u2581wieder": 247, "\u2581tun": 248, ")\u060c": 249, "\u2581Ihr": 250, "\u2581Oh": 251, "\u2581\u0646\u062d\u0646": 252, "st": 253, "\u2581ihm": 254, "\u2581\u062d\u062a\u0649": 255, "\u0641": 256, "\u2581\u0640": 257, "\u2581alle": 258, "\u2581\u0633\u0648\u0641": 259, "\u2581\u0642\u0628\u0644": 260, "\u2581diese": 261, "\u0642": 262, "\u2581sagen": 263, "\u2581machen": 264, "\u2581\u062c\u062f\u0627": 265, "\u2581\u0641\u0649": 266, "\u2581m\u00fcssen": 267, "\u2581\u0643\u0630\u0644\u0643": 268, "\u2581Mann": 269, "\u2581\u0644\u0648": 270, "\u2581Ihnen": 271, "\u2581\u0627\u0646\u0627": 272, "\u2581gibt": 273, "\u2581Zeit": 274, "\u2581Ein": 275, "\u0645\u0627": 276, "\u2581\u0644\u0645\u0627\u0630\u0627": 277, "\u2581\u062a\u0644\u0643": 278, "\u2581\u0628\u0647": 279, "\u2581\u0628\u0639\u0636": 280, "\u2581wurde": 281, "..": 282, "\u2581zur": 283, "\u2581sehen": 284, "\u2581w\u00fcrde": 285, "\u2581\u064a\u0643\u0648\u0646": 286, "\u2581werde": 287, "\u2581hab": 288, "\u2581durch": 289, "\u2581sehr": 290, "\u2581Gott": 291, "\u2581\u201e": 292, "\u2581\u0671\u0644": 293, "\u2581hatte": 294, "\u2581Ist": 295, "\u2581euch": 296, "\u2581einfach": 297, "\u2581\u0639\u0644\u064a\u0643": 298, "\u2581gehen": 299, "\u064d": 300, "\u2581In": 301, "\u062d": 302, "\u2581wissen": 303, "\u064c": 304, "\u2581\u0643\u0645\u0627": 305, "\u2581\u0633\u064a": 306, "\u2581\u0627\u0646\u0647": 307, "\u2581Warum": 308, "\u2581Also": 309, "\u2581\u0627": 310, "\u2581\u0623\u0646\u0643": 311, "\u0623": 312, "r": 313, "\u2581am": 314, "\u2581\u063a\u064a\u0631": 315, "es": 316, "\u2581denn": 317, "\u2581\u0623\u0639\u0631\u0641": 318, "\u2581nie": 319, "\u2581\u0639\u0644\u064a": 320, "\u2581\u0625\u0646\u0647\u0627": 321, "\u2581\u0631\u0628\u0645\u0627": 322, "\u062c": 323, "\u2581Leben": 324, "\u2581\u0623\u064a\u0646": 325, "\u2581\u0628\u0623\u0646": 326, "\u2581\u0634\u0643\u0631\u0627": 327, "\u2581deine": 328, "\u2581ihre": 329, "\u2581viel": 330, "\u2581wirklich": 331, ";": 332, ")\u061f": 333, "\u2581damit": 334, "\u2581Hey": 335, "\u2581\u064a\u0645\u0643\u0646": 336, "\u2581\u0645\u062b\u0644": 337, "\u2581seine": 338, "\u2581\u0627\u0644\u0648\u0642\u062a": 339, "\u2581ab": 340, "\u2581\u0623\u064a\u0636\u0627": 341, "\u2581\u0623\u0631\u064a\u062f": 342, "\u2581\u0623\u062d\u062f": 343, "\u2581dieser": 344, "\u2581\u0627\u0644\u0644\u0647": 345, "\u2581\u0623\u0643\u062b\u0631": 346, "\u2581\u0623\u0639\u062a\u0642\u062f": 347, "\u2581los": 348, "\u2581Danke": 349, ").": 350, "\u2581So": 351, "\u2581zur\u00fcck": 352, "\u2581w\u00e4re": 353, "\u2581soll": 354, "/": 355, "\u2581gesagt": 356, "\u0651\u0650": 357, "\u2581Da": 358, "\u2581\u062a\u0643\u0648\u0646": 359, "\u2581\u062d\u0642\u0627": 360, "\u0643\u0645": 361, "\u2581Menschen": 362, "\u2581Wo": 363, "\u2581Okay": 364, "\u2581\u0634\u062e\u0635": 365, "\u2581unter": 366, "\u2581\u0647\u064a\u0627": 367, "\u2581\u0644\u062f\u064a": 368, "\u2581kein": 369, "\u2581\u0627\u0646\u062a": 370, "\u2581wollte": 371, "\u2581\u0639\u0644\u064a\u0647": 372, "\u2581\u0639": 373, "\u2581wo": 374, "\u2581Dann": 375, "\u2581waren": 376, "\u062a\u064a": 377, "\u2581\u0627\u0644\u064a\u0648\u0645": 378, "\u2581\u0644\u0633\u062a": 379, "\u2581\u0635\u062d\u064a\u062d": 380, "\u2581bis": 381, "\u2581\u0625": 382, "\u2581\u0644\u0647": 383, "\u2581also": 384, "\u2581\u0623\u0639\u0644\u0645": 385, "\u2581vom": 386, "\u2581\u0622\u062e\u0631": 387, "\u2581heute": 388, "\u2581\u064a\u0645\u0643\u0646\u0643": 389, "\u2581\u0648\u0644\u0627": 390, "\u2581bitte": 391, "\u2581\u0631\u062c\u0644": 392, "\u2581\u0633\u062a": 393, "\u2581Wer": 394, "\u2581\u0628\u062e\u064a\u0631": 395, "\".": 396, "\u2581\u0643\u0644\u0627": 397, "\u2581Nicht": 398, "\u2581\u0627\u0644\u0646\u0627\u0633": 399, "d": 400, "\u0634": 401, "\u2581\u0628\u0647\u0627": 402, "\u2581k\u00f6nnte": 403, "\u2581\u0644\u0630\u0627": 404, "\u2581\u0645\u0646\u0630": 405, "\u2581wollen": 406, "\u2581weil": 407, "\u2581sicher": 408, "\u0640\u0640": 409, "\u2581dein": 410, "\u2581Frau": 411, "\u2581\u062b\u0645": 412, "\u2581\u0634\u064a\u0626\u0627": 413, "\u2581Komm": 414, "\u2581meinen": 415, "\u2581\u0647": 416, "\u0632": 417, "\u2581h\u00e4tte": 418, "\u2581lassen": 419, "\u2581anderen": 420, "\u2581\u064a\u0628\u062f\u0648": 421, "\u062a\u0643": 422, "\u2581kommen": 423, "\u2581'": 424, "\u2581Leute": 425, "\u2581\u0644\u062f\u064a\u0643": 426, "\u2581sagte": 427, "\u2581Ihre": 428, "\u2581zwei": 429, "\u2581\u0628\u064a\u0646": 430, "\u2581\u0633": 431, "\u2581\u0645\u0631\u062d\u0628\u0627": 432, "\u2581ihnen": 433, "\u2581tut": 434, "m": 435, "\u2581leid": 436, "\u2581Hier": 437, "\u0647\u0644": 438, "\u2581sollte": 439, "\u2581weg": 440, "\u2581Welt": 441, "\u2581\u0648\u064a": 442, "\u2581kommt": 443, "\u2581\u0627\u0644\u0645\u062a\u062d\u062f\u0629": 444, "\u2581\u0623\u0644\u064a\u0633": 445, "\u0627\u0621": 446, "\u2581gerade": 447, "\u2581\u062c\u064a\u062f": 448, "\u2581\u0628\u0643": 449, "\u2581Na": 450, "\u2581selbst": 451, "\u2581\u0623\u064a\u0647\u0627": 452, "\u2581kannst": 453, "\u2581Vater": 454, "\u2581ganz": 455, "\u2581Vielleicht": 456, "\u2581\u0648\u0627\u062d\u062f": 457, "\u2581\u062a\u0631\u064a\u062f": 458, "\u2581\u0628\u0645\u0627": 459, "\u2581\u0627\u0644\u0631\u062c\u0644": 460, "\u2581Tag": 461, "\u2581\u0645\u0631\u0629": 462, "\u2581willst": 463, "\u2581\u0648\u0642\u062a": 464, "\u2581Nun": 465, "\u2581vielleicht": 466, "\u062a\u0647": 467, "\u2581Eine": 468, "\u2581nein": 469, "in": 470, "\u2581\u0627\u0646\u0647\u0627": 471, "\u2581\u062a\u0639\u0631\u0641": 472, "\u061b": 473, "\u2581Mein": 474, "\u2581\u0628\u064a": 475, "\u2581\u0645\u0643\u0627\u0646": 476, "\u2581\u0644\u062f\u064a\u0646\u0627": 477, "\u062b": 478, "\u2581gesehen": 479, "\u2581ob": 480, "\u2581gemacht": 481, "\u2581diesen": 482, "\u2581\u0623\u062e\u0631\u0649": 483, "\u2581\u2014": 484, "\u2581macht": 485, "\u2581\u0623\u0646\u0647\u0627": 486, "\u2581diesem": 487, "(": 488, "\u2581glaube": 489, "\u2581\u0623\u0633\u062a\u0637\u064a\u0639": 490, "\u2581unsere": 491, "\u2581Alles": 492, "\u2581\u0633\u0623": 493, "\u2581\u0644\u064a\u0633\u062a": 494, "\u0636": 495, ".\"": 496, "\u2581\u0627\u0644\u0643\u062b\u064a\u0631": 497, "\u2581\u0627\u0644\u0639\u0627\u0644\u0645": 498, "\u2581\u062d\u062f\u062b": 499, "\u2581\u0627\u0644\u0627": 500, "\u0637": 501, "\u2581passiert": 502, "\u2581Geld": 503, "\u2581\u0643\u0645": 504, "\u2581\u0623\u0641\u0636\u0644": 505, "\u2581\u064a\u0643\u0646": 506, "\u2581Jetzt": 507, "\u2581\u0644\u0623\u0646": 508, "\u2581\u0639\u0644\u064a\u0646\u0627": 509, "\u2581reden": 510, "\u2581keinen": 511, "\u2581Bitte": 512, "\u2581\u0623\u0646\u0646\u064a": 513, "\u2581\u0633\u064a\u0643\u0648\u0646": 514, "\u2581finden": 515, "\u2581\u062a\u0645": 516, "\u2581\u0627\u0630\u0627": 517, "\u2581\u064a\u0645\u0643\u0646\u0646\u064a": 518, "\u2581\u0627\u0644\u0630\u064a\u0646": 519, "\u2581\u0627\u0644\u0639\u0645\u0644": 520, "\u2581\u202b": 521, "\u2581dieses": 522, "\u2581paar": 523, "\u2581raus": 524, "\u2581dachte": 525, "\u2581helfen": 526, "\u2581eines": 527, "\u2581\u0628\u0647\u0630\u0627": 528, "\u2581\u064a\u0648\u0645": 529, "\u2581wei\u00dft": 530, "\u2581Mr": 531, "\u2581Mutter": 532, "\u2581\u0634\u0626": 533, "\u2581Auf": 534, "\u2581hin": 535, "\u0630": 536, "\u2581Hast": 537, "\u2581andere": 538, "\u2581[": 539, "\u2581klar": 540, "\u2581\u062a\u0641\u0639\u0644": 541, "\u2581davon": 542, "\u2581musst": 543, "\u2581besser": 544, "\u2581meiner": 545, "\u2581weiter": 546, "\u2581\u062d\u0633\u0646": 547, "\u2581m\u00f6chte": 548, "\u2581ver": 549, "\u2581Gut": 550, "\u2581jemand": 551, "\u2581\u0628\u0630\u0644\u0643": 552, "\u2581\u062e\u0644\u0627\u0644": 553, "\u2581Mal": 554, "\u2581geh\u00f6rt": 555, "\u2581her": 556, "\u2581gegen": 557, "\u2581Weg": 558, "\u2581sollten": 559, "ung": 560, "\u2581\u0648\u062a": 561, "\u2581Kinder": 562, "\u0641\u064a": 563, "\u2581\u0628\u0644": 564, "\u2581\u0644\u0647\u0627": 565, "\u2581wohl": 566, "\u2581meinem": 567, "\u2581\u0627\u0648": 568, "\u0635": 569, "\u064a\u0627": 570, "\u2581zusammen": 571, "\u2581viele": 572, "\u2581\u0642\u0644\u062a": 573, "\u2581Als": 574, "\u2581\u0642": 575, "\u2581\u0645\u0639\u0643": 576, "\u062a\u0647\u0627": 577, "\u2581ohne": 578, "\u0623\u0646\u0627": 579, "\u2581\u0633\u0646": 580, "\u0645\u0646": 581, "\u2581Meine": 582, "\u2581\u0633\u064a\u062f\u064a": 583, "\u2581\u0648\u0627\u062d\u062f\u0629": 584, "\u2581\u0628\u0634\u0623\u0646": 585, "\u2581Nacht": 586, "\u2581wer": 587, "\u2581genau": 588, "\u2581Sir": 589, "\u2581\u0622\u0633\u0641": 590, "\u2581\u062c\u0645\u064a\u0639": 591, "\u2581\u064a\u0648\u062c\u062f": 592, "\u2581\u0648\u0623\u0646\u0627": 593, "\u2581wirst": 594, "\u2581Haus": 595, "\u2581lange": 596, "\u2581Keine": 597, "\u2581denke": 598, "\u2581\u064a\u062d\u062f\u062b": 599, "\u0645\u0627\u0630\u0627": 600, "\u2581\u0628\u0634\u0643\u0644": 601, "\u2581ins": 602, "\u2581\u0642\u0627\u0644": 603, "\u2581ihrer": 604, "\u2581sagt": 605, "\u2581\u0623\u0645": 606, "\u062e": 607, "\u2581seinen": 608, "\u2581\u0641\u064a\u0647": 609, "\u2581geben": 610, "\u2581\u0641\u0639\u0644": 611, "o": 612, "\u2581daf\u00fcr": 613, "\u2581warum": 614, "\u2581Ordnung": 615, "\u2581Hallo": 616, "\u2581dort": 617, "\u2581getan": 618, "\u2581\u062f\u0627\u0626\u0645\u0627": 619, "\u2581\u062d": 620, "\u2581\u0623\u0644\u0627": 621, "\u25812": 622, "\u2581\u062d\u0648\u0644": 623, "\u0651\u064f": 624, "\u2581\u0639\u0644\u064a\u0647\u0627": 625, "\u2581\u0644\u0630\u0644\u0643": 626, "\u2581Nur": 627, "\u2581\u0648\u0641\u064a": 628, "y": 629, "\u2581\u0644\u062a": 630, "\u0644\u0642\u062f": 631, "\u2581rein": 632, "\u2581Jahre": 633, "\u2581Mit": 634, "\u2581Man": 635, "\u2581ihren": 636, "\u2581\u0645\u0639\u064a": 637, "\u2581okay": 638, "\u2581seiner": 639, "\u2581\u062a\u0639\u0644\u0645": 640, "\u2581\u0631\u0627\u0626\u0639": 641, "ne": 642, "a": 643, "\u2581Lass": 644, "\u2581\u0627\u064a": 645, "\u2581\u0644\u0646\u0627": 646, "\u2581\u0644\u0647\u0630\u0627": 647, "\u2581deinen": 648, "\u25813": 649, "\u2581gleich": 650, "\u2581\u0627\u0644\u0639\u0627\u0645": 651, "\u0627\u0645": 652, "\u2581Arbeit": 653, "\u2581\u0627\u0644\u0645\u0643\u0627\u0646": 654, "\u2581wurden": 655, "\u2581Hause": 656, "\u2581M\u00e4dchen": 657, "\u2581Jahren": 658, "\u064a\u0647": 659, "\u2581Familie": 660, "\u2581\u0648\u0647\u0648": 661, "\u2581drei": 662, "\u2581Nationen": 663, "\u2581\u0648\u0645\u0646": 664, "\u2581\u0623\u0628\u062f\u0627": 665, "\u2581Ge": 666, "\u2581sollen": 667, "\u2581\u062a\u0645\u0627\u0645\u0627": 668, "\u2581\u062d\u064a\u062b": 669, "\u2581Freund": 670, "\u2581dazu": 671, "\u2581Hilfe": 672, "\u2581\u0641\u064a\u0647\u0627": 673, "\u2581\u0648\u0645": 674, "\u2581\u0648\u0647\u0630\u0627": 675, "\u2581gar": 676, "\u2581\u062d\u0627\u0644": 677, "\u2581\u0623\u0645\u0631": 678, "\u2581\u0639\u0627\u0645": 679, "\u2581\u0627\u0644\u0627\u0646": 680, "\u2581\u0647\u0645": 681, "\u2581\u0648\u0642\u062f": 682, "\u2581\u0639\u0645\u0644": 683, "\u2581\u0639\u0646\u062f": 684, "\u2581wegen": 685, "\u0647\u0630\u0627": 686, "\u062a\u0646\u0627": 687, "\u2581\u0625\u0630\u0646": 688, "\u2581Diese": 689, "\u201c": 690, "\u2581dabei": 691, "\u2581sei": 692, "\u2581\u0623\u0628\u064a": 693, "\u2581bringen": 694, "\u2581Weil": 695, "\u2581tot": 696, "\u2581\u0641\u062d\u0633\u0628": 697, "\u2581\u0628\u0627\u0644\u0637\u0628\u0639": 698, "\u2581\u0627\u0644\u0623\u0645\u0645": 699, "\u2581Wieso": 700, "\u2581Vereinte": 701, "\u2581seit": 702, "\u2581\u0641\u0642\u062f": 703, "\u2581einmal": 704, "\u2581hatten": 705, "\u2581\u064a\u0645\u0643\u0646\u0646\u0627": 706, "\u2581\u0648\u0623": 707, "\u2581Tut": 708, "\u0644\u0645": 709, "\u2581\u0641\u0639\u0644\u062a": 710, "\u2581\u0627\u0644\u062d\u0642\u064a\u0642\u0629": 711, "\u2581ganze": 712, "\u2581\u0647\u0643\u0630\u0627": 713, "\u2581dar\u00fcber": 714, "\u2581bleiben": 715, "\u2581\u0627\u0644\u0644\u064a\u0644\u0629": 716, "\u2581sch\u00f6n": 717, "\u2581Problem": 718, "\u2581\u0643\u062b\u064a\u0631\u0627": 719, "\u2581\u0645\u0646\u0643": 720, "\u2581Angst": 721, "S": 722, "\u2581richtig": 723, "\u0646\u0649": 724, "\u2581konnte": 725, "\u2581unser": 726, "\u2581brauchen": 727, "\u2581Doch": 728, "\u2581\u0633\u064a\u062f": 729, "\u2581Im": 730, "\u2581F\u00fcr": 731, "\u2581zwischen": 732, "\u2581\u0645\u0646\u0647": 733, "\u2581Sohn": 734, "\u2581steht": 735, "\u25811": 736, "\u2581\u0627\u0644\u062d\u064a\u0627\u0629": 737, "de": 738, "\u2581Abend": 739, "\u2581\u0623\u0648\u0647": 740, "te": 741, "\u2581\u0639\u0646\u0647": 742, "\u2581\u062f\u0648\u0646": 743, "\u2581\u0625\u0644\u0647\u064a": 744, "\u2581S": 745, "\u2581\u0641\u0625\u0646": 746, "\u2581Stadt": 747, "\u2581Los": 748, "\u2581\u064a\u0639\u0646\u064a": 749, "\u2581\u0642\u0644\u064a\u0644\u0627": 750, "\u062f\u064a": 751, "\u2581\u0627\u0644\u062c\u0645\u064a\u0639": 752, "\u2581Seite": 753, "\u2581\u0623\u0638\u0646": 754, "\u2581\u0627\u0644\u0623\u0648\u0644": 755, "\u2581\u0647\u0624\u0644\u0627\u0621": 756, "\u2581Haben": 757, "\u2581\u062a\u062d\u062a": 758, "\u2581Dinge": 759, "A": 760, "\u2581H\u00f6r": 761, "\u2581kam": 762, "\u2581be": 763, "\u2581\u0644\u062f\u064a\u0647": 764, "\u2581Fall": 765, "\u258110": 766, "\u2581daran": 767, "\u2581\u0644\u0644\u063a\u0627\u064a\u0629": 768, "\u2581Oder": 769, "\u2581glauben": 770, "\u2581Jehova": 771, "\u2581sieht": 772, "\u2581\u0625\u0644\u0627": 773, "\u2581genug": 774, "\u2581machst": 775, "\u2581\u062d\u064a\u0646": 776, "\u2581Sache": 777, "\u2581\u0628\u0645": 778, "\u2581Wei\u00dft": 779, "\u2581da\u00df": 780, "\u2581Grund": 781, "\u2581hei\u00dft": 782, "\u2581\u0628\u0633\u0628\u0628": 783, "\u2581Schei\u00dfe": 784, "\u2581\u0628\u0627\u0644\u0646\u0633\u0628\u0629": 785, "\u2581\u0647\u0627": 786, "k": 787, "\u2581gefunden": 788, "\u2581gab": 789, "\u2581Moment": 790, "\u2581\u0645\u0646\u0647\u0627": 791, "\u2581\u0625\u0644\u064a": 792, "\u2581\u0644\u0623": 793, "\u2581\u0623\u0646\u0646\u0627": 794, "ge": 795, "\u2581\u0627\u0644\u062a": 796, "\u2581\u0646\u0641\u0633": 797, "\u062d\u0633\u0646\u0627": 798, "\u2581Jahr": 799, "\u0627\u0631": 800, "\u258120": 801, "\u2581denen": 802, "\u0640(": 803, "\u2581bevor": 804, "\u2581nun": 805, "\u2581darauf": 806, "\u2581Ok": 807, "\u2581h\u00f6ren": 808, "\u2581nehmen": 809, "\u2581\u0640\u0640": 810, "\u2581\u0627\u0644\u0645\u0627\u0644": 811, "\u2581\u0623\u0645\u064a": 812, "\u2581Art": 813, "\u2581An": 814, "\u2581brauche": 815, "\u2581\u062a\u0642\u0648\u0644": 816, "\u2581\u0627\u0644\u0643\u062a\u0627\u0628": 817, "\u2581Namen": 818, "\u2581w\u00fcrden": 819, "\u2581seinem": 820, "\u2581\u0644\u0643\u0645": 821, "\u2581\u0643\u0646\u0627": 822, "\u2581Bruder": 823, "\u25815": 824, "\u2581\u062d\u0642": 825, "\u2581beim": 826, "\u2581A": 827, "\u2581\u0645\u062a\u0649": 828, "\u0646\u0639\u0645": 829, "\u2581B": 830, "\u2581\u0645\u062c\u0631\u062f": 831, "\u2581\u0627\u0644\u0623\u0645\u0648\u0631": 832, "\u2581\u0641\u0643\u0631\u0629": 833, "\u2581Bist": 834, "\u2581\u0623\u0641\u0639\u0644": 835, "\u2581\u0644\u0647\u0645": 836, "\u2581beide": 837, "\u2581\u0623\u062d\u0628": 838, "\u2581\u0648\u0623\u0646\u062a": 839, "\u2581liebe": 840, "\u0623\u062c\u0644": 841, "\u2581\u0627\u0644\u0630\u0647\u0627\u0628": 842, "\u2581k\u00f6nnten": 843, "\u2581Ende": 844, "\u2581habt": 845, "\u2581schnell": 846, "\u2581Kind": 847, "\u2581erst": 848, "\u2581\u0627\u0644\u0645\u0646\u0632\u0644": 849, "\u0633\u064a": 850, "\u2581\u0623\u0643\u0648\u0646": 851, "\u2581Dr": 852, "\u2581\u2013": 853, "\u2581\u0623\u0631\u062f\u062a": 854, "\u2581wusste": 855, "\u2581\u0628\u062d\u0642": 856, "\u2581ge": 857, "\u2581\u0631": 858, "\u2581Ach": 859, "den": 860, "\u2581\u0627\u0644\u0637\u0631\u064a\u0642": 861, "\u2581bekommen": 862, "\u2581Hat": 863, "\u2581\u0627\u0644\u0634\u064a\u0621": 864, "\u2581halten": 865, "\u2581Land": 866, "\u2581\u0633\u062a\u0643\u0648\u0646": 867, "\u2581\u0623\u0639\u0646\u064a": 868, "\u2581\u0627\u0646\u0643": 869, "\u2581\u0645\u0645\u0627": 870, "\u2581deiner": 871, "\u2581\u064a\u0647\u0648\u0647": 872, "\u2581gute": 873, "\u2581\u0631\u0623\u064a\u062a": 874, "\u064a\u0631": 875, "\u2581\u0648\u0625\u0630": 876, "\u2581\u0627\u064a\u0636\u0627": 877, "\u2581\u0633\u0646\u0629": 878, "\u2581sprechen": 879, "\u2581\u0646\u062d\u0648": 880, "\u2581deinem": 881, "\u2581\u062a\u0633\u062a\u0637\u064a\u0639": 882, "\u2581Morgen": 883, "\u25814": 884, "\u2581\u0645\u0639\u0647": 885, "\u2581\u0627\u0644\u0639\u0627\u0645\u0629": 886, "\u2581Um": 887, "\u2581\u0644\u0643\u064a": 888, "\u2581Augen": 889, "\u2581\u0648\u0627\u0644\u0645": 890, "\u2581allein": 891, "\u2581Mach": 892, "\u2581\u0628\u0627\u0644\u062a\u0623\u0643\u064a\u062f": 893, "\u2581wahr": 894, "\u2581M\u00e4nner": 895, "\u2581\u062c\u064a\u062f\u0629": 896, "\u0623\u0646\u062a": 897, "\u2581Kopf": 898, "\u258115": 899, "\u2581Frauen": 900, "\u2581\u062a\u0643\u0646": 901, "\u0644\u064a": 902, "T": 903, "\u2581Dad": 904, "\u0648\u0631": 905, "\u063a": 906, "\u2581\u0644\u0645\u0627": 907, "\u2581Frage": 908, "\u2581Sag": 909, "\u2581\u0643\u0628\u064a\u0631": 910, "\u2581jeden": 911, "\u2581\u0630\u0627\u062a": 912, "\u2581\u062c\u062f\u064a\u062f": 913, "\u2581t\u00f6ten": 914, "\u2581\u062c\u064a\u062f\u0627": 915, "\u2581\u0648\u0645\u0627": 916, "\u2581K": 917, "be": 918, "\u2581all": 919, "\u2581Sind": 920, "\u2581\u0646\u0641\u0633\u0643": 921, "\u2581sowie": 922, "\u2581Gottes": 923, "\u2581\u0627\u0644\u0644\u0639\u0646\u0629": 924, "\u2581Wasser": 925, "\u2581\u064a\u0642\u0648\u0644": 926, "f": 927, "\u2581\u062c\u0645\u064a\u0639\u0627": 928, "\u2581seid": 929, "\u2581\u0644\u0644\u0645": 930, "\u2581\u0628\u0627\u0644\u0641\u0639\u0644": 931, "\u2581weit": 932, "\u2581\u0634": 933, "\u2581\u0628\u062d\u0627\u062c\u0629": 934, "\u2581\u0627\u0644\u062f\u0648\u0644": 935, "\u2581\u0627\u0644\u0648\u062d\u064a\u062f": 936, "\u2581denken": 937, "\u0627\u062f": 938, "\u2581\u0627\u0644\u0633": 939, "\u2581Recht": 940, "\u2581\u0643\u0627\u0646\u0648\u0627": 941, "\u2581\u0627\u0644\u0633\u064a\u062f": 942, "\u2581\u0627\u0646\u0638\u0631": 943, "\u2581Nat\u00fcrlich": 944, "\u2581Aus": 945, "\u2581Auto": 946, "\u2581\u0623\u0642\u0648\u0644": 947, "\u2581neue": 948, "\u2581*": 949, "\u2581Entwicklung": 950, "\u0648\u0647": 951, "\u2581\u0648\u0623\u0646": 952, "\u2581\u0627\u0644\u0648\u0627\u0642\u0639": 953, "\u2581\u062b\u0627\u0646\u064a\u0629": 954, "\u2581Baby": 955, "\u2581\u0628\u062f\u0648\u0646": 956, "\u2581\u0623\u0646\u064a": 957, "\u2581Liebe": 958, "\u2581\u0642\u062a\u0644": 959, "\u2581\u0648\u0644\u0645": 960, "\u062a\u064a\u0646": 961, "\u2581Mir": 962, "\u2581\u0623\u0631\u062c\u0648\u0643": 963, "\u0627\u0647": 964, "\u2581fertig": 965, "\u2581mag": 966, "\u2581\u0627\u0644\u0646\u0627\u0631": 967, "\u0648\u0633": 968, "\u2581\u0627\u0644\u0623\u0634\u064a\u0627\u0621": 969, "\u2581allen": 970, "\u2581sp\u00e4ter": 971, "\u2581Junge": 972, "\u2581\u062f\u0648\u0644\u0627\u0631": 973, "\u2581\u062a\u0628\u062f\u0648": 974, "\u2581\u0633\u0646\u0648\u0627\u062a": 975, "\u2581Vor": 976, "\u2581sage": 977, "\u2581\u0627\u0644\u062c\u062d\u064a\u0645": 978, "em": 979, "\u2581letzten": 980, "\u2581Freunde": 981, "\u2581\u0628\u0623\u0633": 982, "\u2581\u0627\u0644\u0623\u0646": 983, "\u2581ging": 984, "\u2581komm": 985, "\u2581Wahrheit": 986, "\u2581\u0627\u0644\u0645\u0642\u062f\u0633": 987, "\u2581\u062f": 988, "\u0648\u0644": 989, "\u2581recht": 990, "\u2581\u0645\u0634\u0643\u0644\u0629": 991, "\u2581bereit": 992, "\"\u061f": 993, "\u2581\u064a\u0639\u0631\u0641": 994, "\u2581gern": 995, "\u201c.": 996, "\u2581Hand": 997, "\u064a\u0627\u062a": 998, "\u2581\u0628\u0647\u0630\u0647": 999, "\u2581sehe": 1000, "\u2581\u062d\u0635\u0644\u062a": 1001, "\u2581\u064a\u0631\u064a\u062f": 1002, "\u2581jeder": 1003, "\u2581Kann": 1004, "\u2581\u0644\u0627\u0628\u062f": 1005, "\u2581leben": 1006, "\u2581Ver": 1007, "\u2581\u0646\u0648\u0639": 1008, "\u2581\u0628\u0646\u0627": 1009, "\u2581\u0645\u0639\u0627": 1010, "\u2581\u0628\u0643\u0644": 1011, "\u2581Teil": 1012, "\u2581\u0623\u0634\u0639\u0631": 1013, "\u2581\u0633\u0645\u0639\u062a": 1014, "\u2581sondern": 1015, "i": 1016, "\u2581bedeutet": 1017, "\u2581sterben": 1018, "\u2581Bei": 1019, "\u2581mache": 1020, "\u2581morgen": 1021, "\u2581Macht": 1022, "\u2581\u0623\u0631\u0649": 1023, "\u2581Wort": 1024, "\u2581\u062a\u0648\u0642\u0641": 1025, "\u2581hinter": 1026, "\u2581Tod": 1027, "\u2581stehen": 1028, "\u2581sofort": 1029, "\u0625": 1030, "]": 1031, "\u2581\u0625\u0644\u064a\u0647": 1032, "\u2581sogar": 1033, "\u2581Mom": 1034, "ten": 1035, "\u2581Nach": 1036, "\u2581Minuten": 1037, "\u2581Willst": 1038, "\u2581\u062a\u0639\u062a\u0642\u062f": 1039, "\u25816": 1040, "\u2581\u0625\u0646\u0647\u0645": 1041, "\u2581Dank": 1042, "\u2581Genau": 1043, "\u2581\u0661": 1044, "\u2581\u0643\u0628\u064a\u0631\u0629": 1045, "u": 1046, "\u2581w\u00e4hrend": 1047, "\u2581{\\": 1048, "\u2581\u0627\u0644\u062e\u0627\u0635": 1049, "\u2581\u0633\u0628\u0628": 1050, "\u2581\u0637\u0631\u064a\u0642": 1051, "\u2581\u0627\u0644\u0623\u0631\u0636": 1052, "\u2581\u062c\u064a": 1053, "\u2581\u0641\u0636\u0644\u0643": 1054, "\u2581\u0644\u0623\u0646\u0647": 1055, "\u2581ganzen": 1056, "\u2581Ort": 1057, "\u2581\u0642\u0645\u062a": 1058, "\u2581\u0641\u064a\u0645\u0627": 1059, "\u2581Bibel": 1060, "\u2581Teufel": 1061, "\u2581\u0627\u0644\u0634\u062e\u0635": 1062, "\u2581ersten": 1063, "\u2581vorbei": 1064, "\u2581etwa": 1065, "\u2581h\u00e4tten": 1066, "\u2581Nichts": 1067, "pos": 1068, "\u2581Ahnung": 1069, "\u2581Jesus": 1070, "\u2581\u062e\u0627\u0631\u062c": 1071, "an": 1072, "\u2581Zu": 1073, "\u2581\u0627\u0644\u0631\u062c\u0627\u0644": 1074, "\u2581wichtig": 1075, "\u2581verstehe": 1076, "\u2581Polizei": 1077, "\u2581\u0646\u0641\u0633\u0647": 1078, "\u2581Blut": 1079, "\u2581kennen": 1080, "\"\u060c": 1081, "\u2581Geschichte": 1082, "B": 1083, "\u2581\u064a\u062a\u0645": 1084, "\u2581\u0627\u0644\u0634\u0631\u0637\u0629": 1085, "\u2581warst": 1086, "\u2581stimmt": 1087, "\u2581\u0644\u064a\u0644\u0629": 1088, "\u2581sonst": 1089, "\u2581gehe": 1090, "\u2581\u062c": 1091, "\u258130": 1092, "\u2581unserer": 1093, "\u2581\u0648\u0627\u0644\u0622\u0646": 1094, "\u2581Warte": 1095, "\u2581\u062e": 1096, "\u2581a": 1097, "\u2581\u0637\u0648\u0627\u0644": 1098, "\u0625\u0646": 1099, "\u2581\u0627\u0644\u0633\u0628\u0628": 1100, "\u2581\u061b": 1101, "\u2581Uhr": 1102, "\u2581Sicherheit": 1103, "\u2581O": 1104, "\u2581Alle": 1105, "\u0627\u0644\u0645": 1106, "\u2581sah": 1107, "\u2581\u064a\u0646\u0628\u063a\u064a": 1108, "\u2581\u0622\u0633\u0641\u0629": 1109, "\u258112": 1110, "\u2581Geh": 1111, "\u2581ziemlich": 1112, "\u2581drau\u00dfen": 1113, "\u2581Gl\u00fcck": 1114, "\u2581ihrem": 1115, "\u2581\u062a\u0639\u0645\u0644": 1116, "\u2581\u0623\u0630\u0647\u0628": 1117, "\u2581\u062b\u0644\u0627\u062b\u0629": 1118, "\u2581\u0628\u0623\u0646\u0647": 1119, "\u2581hoch": 1120, "\u2581Von": 1121, "\u2581\u0634\u064a\u0626": 1122, "\u2581komme": 1123, ")!": 1124, "E": 1125, "\u2581warten": 1126, "\u2581\u0625\u0644\u064a\u0643": 1127, "\u2581gro\u00dfe": 1128, "\u2581Kerl": 1129, "\u2581\u0645\u0646\u0647\u0645": 1130, "\u2581letzte": 1131, "\u2581Name": 1132, "\u2581\u0627\u0644\u0628\u0627\u0628": 1133, "\u2581\u0627\u0644\u0646": 1134, "\u2581\u0628\u0623\u0646\u0643": 1135, "\u2581Job": 1136, "\u2581\u0641\u0639\u0644\u0647": 1137, "\u2581\u0623\u0646\u0647\u0645": 1138, "\u2581versucht": 1139, "F": 1140, "P": 1141, "\u2581liegt": 1142, "z": 1143, "\u2581Be": 1144, "\u0638": 1145, "\u2581jemanden": 1146, "\u2581arbeiten": 1147, "\u2581gewesen": 1148, "\u2581Wirklich": 1149, "\u2581vergessen": 1150, "\u2581\u0645\u062c\u062f\u062f\u0627": 1151, "\u2581wenig": 1152, "\u2581\u0627\u0644\u0630\u0649": 1153, "\u2581\u0645\u0647\u0644\u0627": 1154, "\u2581Ab": 1155, "\u2581\u0644\u062f\u0649": 1156, "\u2581Erde": 1157, "der": 1158, "\u2581\u0623\u0643\u0646": 1159, "\u2581T\u00fcr": 1160, "\u2581Hi": 1161, "\u2581\u0627\u062d\u062f": 1162, "\u2581verloren": 1163, "\u2581\u0627\u0639\u062a\u0642\u062f": 1164, "\u0627\u0628": 1165, "\u2581\u064a\u0639\u0645\u0644": 1166, "\u2581\u0627\u0644\u0645\u0632\u064a\u062f": 1167, "I": 1168, "\u2581lang": 1169, "\u2581\u062a\u0639\u0627\u0644": 1170, "\u2581\u0627\u0644\u0645\u062f\u064a\u0646\u0629": 1171, "\u2581\u0627\u0644\u062e\u0627\u0635\u0629": 1172, "\u2581Jungs": 1173, "\u062f\u0627": 1174, "\u2581\u0647\u0646\u0627\u0644\u0643": 1175, "\u2581drin": 1176, "\u2581bereits": 1177, "\u064a\u062f": 1178, "\u2581solltest": 1179, "\u2581fast": 1180, "\u2581runter": 1181, "\u0631\u062a": 1182, "\u2581\u0648\u0647\u064a": 1183, "ig": 1184, "\u2581Herr": 1185, "\u2581je": 1186, "\u2581\u0639\u0632\u064a\u0632\u062a\u064a": 1187, "\u2581dran": 1188, "\u0628\u0644": 1189, "\u2581Fragen": 1190, "\u0647\u0645\u0627": 1191, "ste": 1192, "Ich": 1193, "\u2581braucht": 1194, "\u2581Den": 1195, "\u2581Herz": 1196, "\u2581l\u00e4sst": 1197, "\u2581\u0637\u0631\u064a\u0642\u0629": 1198, "\u2581\u062d\u064a\u0627\u062a\u064a": 1199, "\u2581Euch": 1200, "\u2581War": 1201, "\u2581get\u00f6tet": 1202, "\u2581\u0627\u0644\u062d\u0635\u0648\u0644": 1203, "\u2581danke": 1204, "\u2581Eltern": 1205, "\u2581bald": 1206, "\u2581Idee": 1207, "\u0627\u0626": 1208, "sten": 1209, "\u2581schwer": 1210, "\u2581\u0627\u0644\u0623\u0645\u0646": 1211, "h": 1212, "\u062a\u0647\u0645": 1213, "\u2581musste": 1214, "\u2581echt": 1215, "\u2581\u0627\u0644\u0642\u064a\u0627\u0645": 1216, "\u2581\u062a\u0630\u0647\u0628": 1217, "\u2581\u0623\u0642\u0644": 1218, "\u2581Tochter": 1219, "\u2581kenne": 1220, "\u2581\u0623\u0648\u0644": 1221, "\u2581Schwester": 1222, "\u2581\u00fcberhaupt": 1223, "\u2581erz\u00e4hlt": 1224, "\u2581Dollar": 1225, "g": 1226, "\u2581Ihren": 1227, "\u2581bisschen": 1228, "\u2581fragen": 1229, "\u2581\u062a\u0628\u0627": 1230, "\u0646\u062a": 1231, "\u2581Stunden": 1232, "\u2581T": 1233, "\u2581einige": 1234, "\u2581ok": 1235, "\u2581egal": 1236, "\u2581\u0628\u0627\u0644\u0645": 1237, "\u2581Wissen": 1238, "\u2581kurz": 1239, "\u0627\u0639": 1240, "\u2581\u0645\u0631": 1241, "\u2581\u0645\u062a": 1242, "\u2581suchen": 1243, "\u2581\u0627\u0644\u0623": 1244, "\u2581\u062c\u062f": 1245, "\u2581\u0648\u062c\u062f\u062a": 1246, "\u2581\u0643\u064a": 1247, "\u0644\u062a": 1248, "\u2581\u062a\u0631\u064a\u062f\u064a\u0646": 1249, "\u2581\u0648\u0636\u0639": 1250, "\u2581Leid": 1251, "\u2581\u0648\u0643\u0627\u0646": 1252, "\u2581fest": 1253, "\u2581\u0623\u062d\u062a\u0627\u062c": 1254, "ver": 1255, "\u2581Kein": 1256, "\u2581Spiel": 1257, "\u0627\u0633": 1258, "c": 1259, "\u2581\u0644\u0644\u062a\u0648": 1260, "\u0628\u064a": 1261, "\u2581\u0628\u062f": 1262, "\u2581kleine": 1263, "\u2581\u0627\u0644\u0645\u0648\u062a": 1264, "\u0643\u0644\u0627": 1265, "\u2581neuen": 1266, "\u2581\u062d\u0627\u0644\u0629": 1267, "\u2581eigentlich": 1268, "\u2581\u062c\u062f\u064a\u062f\u0629": 1269, "\u2581gekommen": 1270, "\u2581\u0627\u0644\u0637\u0631\u064a\u0642\u0629": 1271, "\u2581\u0627\u0644\u0648\u0644\u0627\u064a\u0627\u062a": 1272, "\u2581\u062a\u0642\u0648\u0645": 1273, "\u062f\u0629": 1274, "\u258119": 1275, "\u2581\u0627\u0646\u062a\u0638\u0631": 1276, "\u2581Jehovas": 1277, "\u2581erste": 1278, "\u0631\u064a\u062f": 1279, "\u2581verr\u00fcckt": 1280, "\u2581\u0627\u0644\u0633\u0644\u0627\u0645": 1281, "\u2581\u0639\u062f\u062f": 1282, "\u2581\u0639\u0646\u0643": 1283, "\u2581Schon": 1284, "\u2581treffen": 1285, "\u064a\u0644": 1286, "\u2581\u0623\u0648\u062f": 1287, "\u2581beiden": 1288, "\u2581Noch": 1289, "\u2581\u0639\u0634\u0631": 1290, "\u0631\u0629": 1291, "\u2581Geht": 1292, "\u2581\u0627\u0643\u062b\u0631": 1293, "\u2581\u0646\u0641\u0633\u064a": 1294, "\u2581unseren": 1295, "\u2581sp\u00e4t": 1296, "\u0644\u064a\u0633": 1297, "\u2581verstehen": 1298, "\u0643\u0644": 1299, "\u2581darf": 1300, "\u2581Dieser": 1301, "\u2581Bis": 1302, "\u2581f\u00fcnf": 1303, "),": 1304, "\u2581zeigen": 1305, "\u2581nat\u00fcrlich": 1306, "\u2581\u0641\u062a\u0627\u0629": 1307, "\u2581\u0639\u0628\u0631": 1308, "\u2581\u0627\u0644\u0623\u0641\u0636\u0644": 1309, "le": 1310, "\u2581\u0627\u0644\u0645\u0624\u0631\u062e": 1311, "\u2581\u0627\u0644\u064a": 1312, "\u2581mach": 1313, "\u2581Staaten": 1314, "\u2581\u0627\u0644\u0627\u0645\u0631": 1315, "\u2581\u0642\u0627\u0645": 1316, "C": 1317, "\u2581\u0627\u0644\u0633\u064a\u0627\u0631\u0629": 1318, "\u2581anders": 1319, "\u2581\u201c": 1320, "\u2581Tage": 1321, "\u2581\u0636\u062f": 1322, "D": 1323, "\u2581\u0631\u062c\u0627\u0621": 1324, "\u2581Dein": 1325, "\u2581Deine": 1326, "\u2581oben": 1327, "\u2581\u0646\u0647\u0627\u064a\u0629": 1328, "\u2581\u0627\u0644\u062f\u0648\u0644\u064a": 1329, "\u2581lieber": 1330, "sch": 1331, "\u2581Sieh": 1332, "\u2581\u0644\u0643\u0646\u0647": 1333, "\u2581\u0628\u0633\u0631\u0639\u0629": 1334, "\u2581versuchen": 1335, "\u2581\u0627\u0644\u0631\u0626\u064a\u0633": 1336, "\u2581\u0631\u0642\u0645": 1337, "\u2581\u0623\u0644\u0645": 1338, "\u2581Halt": 1339, "\u062a\u0627\u0646": 1340, "\u2581einzige": 1341, "\u2581\u0646\u0630\u0647\u0628": 1342, "\u2581essen": 1343, "\u2581Woche": 1344, "\u2581Denn": 1345, "\u2581\u0645\u0627\u0644\u0630\u064a": 1346, "\u2581\u062c\u0645\u064a\u0644": 1347, "\u2581\u0627\u0646\u0647\u0645": 1348, "\u2581niemand": 1349, "\u2581vier": 1350, "\u2581\u0627\u0644\u0623\u0637\u0641\u0627\u0644": 1351, "\u25818": 1352, "\u2581\u062f\u0642\u064a\u0642\u0629": 1353, "\u2581E": 1354, "\u2581Chance": 1355, "\u2581\u0627\u0630\u0647\u0628": 1356, "\u2581\u0643\u0627\u0644": 1357, "\u0648\u0646\u064a": 1358, "\u2581darum": 1359, "\u2581gerne": 1360, "\u25817": 1361, "\u2581\u0628\u062f\u0623\u062a": 1362, "\u2581verlassen": 1363, "\u2581m\u00f6glich": 1364, "\u2581Gib": 1365, "\u2581fahren": 1366, "\u2581\u062a\u0639\u0631\u0641\u064a\u0646": 1367, "\u0644\u0648": 1368, "\u0626": 1369, "\u2581Buch": 1370, "\u0633\u062a": 1371, "\u2581Resolution": 1372, "\u2581oft": 1373, "\u2581\u0648\u0628": 1374, "\u2581Ganz": 1375, "\u0631\u0641": 1376, "\u2581\u0627\u0631\u064a\u062f": 1377, "\u2581\u0623\u0646\u062a\u0645": 1378, "\u062c\u0648": 1379, "\u2581allem": 1380, "\u2581meinst": 1381, "re": 1382, "K": 1383, "\u2581\u0645\u062c\u0644\u0633": 1384, "\u2581\u062c\u0645\u064a\u0644\u0629": 1385, "\u2581Gute": 1386, "\u2581\u0627\u0644\u062d\u0642": 1387, "\u2581\u0627\u062c\u0644": 1388, "\u2581\u062a\u0631\u0649": 1389, "\u2581frei": 1390, "\u2581\u0633\u0627\u0639\u0629": 1391, "\u2581Essen": 1392, "\u0623\u0646": 1393, "\u2581\u062d\u064a\u0627\u0629": 1394, "\u2581\u0627\u0644\u0623\u0642\u0644": 1395, "\u2581\u0641\u0639\u0644\u0627": 1396, "\u2581\u0627\u0644\u062a\u062d\u062f\u062b": 1397, "\u0648\u064a": 1398, "\u2581\u0623\u0648\u0644\u0627": 1399, "\u2581\u0627\u0644\u0645\u0633\u0627\u0639\u062f\u0629": 1400, "\u2581\u0627\u0639\u0631\u0641": 1401, "\u2581He": 1402, "\u2581K\u00f6nig": 1403, "\u2581\u0627\u0644\u0631\u0628": 1404, "\u2581Bild": 1405, "\u2581lass": 1406, "\u064a\u0646\u064a": 1407, "\u2581\u0627\u0644\u0623\u0648\u0644\u0649": 1408, "\u2581l\u00e4uft": 1409, "\u2581\u0627\u0644\u062d\u0631\u0628": 1410, "\u2581Generalsekret\u00e4r": 1411, "\u2581\u0627\u0644\u0645\u0627\u0636\u064a": 1412, "\u2581P": 1413, "\u2581\u0628\u064a\u0646\u0645\u0627": 1414, "\u2581\u064a\u0633\u062a\u0637\u064a\u0639": 1415, "\u2581\u0625\u0630": 1416, "\u2581\u0648\u0644\u064a\u0633": 1417, "\u2581D": 1418, "\u2581\u0639\u0638\u064a\u0645": 1419, "chen": 1420, "\u2581\u064a\u0641\u0639\u0644": 1421, "\u2581hoffe": 1422, "\u0643\u0627\u0646": 1423, "\u2581\u063a\u0631\u0641\u0629": 1424, "\",": 1425, "\u2581Mensch": 1426, "\u2581\u062d\u062f": 1427, "\u2581un": 1428, "\u2581\u0644\u062f\u064a\u0647\u0627": 1429, "\u2581anderes": 1430, "\u2581\u0639\u0644\u064a\u0647\u0645": 1431, "\u2581gro\u00dfen": 1432, "\u2581\u062f\u0627\u062e\u0644": 1433, "\u2581]": 1434, "\u2039": 1435, "\u2581\u203a": 1436, "\u2581Ihrer": 1437, "\u2581\u0627\u0644\u0639\u062f\u064a\u062f": 1438, "\u2581Regierung": 1439, "\u2581\u0631\u0627\u0626\u0639\u0629": 1440, "\u2581\u0644\u0623\u0646\u0646\u064a": 1441, "ieren": 1442, "\u2581\u0628\u0627\u0644\u0636\u0628\u0637": 1443, "\u2581siehst": 1444, "\u2581\u0627\u0644\u062e\u064a\u0631": 1445, "\u2581kleinen": 1446, "\u2581\u0628\u0639\u064a\u062f\u0627": 1447, "\u2581eigenen": 1448, "\u2581toll": 1449, "\u2581\u0644\u062d\u0638\u0629": 1450, "\u2581w\u00e4ren": 1451, "\u2581Fehler": 1452, "\u2581gegeben": 1453, "\u2581wollten": 1454, "\u2581\u0627\u0644\u062b\u0627\u0646\u064a": 1455, "\u2581G": 1456, "\u2581\u0627\u0644\u0628\u0644\u062f\u0627\u0646": 1457, "\u0628\u0631": 1458, "\u2581\u0635\u063a\u064a\u0631\u0629": 1459, "\u2581spielen": 1460, "\u2581K\u00f6nnen": 1461, "\u2581\u0633\u0639\u064a\u062f": 1462, "\u258118": 1463, "\u2581\u062a\u062a\u062d\u062f\u062b": 1464, "\u2581\u0623\u0646\u0638\u0631": 1465, "\u2581\u0644\u0643\u0646\u0646\u064a": 1466, "\u2581Freundin": 1467, "\u2581Typ": 1468, "\u0643\u0645\u0627": 1469, "\u2581\u0644\u0623\u0646\u0643": 1470, "L": 1471, "\u2581\u0623\u0643\u0628\u0631": 1472, "\u2581Spa\u00df": 1473, "\u2581\u0631\u0626\u064a\u0633": 1474, "\u2581\u0639\u062f\u0645": 1475, "\u2581sag": 1476, "al": 1477, "\u2581Kommen": 1478, "\u2581\u0630\u0647\u0628\u062a": 1479, "\u2581\u0646\u0633\u062a\u0637\u064a\u0639": 1480, "b": 1481, "\u2581\u0635": 1482, "\u2581\u0627\u0633\u062a\u0637\u064a\u0639": 1483, "\u2581\u064a\u0633\u0648\u0639": 1484, "\u2581Schatz": 1485, "\u2581stellen": 1486, "\u2581\u064a\u0639\u0644\u0645": 1487, "\u2581Plan": 1488, "\u0624": 1489, "\u0645\u0631\u062d\u0628\u0627": 1490, "\u0648\u062f": 1491, "\u2581\u0641\u0631\u0635\u0629": 1492, "\u25811.": 1493, "\u2581Ziel": 1494, "\u2581\u063a\u062f\u0627": 1495, "nen": 1496, "\u2581\u0639\u0645\u0644\u064a\u0629": 1497, "\u0643\u064a\u0641": 1498, "\u2581\u0627\u0644\u0623\u0645\u064a\u0646": 1499, "\u2581\u064a\u0643\u0641\u064a": 1500, "\u2581\u062a\u0642\u0631\u064a\u0628\u0627": 1501, "\u2581\u00dcber": 1502, "\u2581\u0631\u062c\u0627\u0644": 1503, "\u2581bringt": 1504, "M": 1505, "\u2581\u0644\u0627\u062d\u0642\u0627": 1506, "\u2581nehme": 1507, "\u2581\u0639\u0646\u0647\u0627": 1508, "\u2581ruhig": 1509, "\u2581heraus": 1510, "\u2581\u0662": 1511, "\u2581Gehen": 1512, "\u2581Schule": 1513, "H": 1514, "\u2581Gesicht": 1515, "\u2581\u0639\u0644\u0627\u0642\u0629": 1516, "\u2581John": 1517, "\u062c\u0648\u0646": 1518, "\u2581voll": 1519, "\u0625\u0646\u0647": 1520, "\u2581aller": 1521, "\u2581Beispiel": 1522, "\u2581\u0638\u0646\u0646\u062a": 1523, "\u2581Schuld": 1524, "\u2581M": 1525, "\u2581\u0631\u0628": 1526, "\u2581Am": 1527, "\u2581\u0628\u0644\u0627": 1528, "neralversammlung": 1529, "\u2581Guten": 1530, "\u2581\u0645\u0627\u062a": 1531, "\u2581\u0627\u0644\u0639": 1532, "\u2581retten": 1533, "\u2581Ruhe": 1534, "2": 1535, "l": 1536, "\u2581Zimmer": 1537, "\u2581\u0627\u0644\u0625\u0646\u0633\u0627\u0646": 1538, "\u2581\u0627\u0644\u0628\u0639\u0636": 1539, "\u0648\u0643": 1540, "\u0644\u0646": 1541, "\u2581Sehr": 1542, "\u2581\u0648\u062c\u0648\u062f": 1543, "\u2581\u062a\u0639\u0644\u0645\u064a\u0646": 1544, "\u2581Waffe": 1545, "\u2581\u0627\u0644\u0641\u062a\u0627\u0629": 1546, "\u2581\u062a\u062d\u062a\u0627\u062c": 1547, "\u2581\u0627\u0644\u0645\u0631\u0629": 1548, "\u2581Schei\u00df": 1549, "\u2581\u0646\u0639\u0631\u0641": 1550, "\u2581\u0623\u062d\u0627\u0648\u0644": 1551, "\u2581\u0627\u0644\u062f\u0648\u0644\u064a\u0629": 1552, "\u2581Einen": 1553, "\u2581\u0628\u0623\u064a": 1554, "\u2581\u0644\u062f\u064a\u0647\u0645": 1555, "\u2581Sorgen": 1556, "\u064a\u0633": 1557, "\u2581bestimmt": 1558, "\u2581\u062a\u0623\u062a\u064a": 1559, "\u2581I": 1560, "et": 1561, "\u2581Auch": 1562, "\u2581zwar": 1563, "\u2581Woher": 1564, "\u2581Niemand": 1565, "\u2581Jack": 1566, "\u2581\u0643\u0644\u0645\u0629": 1567, "\u2581Waffen": 1568, "\u2581Krieg": 1569, "\u2581welche": 1570, "%": 1571, "\u2581Verdammt": 1572, "\u2581Bericht": 1573, "\u0627\u062d": 1574, "\u0627\u0626\u064a": 1575, "\u2581finde": 1576, "\u2581Sachen": 1577, "us": 1578, "\u2581\u0631\u0641\u0627\u0642": 1579, "\u2581\u0645\u062a\u0623\u0643\u062f": 1580, "iert": 1581, "200": 1582, "\u2581Bett": 1583, "\u2581\u0623\u0631\u064a\u062f\u0643": 1584, "\u2581Feuer": 1585, "\u0648\u0639": 1586, "\u2581niemals": 1587, "\u2581C": 1588, "\u2581Ding": 1589, "\u2581New": 1590, "\u2581\u064a\u062c\u0631\u064a": 1591, "\u2581\u0644\u0643\u0646\u064a": 1592, "\u2581Arsch": 1593, "\u0645\u0627\u0646": 1594, "\u2581Kommt": 1595, "\u2581Sei": 1596, "\u2581\u0627\u0644\u0635\u0628\u0627\u062d": 1597, "\u2581unten": 1598, "\u2581Dass": 1599, "\u2581gl\u00fccklich": 1600, "\u2581Zwei": 1601, "lich": 1602, "\u2581Frieden": 1603, "\u2581\u062f\u0639\u0646\u064a": 1604, "\u2581Millionen": 1605, "\u2581\u062f\u0639\u0646\u0627": 1606, "\u2581\u0633\u0623\u0643\u0648\u0646": 1607, "\u2581\u0623\u0641\u0647\u0645": 1608, "am": 1609, "\u2581sagst": 1610, "\u2581\u0627\u0644\u062d\u0627\u0644": 1611, "\u2581erz\u00e4hlen": 1612, "\u2581\u0627\u0644\u0634": 1613, "\u2581\u0627\u0644\u062c\u0645\u0639\u064a\u0629": 1614, "\u2581\u0645\u0639\u0647\u0627": 1615, "\u2581Ma": 1616, "\u2581Probleme": 1617, "\u0644\u0643\u0646": 1618, "\u2581geh": 1619, "\u2581\u064a\u0642\u0648\u0645": 1620, "\u2581\u0627\u0644\u0623\u062e\u0631\u0649": 1621, "\u2581\u0643\u0627\u0646\u0648\u0646": 1622, "\u2581\u0627\u0644\u062c\u062f\u064a\u062f": 1623, "\u2581Wahl": 1624, "\u2581\u0627\u0644\u0625": 1625, "\u2581\u0623\u0649": 1626, "\u2581\u0627\u064a\u0646": 1627, "\u2581eure": 1628, "\u0648\u062a": 1629, "\u2581eins": 1630, "\u2581\u0641\u0648\u0642": 1631, "\u2581Zukunft": 1632, "\u25819": 1633, "\u2581\u0641\u0644\u0627": 1634, "\u2581Miss": 1635, "\u2581\u0627\u0644\u0622\u062e\u0631": 1636, "\u2581\u063a\u0631\u064a\u0628": 1637, "\u2581bleibt": 1638, "\u2581worden": 1639, "\u2581B\u00fcro": 1640, "\u2581Menge": 1641, "\u2581\u0637\u0648\u064a\u0644\u0629": 1642, "\u2581meisten": 1643, "\u2581Selbst": 1644, "\u2581gedacht": 1645, "\u2581\u0648\u0627\u0644\u062f\u064a": 1646, "\u2581holen": 1647, "\u2581schaffen": 1648, "\u2581OK": 1649, "\u2581w\u00fcrdest": 1650, "\u062a\u0649": 1651, "zu": 1652, "\u2581\u0623\u062a": 1653, "\u2581Lassen": 1654, "ter": 1655, "\u2581drauf": 1656, "\u2581\u0648\u0643\u0644": 1657, "R": 1658, "\u258150": 1659, "\u2581n\u00e4chsten": 1660, "\u2581\u0637": 1661, "\u2581\u0623\u0635\u0628\u062d": 1662, "\u2581\u0646\u0635\u0641": 1663, "\u2581\u0645\u0639\u0631\u0641\u0629": 1664, "ern": 1665, "\u2581\u062d\u0627\u0644\u0643": 1666, "\u0627\u0643": 1667, "\u0627\u0642": 1668, "\u062f\u064a\u0646": 1669, "\u2581tust": 1670, "\u2581\u0631\u0623\u064a\u0643": 1671, "\u258113": 1672, "\u2581Himmel": 1673, "\u2581h\u00e4ttest": 1674, "\u2581\u0627\u0644\u0645\u0639\u0644\u0648\u0645\u0627\u062a": 1675, "\u2581Entschuldigung": 1676, "\u2581\u0645\u0639\u0646\u0627": 1677, "\u2581\u0643\u0646": 1678, "\u2581weniger": 1679, "\u2581blo\u00df": 1680, "\u2581\u0631\u0624\u064a\u0629": 1681, "\u2581falsch": 1682, "\u2581Hab": 1683, "\u2581\u0646\u0641\u0639\u0644": 1684, "\u2581\u0645\u0647\u0645\u0627": 1685, "man": 1686, "\u2581\u062e\u0637\u0623": 1687, "\u258114": 1688, "\u2581schlecht": 1689, "\u2581Dezember": 1690, "\u2581\u064a\u0631\u0627\u0645": 1691, "\u2581denkst": 1692, "\u2581\u0633\u064a\u0627\u0631\u0629": 1693, "\u2581\u0627\u0644\u0628\u064a\u062a": 1694, "\u2581guten": 1695, "\u2581\u0627\u0644\u062c\u0646\u0633": 1696, "\u2581verdammt": 1697, "\u2581\u0627\u0639\u0644\u0645": 1698, "\u2581\u0627\u0644\u0635\u063a\u064a\u0631\u0629": 1699, "\u2581\u0633\u0639\u064a\u062f\u0629": 1700, "\u2581jede": 1701, "\u2581Opfer": 1702, "\u2581Lebens": 1703, "\u2581alt": 1704, "\u2581Heute": 1705, "\u2581\u0639\u0631\u0641\u062a": 1706, "\u2581H\u00f6lle": 1707, "\u2581F": 1708, "\u2581guter": 1709, "\u2581\u0635\u062f\u064a\u0642\u064a": 1710, "\u2581scheint": 1711, "\u2581\u0627\u0644\u0644": 1712, "\u2581\u062f\u0642\u0627\u0626\u0642": 1713, "\u2581\u0646\u0638\u0627\u0645": 1714, "\u062c\u064a": 1715, "\u2581\u0641\u0644\u0646": 1716, "\u0623\u064a": 1717, "\u2581\u0623\u0635\u0628\u062d\u062a": 1718, "\u2581--": 1719, "\u2581\u0648\u0639\u0644\u0649": 1720, "\u0639\u0644\u0649": 1721, "\u0622": 1722, "\u2581Luft": 1723, "\u2581\u0663": 1724, "\u2581\u0644\u0649": 1725, "\u2581\u0642\u0631\u064a\u0628\u0627": 1726, "\u2581warte": 1727, "\u2581\u0639\u064a\u062f": 1728, "\u2581\u0627\u0644\u0631": 1729, "\u258116": 1730, "\u2581Wann": 1731, "\u2581\u0644\u0643\u0644": 1732, "\u2581\u0623\u064a\u0627\u0645": 1733, "\u2581\u0627\u0644\u0645\u062f\u0631\u0633\u0629": 1734, "\u2581Platz": 1735, "\u2581\u0627\u062e\u0631\u0649": 1736, "G": 1737, "\u2581\u0623\u0642\u0635\u062f": 1738, "\u2581\u0628\u062a": 1739, "\u2581\u0625\u0646\u0646\u064a": 1740, "\u2581\u0623\u062a\u0645\u0646\u0649": 1741, "\u2581Licht": 1742, "\u2581wahrscheinlich": 1743, "\u2581gestern": 1744, "\u2581\u062a\u0638\u0646": 1745, "\u2581\u0627\u0633\u062a": 1746, "\u2581Sch\u00f6n": 1747, "\u0634\u0643\u0631\u0627": 1748, "\u2581\u0641\u062a\u0631\u0629": 1749, "\u2581\u062c\u0632\u0621": 1750, "\u2581f\u00fchren": 1751, "\u0627\u0646\u0627": 1752, "\u2581\u062a\u0642\u0631\u064a\u0631": 1753, "\u2581Soll": 1754, "\u064a\u062a": 1755, "\u2581lernen": 1756, "\u2581\u0642\u0627\u0644\u062a": 1757, "\u2581\u0627\u0644\u0645\u0631\u0623\u0629": 1758, "\u2581kaum": 1759, "\u2581b": 1760, "\u2581\u0623\u062e\u0628\u0631\u0646\u064a": 1761, "\u2581\u0623\u062a\u0639\u0644\u0645": 1762, "\u0648\u0645": 1763, "\u2581\u062a\u0639\u0646\u064a": 1764, "\u2581\u0633\u0628\u064a\u0644": 1765, "\u2581Mrs": 1766, "\u2581\u0627\u0644\u062c\u062f\u064a\u062f\u0629": 1767, "\u2581\u0645\u0628\u0627\u0634\u0631\u0629": 1768, "\u2581Rolle": 1769, "\u2581\u0623\u0642\u0648\u0645": 1770, "\u2581sechs": 1771, "on": 1772, "\u062a\u0645": 1773, "\u2581\u0628\u0625": 1774, "\u2581K\u00f6rper": 1775, "\u2581vielen": 1776, "\u2581\u0623\u0641\u0643\u0631": 1777, "\u2581\u0647\u0649": 1778, "\u2581\u0645\u062c\u0645\u0648\u0639\u0629": 1779, "\u2581H\u00e4nde": 1780, "\u2581meines": 1781, "\u2581\u0627\u0644\u062a\u0649": 1782, "\u2581\u0646\u062d\u062a\u0627\u062c": 1783, "\u2581\u0648\u0627\u0644\u062a\u064a": 1784, "\u2581Sagen": 1785, "\u2581Wochen": 1786, "\u2581\u0625\u0646\u0643": 1787, "\u2581geworden": 1788, "\u2581\u0648\u0627\u0644\u062f\u0643": 1789, "\u2581Sinn": 1790, "\u2581\u0627\u0644\u0644\u064a\u0644": 1791, "\u2581Zeugen": 1792, "\u2581Ihrem": 1793, "\u0640\u0640\u0640": 1794, "\u0627\u0641": 1795, "\u0623\u0648": 1796, "\u2581\u0628\u0647\u0645": 1797, "\u2581).": 1798, "\u2581nett": 1799, "\u2581Kannst": 1800, "\u2581\u0627\u0644\u0633\u0627\u0639\u0629": 1801, "\u2581\u0627\u0644\u0646\u0638\u0631": 1802, "se": 1803, "\u2581\u0627\u0644\u0637\u0641\u0644": 1804, "\u2581Nimm": 1805, "\u2581Unterst\u00fctzung": 1806, "\u2581\u0627\u0633\u0645": 1807, "\u2581unserem": 1808, "\u2581\u0639\u0646\u064a": 1809, "\u2581gehst": 1810, "\u2581\u0627\u064a\u0647\u0627": 1811, "\u2581\u064a\u0623\u062a\u064a": 1812, "\u2581irgendwie": 1813, "\u2581\u062b\u0644\u0627\u062b": 1814, "\"?": 1815, "\u2581\u0627\u0644\u062d\u0628": 1816, "\u2581\u0634\u062e\u0635\u0627": 1817, "\u2581kommst": 1818, "\u2581\u0627\u0644\u0639\u0648\u062f\u0629": 1819, "\u2581\u0645\u0643\u062a\u0628": 1820, "\u2581Sehen": 1821, "\u2581\u0641\u0627\u0644": 1822, "\u2581\u0637\u0641\u0644": 1823, "\u2581\u062d\u0635\u0644": 1824, "\u258117": 1825, "\u2581Klar": 1826, "\u2581\u0625\u0644\u064a\u0647\u0627": 1827, "\u2581\u0632": 1828, "\u2581\u0623\u062e\u0630": 1829, "\u2581\u0627\u0644\u0637\u0639\u0627\u0645": 1830, "ing": 1831, "\u2581\u0634\u0649\u0621": 1832, "\u2581besten": 1833, "\u2581\u062d\u0642\u064a\u0642\u064a": 1834, "\u2581\u0627\u0644\u0635\u063a\u064a\u0631": 1835, "el": 1836, "\u2581\u0627\u0644\u0642\u0631\u0627\u0631": 1837, "\u2581Alter": 1838, "\u2581gegen\u00fcber": 1839, "\u2581Informationen": 1840, "\u0633\u0646": 1841, "\u2581\u0627\u0633\u0645\u0639": 1842, "\u2581endlich": 1843, "\u2581\u062a\u0646\u0641\u064a\u0630": 1844, "\u2581\u0648\u0625\u0646": 1845, "\u0642\u062f": 1846, "\u2581Glauben": 1847, "\u2581\u062a\u0641\u0639\u0644\u0647": 1848, "\u2581\u0627\u0644\u0633\u062c\u0646": 1849, "w": 1850, "\u2581\u0635\u0628\u0627\u062d": 1851, "\u2581\u0641\u0647\u0648": 1852, "\u2581\u0623\u064a\u0629": 1853, "\u2581\u0627\u0646\u0646\u064a": 1854, "\u2581lieben": 1855, "\u2581\u0642\u0637": 1856, "\u258111": 1857, "\u2581Z": 1858, "\u0628\u062a": 1859, "\u2581tue": 1860, "\u2581funktioniert": 1861, "\u2581eben": 1862, "\u2581keiner": 1863, "\u2581\u062d\u0627\u0646": 1864, "\u062f\u0648": 1865, "\u2581\u0627\u0644\u0645\u0634\u0643\u0644\u0629": 1866, "ch": 1867, "\u2581\u0627\u0644\u0645\u0627\u0621": 1868, "\u2581\u062d\u064a\u0627\u062a\u0643": 1869, "\u2581\u0648\u0644\u0646": 1870, "\u2581direkt": 1871, "\u2581\u0645\u062f\u0649": 1872, "\u2581gebracht": 1873, "\u0631\u064a": 1874, "\u2581\u0627\u0644\u0635\u0641\u062d\u0629": 1875, "\u2581\u0641\u0631\u064a\u0642": 1876, "\u2581\u064a\u0648\u0645\u0627": 1877, "\u2581Seine": 1878, "\u2581100": 1879, "\u2581\u0623\u062d\u062f\u0647\u0645": 1880, "\u2581\u0648\u0645\u0639": 1881, "\u0647\u0648": 1882, "\u2581Wagen": 1883, "\u2581\u0623\u062e\u0628\u0631\u0643": 1884, "\u0643\u0646": 1885, "\u2581Nummer": 1886, "\u2581\u0627\u0644\u0645\u0645\u0643\u0646": 1887, "\u2581au\u00dfer": 1888, "\u064a\u0645": 1889, "\u2581Ma\u00dfnahmen": 1890, "\u2581\u0644\u0643\u0646\u0643": 1891, "\u2581\u062a\u062d\u0628": 1892, "\u2581\u0633\u0623\u0630\u0647\u0628": 1893, "\u2581\u0639\u0644\u0645": 1894, "\u2581wann": 1895, "um": 1896, "\u2581\u0665": 1897, "\u2581\u0627\u0644\u0645\u0644\u0643": 1898, "\u2581\u062a\u0634\u0639\u0631": 1899, "\u2581\u0628\u0637\u0631\u064a\u0642\u0629": 1900, "\u0627\u0637": 1901, "\u2581kriegen": 1902, "\u0627\u062c": 1903, "\u2581\u0648\u0644": 1904, "\u2581\u0637\u0644\u0628": 1905, "\u2581\u0645\u062c\u0627\u0644": 1906, "\u0632\u064a": 1907, "\u2581\u0627\u0644\u0646\u0633\u0627\u0621": 1908, "\u2581Sam": 1909, "\u2581Sorge": 1910, "\u2581\u0627\u0644\u0628": 1911, "\u2581\u0648\u0628\u0639\u062f": 1912, "\u2581\u0648\u0645\u0627\u0630\u0627": 1913, "\u0633\u0627\u0645": 1914, "\u2581Damit": 1915, "\u2581\u062d\u0642\u0648\u0642": 1916, "\u2581\u0641\u0647\u0645\u062a": 1917, "\u2581\u0664": 1918, "\u2581\u0623\u0644\u0641": 1919, "\u2581\u0645\u0647\u0645": 1920, "\u2581Weise": 1921, "\u2581\u064a\u0647\u0645": 1922, "\u2581nimmt": 1923, "\u2581Stunde": 1924, "\u0633\u0648\u0646": 1925, "\u2581Mama": 1926, "\u2581Rat": 1927, "\u2581\u0627\u0644\u0645\u0627\u0644\u064a\u0629": 1928, "\u2581\u0637\u0648\u064a\u0644": 1929, "\u2581Person": 1930, "\u2581v\u00f6llig": 1931, "\u2581\u0644\u0637\u064a\u0641": 1932, "\u2581\u0661\u0669": 1933, "\u064a\u0642": 1934, "\u2581\u0627\u0644\u0644\u0639\u064a\u0646": 1935, "\u2581\u0648\u0646\u062d\u0646": 1936, "\u2581alten": 1937, "\u2581Sex": 1938, "--": 1939, "\u2581\u0635\u063a\u064a\u0631": 1940, "\u2581Dieses": 1941, "\u2581Jeder": 1942, "\u2581\u0645\u062e\u062a\u0644\u0641": 1943, "\u2581d\u00fcrfen": 1944, "\u2581\u0639\u0627\u0644\u0645": 1945, "O": 1946, "\u2581internationalen": 1947, "\u2581\u0627\u0644\u062b\u0627\u0646\u064a\u0629": 1948, "\u2581\u0646\u0643\u0648\u0646": 1949, "\u2581h\u00f6r": 1950, "\u062f\u064a\u0633\u0645\u0628\u0631": 1951, "\u2581\u0623\u062e\u064a": 1952, "\u2581genommen": 1953, "\u2581Gef\u00e4ngnis": 1954, "\u2581\u0628\u064a\u062a": 1955, "\u2581Schl\u00fcssel": 1956, "\u2581\u063a": 1957, "\u2581\u0623\u0634\u064a\u0627\u0621": 1958, "\u2581Dies": 1959, "\u2581\u0642\u0644": 1960, "\u2581\u062d\u0644": 1961, "\u2581fand": 1962, "\u2581schlafen": 1963, "\u2581\u0644\u0647\u0630\u0647": 1964, "4": 1965, "\u2581\u0635\u062f\u064a\u0642": 1966, "\u2581\u0647\u0644\u0627": 1967, "\u2581\u0627\u0644\u0622\u062e\u0631\u064a\u0646": 1968, "\u2581weitere": 1969, "\u2581H\u00f6ren": 1970, "\u2581herum": 1971, "\u0640\"": 1972, "?\"": 1973, "\u2581\u0645\u0644\u064a\u0648\u0646": 1974, "\u2581\u0627\u0644\u0628\u0642\u0627\u0621": 1975, "\u0645\u0639": 1976, "\u0645\u062a": 1977, "\u2581zehn": 1978, "\u2581\u0627\u062a": 1979, "\u2581erkl\u00e4ren": 1980, "\u2581sagten": 1981, "\u2581\u0639\u0632\u064a\u0632\u064a": 1982, "ie": 1983, "\u2581Vielen": 1984, "\u0628\u064a\u0646": 1985, "\u2581insbesondere": 1986, "\u2581fr\u00fch": 1987, "\u2581\u0666": 1988, "\u0648\u062d": 1989, "\u2581Kampf": 1990, "\u2581darin": 1991, "ner": 1992, "\u2581\u0645\u0646\u0632\u0644": 1993, "\u2581Zum": 1994, "\u2581\u0627\u0644\u0623\u0634\u062e\u0627\u0635": 1995, "\u2581\u0627\u0644\u0633\u064a\u062f\u0629": 1996, "\u2581Telefon": 1997, "\u062c\u0627\u0643": 1998, "\u2581\u062a\u062d\u0642\u064a\u0642": 1999, "\u2581\u0627\u0644\u0642\u0627\u0646\u0648\u0646": 2000, "\u2581\u0627\u0644\u0645\u0646\u0637\u0642\u0629": 2001, "\u2581\u0627\u0644\u062d": 2002, "\u2581\u0644\u0623\u062c\u0644": 2003, "\u2581Volk": 2004, "\u2581Jemand": 2005, "\u2581\u062a\u062a": 2006, "\u2581hierher": 2007, "\u2581\u0648\u062c\u0647": 2008, "\u2581Schau": 2009, "\u2581\u0627\u0644\u0646\u0638\u0627\u0645": 2010, "\u2581L": 2011, "\u0625\u0646\u0647\u0627": 2012, "\u2581Unter": 2013, "\u2581Entscheidung": 2014, "\u2581Sicher": 2015, "\u2581Lage": 2016, "\u2581Gef\u00fchl": 2017, "\u2581Geist": 2018, "\u2581Boden": 2019, "\u2581\u0628\u0646\u0627\u0621": 2020, "\u2581\u0623\u062e\u0628\u0631\u062a\u0643": 2021, "\u2581\u0627\u0644\u0644\u062c\u0646\u0629": 2022, "\u2581gebe": 2023, "\u2581verlieren": 2024, "\u2581\u062f\u064a": 2025, "\u2581Seit": 2026, "\u2581indem": 2027, "\u2581\u062a\u0637\u0644\u0628": 2028, "\u2581Re": 2029, "\u2581\u0623\u062f\u0631\u064a": 2030, "\u2581\u0646\u0631\u064a\u062f": 2031, "\u2581ziehen": 2032, "\u2581\u0639\u0645": 2033, "\u2581\u0633\u064a\u062f\u0629": 2034, "\u2581\u062d\u0627\u0648\u0644\u062a": 2035, "\u2581\u0631\u0633\u0627\u0644\u0629": 2036, "\u2581gro\u00df": 2037, "\u2581\u0623\u062a\u062d\u062f\u062b": 2038, "\u2581\u0623\u062b\u0646\u0627\u0621": 2039, "\u2581\u0644\u0625": 2040, "\u062d\u0633\u0646": 2041, "\u2581\u062e\u0630": 2042, "\u2581Kumpel": 2043, "3": 2044, "ab": 2045, "\u2581Deshalb": 2046, "\u2581\u0627\u0644\u0645\u0627\u0636\u064a\u0629": 2047, "\u2581\u0623\u0645\u0627\u0645": 2048, "\u2581\u0627\u0644\u0647\u0627\u062a\u0641": 2049, "\u2581ehrlich": 2050, "\u2581W": 2051, "\u2581\u00e4ndern": 2052, ")...": 2053, "\u2581gef\u00e4llt": 2054, "to": 2055, "\u0645\u0629": 2056, "\u0642\u062a": 2057, "\u2581\u0627\u0644\u0648\u062d\u064a\u062f\u0629": 2058, "\u2581\u062a\u062d\u0627\u0648\u0644": 2059, "\u2581\u0627\u0644\u0639\u0627\u0644\u0645\u064a": 2060, "ur": 2061, "\u2581Rest": 2062, "\u2581Unsere": 2063, "\u2581\u062a\u0643\u0648\u0646\u064a": 2064, "\u2581reicht": 2065, "\u2581\u00fcberall": 2066, "\u2581\u062a\u0630\u0643\u0631": 2067, "\u2581\u0627\u0644\u0623\u062e\u064a\u0631\u0629": 2068, "\u2581\u062c\u0627\u0646\u0628": 2069, "\u064a\u064a\u0646": 2070, "\u0627\u0630": 2071, "\u2581\u0628\u0631\u0646\u0627\u0645\u062c": 2072, "\u2581\u064a\u062a": 2073, "\u2581\u0634\u0643": 2074, "\u0628\u0629": 2075, "\u2581\u062d\u0642\u064a\u0642\u0629": 2076, "\u2581\u0633\u0648\u0649": 2077, "\u2581\u0644\u0646\u0630\u0647\u0628": 2078, "\u2581brauchst": 2079, "\u2581fr\u00fcher": 2080, "\u2581\u0627\u0644\u0628\u0634\u0631": 2081, "\u2581erfahren": 2082, "\u2581\u062a\u0631\u0643": 2083, "\u2581leicht": 2084, "\u2581\u0648\u0625\u0630\u0627": 2085, "\u0646\u0627\u0643": 2086, "\u2581tragen": 2087, "\u2581\u0627\u0644\u0635": 2088, "\u2581\u0630\u0627": 2089, "\u2581\u0646\u0638\u0631\u0629": 2090, "\u062a\u0646\u064a": 2091, "\u0648\u0647\u0627": 2092, "\u0630\u0627": 2093, "\u2581\u0630\u0647\u0628": 2094, "\u2581beste": 2095, "\u2581\u062d\u064a": 2096, "\u2581Nachricht": 2097, "\u0644\u064a\u0646": 2098, "\u2581\u0627\u0644\u0627\u0631\u0636": 2099, "\u0647\u0630\u0647": 2100, "\u2581getroffen": 2101, "\u2581\u0628\u0623\u0646\u0646\u064a": 2102, "\u2581\u0627\u0628\u0646": 2103, "\u2581Schutz": 2104, "\u2581\u0628\u062f\u0623": 2105, "\u2581\u0623\u062d\u0628\u0643": 2106, "\u0627\u0646\u064a": 2107, "\u062c\u0631": 2108, "\u2581Tagen": 2109, "x": 2110, "\u2581Wollen": 2111, "\u2581dessen": 2112, "\u2581\u0623\u0639\u0645\u0644": 2113, "\u2581\u0627\u0644\u0641": 2114, "\u0639\u062f": 2115, "\u2581nennen": 2116, "\u2581solche": 2117, "\u2581machte": 2118, "\u2581\u0627\u0644\u0633\u0645\u0627\u0621": 2119, "\u2581Tu": 2120, "\u2581Bin": 2121, "\u2581Sein": 2122, "\u2581\u0627\u0644\u0646\u0647\u0627\u064a\u0629": 2123, "\u2581\u062a\u0642\u062f\u064a\u0645": 2124, "\u2581\u0643\u062b\u064a\u0631": 2125, "\u2581\u0648\u0633\u0648\u0641": 2126, "\u2581\u0648\u0630\u0644\u0643": 2127, "\u0625\u0630\u0627": 2128, "\u0648\u0642": 2129, "\u0648\u0641": 2130, "\u2581\u0633\u064a\u062f\u0649": 2131, "\u2581\u0628\u062e\u0635\u0648\u0635": 2132, "\u2581\u0627\u0644\u062e\u0627\u0631\u062c": 2133, "\u2581Lasst": 2134, "\u2581\u0627\u0644\u0635\u064a\u0646": 2135, "\u0648\u0628": 2136, "\u2581Un": 2137, "\u2581\u062e\u0627\u0635": 2138, "\u2581Tages": 2139, "\u2581Darf": 2140, "\u2581\u064a\u0645\u0643\u0646\u0647": 2141, "\u2581ent": 2142, "\u2581\u064a\u0639\u062f": 2143, "is": 2144, "\u2581lie\u00df": 2145, "\u2581froh": 2146, "\u2581\u0644\u0643\u0646\u0647\u0627": 2147, "\u0631\u0649": 2148, "\u2581\u0627\u0633\u062a\u062e\u062f\u0627\u0645": 2149, "\u2581nachdem": 2150, "\u2581\u0627\u0644\u062d\u0642\u064a\u0642\u064a": 2151, "\u0646\u062d\u0646": 2152, "\u2581Film": 2153, "\u2581Team": 2154, "\u2581\u0645\u064a\u062a": 2155, "\u2581\u0648\u0627\u0644\u0630\u064a": 2156, "\u2581\u064a\u062a\u0639\u0644\u0642": 2157, "ton": 2158, "\u2581interessiert": 2159, "\u2581erinnern": 2160, "\u2581\u0644\u0623\u064a": 2161, "or": 2162, "bar": 2163, "\u2581\u0644\u0645\u062f\u0629": 2164, "\u2581konnten": 2165, "\u2581fordert": 2166, "\u2581\u0645\u0646\u0637\u0642\u0629": 2167, "\u2581trinken": 2168, "\u2581Artikel": 2169, "\u2581\u062c\u0627\u0621": 2170, "\u0628\u0648": 2171, "\u2581\u0627\u0644\u0645\u0648\u0636\u0648\u0639": 2172, "7": 2173, "\u0641\u0631": 2174, "\u2581\u0627\u0644\u0637": 2175, "\u2581\u0625\u0639\u0627\u062f\u0629": 2176, "und": 2177, "\u00f6": 2178, "\u2581\u0633\u064a\u062f\u062a\u064a": 2179, "\u2581\u0646\u062a\u062d\u062f\u062b": 2180, "\u2581jedes": 2181, "\u2581\u0645\u062f\u064a\u0646\u0629": 2182, "\u0631\u0627\u062a": 2183, "\u0648\u064a\u0644": 2184, "\u2581Welche": 2185, "\u2581\u0627\u0644\u0635\u0648\u0631\u0629": 2186, "\u2581York": 2187, "1": 2188, "\u2581\u0627\u0644\u0645\u0641\u062a\u0631\u0636": 2189, "\u0646\u0629": 2190, "\u2581\u062e\u0637": 2191, "auf": 2192, "\u2581L\u00e4nder": 2193, "\u258124": 2194, "\u2581R": 2195, "\u2581\u0643\u0644\u0647": 2196, "\u2581\u0627\u0644\u064a\u0633": 2197, "\u2581Antwort": 2198, "\u2581\u0623\u064a\u062a\u0647\u0627": 2199, "\u2581Meinung": 2200, "\u2581\u0646\u0648\u0639\u0627": 2201, "\u2581\u0627\u0644\u0623\u0639\u0636\u0627\u0621": 2202, "\u2581jedoch": 2203, "\u258125": 2204, "\u2581alte": 2205, "\u2581\u0627\u0644\u0646\u0648\u0645": 2206, "\u2581nahe": 2207, "\u064a\u0647\u0627": 2208, "ia": 2209, "\u2581krank": 2210, "\u2581denkt": 2211, "\u2581Worte": 2212, "\u2581Durch": 2213, "\u2581Typen": 2214, "\u2581\\": 2215, "\u0641\u0629": 2216, "\u2581gefallen": 2217, "\u2581\u064a\u062d\u0628": 2218, "\u2581\u0639\u0631\u0636": 2219, "na": 2220, "\u0643\u064a": 2221, "\u2581\u0627\u0644\u062e\u0631\u0648\u062c": 2222, "\u2581\u0641\u0647\u0645": 2223, "\u2581\u0635\u0648\u0631\u0629": 2224, "\u2581\u0641\u0623\u0646\u0627": 2225, "\u2581wieso": 2226, "\u2581\u0627\u0646\u0646\u0627": 2227, "\u2581\u0627\u0644\u0648\u0636\u0639": 2228, "\u2581Party": 2229, "\u2581\u0633\u064a\u0626\u0629": 2230, "\u2581\u0623\u0631\u0627\u0643": 2231, "W": 2232, "\u2581\u0634\u064a": 2233, "\u062f\u0648\u0646": 2234, "\u2581Drogen": 2235, "\u2581verletzt": 2236, "\u2581\u062e\u0645\u0633\u0629": 2237, "\u2581Stra\u00dfe": 2238, "mal": 2239, "\u2581\u0627\u0644\u0648\u0627\u0636\u062d": 2240, "\u0628\u0648\u0644": 2241, "\u2581\u0627\u0645\u0631\u0623\u0629": 2242, "\u2581\u0639\u062f\u0629": 2243, "\u2581\u0648\u0631\u0627\u0621": 2244, "\u2581irgendwas": 2245, "\u0628\u0627\u0644": 2246, "\u258140": 2247, "\u2581\u0648\u0644\u0642\u062f": 2248, "\u2581\u0633\u0627\u0639\u0627\u062a": 2249, "\u0627\u0631\u0629": 2250, "\u2581\u062a\u0642\u0644\u0642": 2251, "\u2581\u0625\u064a": 2252, "\u2581passieren": 2253, "\u2581sprach": 2254, "\u2581setzen": 2255, "\u2581J": 2256, "\u2581\u0645\u0633\u0627\u0639\u062f\u0629": 2257, "\u2581\u0627\u0644\u0639\u0627\u0644\u0645\u064a\u0629": 2258, "\u0644\u0629": 2259, "\u2581\u0627\u0644\u0623\u0633\u0628\u0648\u0639": 2260, "\u2581\u0642\u064a\u062f": 2261, "\u2581hattest": 2262, "\u0641\u062a": 2263, "\u2581\u0623\u0645\u0627": 2264, "\u2581Leuten": 2265, "\u2581\u0627\u0648\u0647": 2266, "\u2581\u0623\u062a\u064a\u062a": 2267, "\u2581tats\u00e4chlich": 2268, "\u2581Kraft": 2269, "\u2581\u062a\u0648\u062c\u062f": 2270, "\u0643\u0646\u062a": 2271, "\u2581\u0643\u0627\u0645\u0644": 2272, "\u0627\u0646\u062a": 2273, "\u2581Euer": 2274, "\u2581\u0637\u0644\u0628\u062a": 2275, "\u2581versuche": 2276, "\u2581seines": 2277, "\u2581h\u00e4lt": 2278, "\u2581gesprochen": 2279, "\u2581kleiner": 2280, "\u2581Mord": 2281, "\u2581\u0646\u0642\u0648\u0645": 2282, "\u2581\u062a\u0634\u064a\u0631": 2283, "\u2581St\u00fcck": 2284, "\u2581Gedanken": 2285, "\u2581n\u00e4chste": 2286, "ich": 2287, "\u2581zuerst": 2288, "\u2581Arzt": 2289, "\u2581Kindern": 2290, "\u2581f\u00fchle": 2291, "\u2581l\u00e4nger": 2292, "\u2581\u062c\u0648\u0646": 2293, "\u2581besonders": 2294, "\u2581\u062a\u062d\u062f\u062b": 2295, "\u2581gegangen": 2296, "\u2581k": 2297, "\u2581\u0627\u0644\u063a\u0631\u0641\u0629": 2298, "\u2581\u062e\u0627\u0635\u0629": 2299, "\u2581\u062a\u0623\u062e\u0630": 2300, "\u0631\u0628": 2301, "\u2581h\u00f6rt": 2302, "\u2581\u062a\u062d\u0645\u0644": 2303, "\u2581gefragt": 2304, "\u2581\u0639\u0627\u0645\u0627": 2305, "\u2581\u0627\u0644\u0646\u0648\u0639": 2306, "\u2581\u0648\u0634\u0643": 2307, "\u2581jedem": 2308, "\u2581\u0627\u0644\u0625\u0637\u0644\u0627\u0642": 2309, "5": 2310, "\u2581\u0623\u062a\u0630\u0643\u0631": 2311, "\u2581\u0627\u0644\u062d\u0643\u0648\u0645\u0629": 2312, "\u2581\u0634\u0643\u0631": 2313, "\u2581Krankenhaus": 2314, "\u2581Kaffee": 2315, "\u2581\u0627\u0645": 2316, "\u2581Stimmt": 2317, "\u2581verstanden": 2318, "gen": 2319, "\u2581manchmal": 2320, "\u2581spricht": 2321, "\u2581Bar": 2322, "\u2581laufen": 2323, "\u2581\u0642\u0648\u0644": 2324, "\u2581Agent": 2325, "\u2581stark": 2326, "\u2581neu": 2327, "\u2581Jungen": 2328, "\u2581\u062a\u0641\u0647\u0645": 2329, "N": 2330, "\u2581Zusammenarbeit": 2331, "\u0639\u064a": 2332, "\u2581\u064a\u062d\u062a\u0627\u062c": 2333, "\u2581\u0627\u0644\u062a\u0641\u0643\u064a\u0631": 2334, "\u2581eher": 2335, "\u2581\u0630\u0627\u0647\u0628": 2336, "\u2581\u0648\u0647\u0645": 2337, "\u2581\u062a\u0639\u0632\u064a\u0632": 2338, "\u2581\u0639\u0627\u0626\u0644\u0629": 2339, "\u0633\u062a\u0631": 2340, "\u2581\u0645\u0645\u0643\u0646": 2341, "\u2581\u0648\u0639\u0646\u062f\u0645\u0627": 2342, "\u2581alleine": 2343, "\u2581\u0628\u0627\u0644\u0623\u0645\u0631": 2344, "\u2581danach": 2345, "\u2581langsam": 2346, "\u2581\u0661\u0660": 2347, "\u2581rum": 2348, "\u2581wolltest": 2349, "\u2581\u0627\u0644\u0642\u0631\u0646": 2350, "\u2581jemals": 2351, "\u2581Mund": 2352, "\u2581#": 2353, "ra": 2354, "\u2581\u0642\u0635\u0629": 2355, "_": 2356, "\u2581\u0627\u0644\u062f": 2357, "\u2581\u0642\u0648\u0629": 2358, "\u2581\u0625\u0644": 2359, "\u2581\u0627\u0644\u0623\u0633\u0644\u062d\u0629": 2360, "\u2581lasse": 2361, "\u2581Dir": 2362, "\u2581Al": 2363, "\u0671\u0644": 2364, "\u2581\u0627\u0644\u0637\u0627\u0642\u0629": 2365, "\u2581\u062a\u0641\u0639\u0644\u064a\u0646": 2366, "\u2581w\u00e4r": 2367, "at": 2368, "\u2581\u0627\u0644\u0645\u0633\u062a\u0642\u0628\u0644": 2369, "\u2581ersucht": 2370, "\u2581\u0627\u0644\u0643": 2371, "\u2581f\u00fchlen": 2372, "\u2581\u0648\u062d\u0633\u0628": 2373, "\u2581\u0668": 2374, "\u062f\u0649": 2375, "\u2581/": 2376, "\u2581erhalten": 2377, "\u2581\u0645\u0634\u0627\u0643\u0644": 2378, "\u2581\u0645\u0633\u0627\u0639\u062f\u062a\u0643": 2379, "\u2581\u0644\u0644\u0645\u0646\u0632\u0644": 2380, "\u2581Herzen": 2381, "\u2581genauso": 2382, "\u2581USA": 2383, "\u2581Raum": 2384, "il": 2385, "\u0644\u0645\u0627\u0630\u0627": 2386, "\u0627\u0648": 2387, "\u2581\u0627\u0644\u062d\u062f\u064a\u062b": 2388, "\u2581\u064a\u0632\u0627\u0644": 2389, "\u2581Sieht": 2390, "\u2581\u0623\u0647\u0645\u064a\u0629": 2391, "\u2581\u0623\u0639\u062f": 2392, "\u2581Siehst": 2393, "\u064a\u062c\u0628": 2394, "\u2581lebt": 2395, "\u2581\u0648\u0647\u0630\u0647": 2396, "\u2581\u062a\u062d\u0635\u0644": 2397, "\u2581bekannt": 2398, "ische": 2399, "\u2581\u0627\u0644\u062a\u0627\u0644\u064a": 2400, "\u2581\u0645\u062d\u0642": 2401, "\u2581erwartet": 2402, "\u2581\u0623\u062e\u0631": 2403, "\u2581System": 2404, "\u2581\u0627\u0644\u0645\u062a": 2405, "\u0623\u064a\u0646": 2406, "\u2581\u062f\u0648\u0631": 2407, "\u2581\u0628\u062f\u0644\u0627": 2408, "\u2581Unser": 2409, "\u2581\u0632\u0644\u062a": 2410, "\u0645\u064a": 2411, "\u2581\u0645\u0642\u0627\u0628\u0644": 2412, "\u2581\u0633\u0623\u0641\u0639\u0644": 2413, "\u2581\u0667": 2414, "\u2581\u062d\u064a\u0646\u0645\u0627": 2415, "\u2581\u062d\u0627\u0648\u0644": 2416, "\u2581\u062a\u0639\u0648\u062f": 2417, "\u2581\u0633\u0627": 2418, "igen": 2419, "\u2581\u0623\u062e\u0631\u062c": 2420, "da": 2421, "8": 2422, "\u2581kleines": 2423, "\u2581tat": 2424, "\u2581\u0628\u0623": 2425, "\u2581\u062f\u0643\u062a\u0648\u0631": 2426, "\u2581Habe": 2427, "\u2581Viel": 2428, "\u2581\u0648\u0635\u0644\u062a": 2429, "\u2581\u062a\u0635\u0628\u062d": 2430, "\u2581\u0627\u0644\u0633\u0624\u0627\u0644": 2431, "\u2581Glaub": 2432, "\u2581Schiff": 2433, "\u2581nochmal": 2434, "\u2581\u0645\u0639\u0644\u0648\u0645\u0627\u062a": 2435, "\u2581findet": 2436, "\u2581ernst": 2437, "\u2581\u0648\u0641\u0642\u0627": 2438, "\u2581vorstellen": 2439, "\u2581Hund": 2440, "\u0625\u0644\u0649": 2441, "\u2581\u0623\u062a\u0639\u0631\u0641": 2442, "\u2581\u0648\u0644\u0643\u0646\u0647": 2443, "\u2581pro": 2444, "\u2581\u062f\u0639\u0648\u0646\u0627": 2445, "\u2581geschafft": 2446, "son": 2447, "\u2581\u0641\u062a\u0649": 2448, "\u064a\u062d": 2449, "\u25812.": 2450, "\u2581\u062e\u0637\u0631": 2451, "\u2581Ah": 2452, "\u2581\u0643\u062b\u064a\u0631\u0629": 2453, "\u2581\u0631\u063a\u0645": 2454, "\u2581\u0627\u0644\u0633\u0644\u0627\u062d": 2455, "\u2581\u0645\u0646\u0643\u0645": 2456, "\u2581glaubst": 2457, "\u2581\u0623\u0623\u0646\u062a": 2458, "\u2581\u0627\u0644\u062e": 2459, "\u2581Schluss": 2460, "\u2581\u064a\u0630\u0647\u0628": 2461, "\u2581\u0628\u0648\u0627\u0633\u0637\u0629": 2462, "\u2581\u0627\u0641\u0636\u0644": 2463, "\u0644\u0643": 2464, "\u2581deshalb": 2465, "\u2581\u0661\u0662": 2466, "\u062d\u0644": 2467, "\u2581kamen": 2468, "\u2581angerufen": 2469, "\u2581\u0639\u0645\u0627": 2470, "\u2581\u0630\u0643\u0631": 2471, "\u2581\u0627\u0644\u062f\u0645": 2472, "\u0639\u0629": 2473, "\u2581Eure": 2474, "\u2581\u0642\u0644\u064a\u0644": 2475, "\u2581\u0634\u0631\u0643\u0629": 2476, "\u2581Punkt": 2477, "\u2581\u0661\u0665": 2478, "\u2581\u0645\u0631\u0643\u0632": 2479, "\u2581weh": 2480, "\u2581wem": 2481, "\u2581\u0645\u0639\u0647\u0645": 2482, "\u2581H": 2483, "\u2581\u064a\u062d\u0627\u0648\u0644": 2484, "\u2581\u0627\u0644\u0639\u0634\u0627\u0621": 2485, "\u2581David": 2486, "\u2581stand": 2487, "\u2581nahm": 2488, "\u2581\u062a\u063a\u064a\u064a\u0631": 2489, "\u2581\u0639\u0634\u0631\u0629": 2490, "\u2581\u0641\u0642\u062f\u062a": 2491, "\u2581\u0623\u0635\u062f\u0642": 2492, "\u2581\u0645\u062b\u0644\u0643": 2493, "\u2581Mist": 2494, "\u2581\u0627\u0644\u0628\u062d\u0631": 2495, "}": 2496, "\u0631\u0643": 2497, "\u2581Tja": 2498, "\u2581sch\u00e4tze": 2499, "\u2581geschehen": 2500, "\u2581St": 2501, "\u2581\u062c\u0647\u0627\u0632": 2502, "\u2581\u0642\u062a\u0644\u062a": 2503, "\u2581\u0645\u062e\u062a\u0644\u0641\u0629": 2504, "\u2581Organisationen": 2505, "\u2581\u0627\u0644\u0642\u0648\u0629": 2506, "\u2581\u0623\u062d\u064a\u0627\u0646\u0627": 2507, "la": 2508, "\u2581sitzen": 2509, "\u2581\u0642\u0631\u0627\u0631": 2510, "ar": 2511, "\u2581\u0627\u0644\u0637\u0628\u064a\u0628": 2512, "\u2581weiterhin": 2513, "\u2581\u064a\u0631\u064a\u062f\u0648\u0646": 2514, "\u2581Monate": 2515, "\u2581Hinweis": 2516, "\u2581k\u00f6nntest": 2517, "\u2581Wohnung": 2518, "p": 2519, "\u2581\u064a\u062d\u0635\u0644": 2520, "\u2581\u062c\u0639\u0644": 2521, "\u2581Familien": 2522, "\u2581W\u00fcrde": 2523, "\u2581\u0623\u0644": 2524, "ungen": 2525, "\u2581\u062d\u0633\u0628": 2526, "\u0644\u0647": 2527, "\u2581\u0645\u0633\u062a\u0639\u062f": 2528, "\u2581\u0648\u0625": 2529, "\u2581\u0627\u0644\u0648\u0635\u0648\u0644": 2530, "\u2581\u0623\u0639\u0645\u0627\u0644": 2531, "\u2581\u0628\u0646": 2532, "\u2581\u0645\u062c\u0646\u0648\u0646": 2533, "\u2581\u0642\u0631\u064a\u0628": 2534, "\u2581Au\u00dferdem": 2535, "\u2581Verbindung": 2536, "\u2581\u0627\u0628\u062f\u0627": 2537, "\u2581Gebiet": 2538, "\u2581\u0622\u0645\u0644": 2539, "\u0627\u0632": 2540, "\u2581k\u00f6nnt": 2541, "\u2581Ohne": 2542, "\u2581Bleib": 2543, "\u2581k\u00fcmmern": 2544, "\u2581\u0627\u0641\u0639\u0644": 2545, "\u2581\u0646\u0641\u0633\u0647\u0627": 2546, "\u2581Gesch\u00e4ft": 2547, "\u2581\u266a": 2548, "\u2581\u0648\u0627\u0636\u062d": 2549, "ja": 2550, "\u2581\u0623\u0634\u0647\u0631": 2551, "\u2581werdet": 2552, "\u2581kennt": 2553, "ischen": 2554, "\u2581\u0645\u062b\u064a\u0631": 2555, "\u2581Energie": 2556, "\u2581Partner": 2557, "\u2581\u0627\u0644\u0628\u062d\u062b": 2558, "\u2581gestorben": 2559, "\u2581\u0628\u0634\u064a\u0621": 2560, "\u2581f\u00fchrt": 2561, "\u2581Etwas": 2562, "\u2581Pr\u00e4sident": 2563, "\u2581\u0644\u0644\u0647": 2564, "\u2581aufh\u00f6ren": 2565, "\u2581\u0627\u0644\u062d\u0627\u0644\u0629": 2566, "\u2581\u0643\u0644\u0647\u0627": 2567, "\u25812000": 2568, "\u2581Anfang": 2569, "\u2581kaufen": 2570, "\u2581Bewegung": 2571, "\u2581Kontrolle": 2572, "\u2581verdient": 2573, "\u2581\u0634\u0647\u0631": 2574, "\u2581trotzdem": 2575, "\u2581sch": 2576, "\u2581\u0628\u0627\u0644\u062e\u0627\u0631\u062c": 2577, "\u2581\u062c\u0626\u062a": 2578, "\u2581\u0627\u0644\u0645\u062c\u0644\u0633": 2579, "\u2581\u062a\u0639\u062f": 2580, "\u2581Zeichen": 2581, ".\u201c": 2582, "\u2581\u062a\u062c\u062f": 2583, "\u2581klingt": 2584, "\u2581\u0627\u0644\u062c\u0627\u0646\u0628": 2585, "\u2581\u0627\u0646\u064a": 2586, "\u0631\u0648\u0646": 2587, "\u2581\u062a\u0642\u062f\u0645": 2588, "\u2581Monaten": 2589, "\u2581Prozent": 2590, "\u2581Richtig": 2591, "\u2581lesen": 2592, "\u2581\u062d\u062a": 2593, "\u2581\u0623\u0647\u0644\u0627": 2594, "\u2581\u0627\u0644\u0645\u0633\u064a\u062d": 2595, "ige": 2596, "\u0631\u0627": 2597, "\u2581&": 2598, "\u2581\u0639\u0627\u062f\u0629": 2599, "\u2581\u0627\u0644\u0642\u0627\u062f\u0645\u0629": 2600, "\u2581k\u00e4mpfen": 2601, "\u2581~": 2602, "\u2581Zeug": 2603, "\u2581\u0648\u0627\u0646\u0627": 2604, "\u2581liegen": 2605, "\u2581\u0645\u0648\u0639\u062f": 2606, "\u2581Dich": 2607, "\u2581\u0628\u0646\u064a": 2608, "\u2581\u0627\u0644\u0623\u0648\u0631\u0648\u0628\u064a": 2609, "\u2581Tagung": 2610, "\u2581Ehe": 2611, "\u2581anderer": 2612, "\u2581fallen": 2613, "\u2581\u0632\u0648\u062c\u062a\u064a": 2614, "\u0642\u0629": 2615, "\u2581\u0645\u0624\u062e\u0631\u0627": 2616, "\u2581Pass": 2617, "\u2581Gewalt": 2618, "\u2581\u0646\u0633\u064a\u062a": 2619, "\u2581\u0643\u062a\u0627\u0628": 2620, "\u2581\u0627\u0644\u0643\u0628\u064a\u0631": 2621, "\u2581Gefahr": 2622, "\u2581total": 2623, "\u2581\u0630\u0648": 2624, "\u0648\u0644\u0643\u0646": 2625, "im": 2626, "\u2581vorher": 2627, "\u2581\u0661\u0661": 2628, "6": 2629, "\u2581au\u00dferdem": 2630, "\u2581ihres": 2631, "\u2581N\u00e4he": 2632, "\u2581\u0627\u0644\u0642": 2633, "\u2581Mission": 2634, "\u2581Gibt": 2635, "\u2581\u0639\u0644\u064a\u0643\u0645": 2636, "\u2581\u0628\u0639\u064a\u062f": 2637, "\u2581M\u00f6glichkeit": 2638, "\u2581Richtung": 2639, "\u2581\u0627\u0644\u062c\u064a\u062f": 2640, "\u2581\u0627\u0644\u0641\u062a\u0649": 2641, "\u2581\u062c\u0648": 2642, "\u0630\u0644\u0643": 2643, "ma": 2644, "\u2581\u062a\u0628\u0642\u0649": 2645, "\u2581\u0623\u0645\u0643": 2646, "\u0634\u064a": 2647, "\u2581Situation": 2648, "\u2581\u0645\u0639\u0638\u0645": 2649, "\u2581\u0628\u0646\u0641\u0633\u0643": 2650, "\u2581\u062e\u0645\u0633": 2651, "\u2581\u0669": 2652, "\u2581erreichen": 2653, "\u2581\u0627\u0644\u0639\u0627\u0626\u0644\u0629": 2654, "\u0670": 2655, "\u2581Falls": 2656, "\u2581Machen": 2657, "\u2581Boss": 2658, "\u2581\u0642\u0627\u062f\u0645": 2659, "\u2581\u0623\u064a\u0636": 2660, "\u062c\u064a\u0646": 2661, "\u2581\u0648\u0642\u0627\u0644": 2662, "\u0642\u0631": 2663, "\u2581anrufen": 2664, "\u2581geschickt": 2665, "\u2581gerettet": 2666, "\u2581\u0648\u0627\u062d\u062f\u0627": 2667, "\u2581\u0627\u0644\u0628\u062f\u0627\u064a\u0629": 2668, "\u2581\u0642\u0627\u0626\u0645\u0629": 2669, "\u2581\u0627\u0644\u0634\u0645\u0633": 2670, "ke": 2671, "ta": 2672, "\u2581\u0631\u0627\u0626\u0639\u0627": 2673, "\u2581falls": 2674, "\u2581\u0639\u0645\u0644\u064a": 2675, "\u2581Mehr": 2676, "\u2581\u0632\u0627\u0644": 2677, "\u2581\u0627\u0644\u062e\u0637": 2678, "\u2581\u0646\u0639\u0644\u0645": 2679, "\u2581\u064a\u062f": 2680, "\u062f\u0631": 2681, "\u2581Hoffnung": 2682, "\u2581\u0645\u0648\u0642\u0639": 2683, "\u2581hilft": 2684, "\u2581\u0627\u0644\u0645\u062c\u062a\u0645\u0639": 2685, "\u2581Tisch": 2686, "\u2581\u0627\u0644\u0645\u0646\u0627\u0633\u0628": 2687, "\u2581Dienst": 2688, "\u2581\u0623\u062d\u0636\u0631": 2689, "\u2581\u0627\u0644\u0623\u0639\u0645\u0627\u0644": 2690, "\u2581\u0623\u0648\u0644\u0626\u0643": 2691, "\u2581damals": 2692, "\u2581Frank": 2693, "\u2581\u0644\u0623\u0646\u064a": 2694, "\u2581\u064a\u0639\u0648\u062f": 2695, "\u0645\u062b\u0644": 2696, "\u2581\u0627\u0644\u0642\u062f\u064a\u0645\u0629": 2697, "\u0636\u062d\u0643": 2698, "\u2581\u0623\u062d\u062f\u0627": 2699, "ein": 2700, "\u2581\u0641\u0643\u0631\u062a": 2701, "\u2581\u062a\u0639\u0627\u0644\u064a": 2702, "\u2581\u0631\u062c\u0644\u0627": 2703, "\u2581wollt": 2704, "\u2581Gruppe": 2705, "\u2581\u0627\u0644\u062d\u0638": 2706, "\u2581\u0643\u0647\u0630\u0627": 2707, "\u2581\u0639\u0644\u0645\u062a": 2708, "\u2581\u0648\u0627\u0646\u062a": 2709, "\u0633\u0648\u0641": 2710, "\u2581h\u00f6rte": 2711, "\u2581\u0642\u062f\u0631": 2712, "\u2581\u0623\u0635\u062f\u0642\u0627\u0621": 2713, "\u2581starb": 2714, "\u2581\u0635\u0646\u062f\u0648\u0642": 2715, "\u2581\u0627\u0644\u0633\u064a": 2716, "\u2581Wow": 2717, "\u2581\u0648\u0627\u0644\u0627": 2718, "\u2581Liste": 2719, "\u2581\u0628\u0627\u0646": 2720, "\u2581Erkl\u00e4rung": 2721, "\u2581\u062d\u0628": 2722, "\u2581Traum": 2723, "\u2581Kenntnis": 2724, "\u2581umbringen": 2725, "\u2581n\u00f6tig": 2726, "\u2581\u0627\u0644\u062c\u0632\u0621": 2727, "\u2581irgendwo": 2728, "\u2581\u0627\u0644\u062a\u0639\u0627\u0648\u0646": 2729, "\u2581Mike": 2730, "\u2581\u0627\u0646\u0638\u0631\u064a": 2731, "\u2581sollst": 2732, "\u2581Musik": 2733, "\u2581\u062a\u0632\u0627\u0644": 2734, "\u2581\u0644\u0639\u0628\u0629": 2735, "\u2581\u0623\u0633\u0645\u0639": 2736, "\u2581dr\u00fcben": 2737, "\u2581benutzt": 2738, "\u2581Fenster": 2739, "\u2581\u0644\u0644\u062a": 2740, "\u2581\u0627\u0630\u0646": 2741, "\u2581\u0623\u062a\u0631\u064a\u062f": 2742, "\u2581\u0627\u0644\u0623\u0643\u062b\u0631": 2743, "\u2581\u0627\u0644\u0645\u0634\u0627\u0643\u0644": 2744, "\u2581\u0633\u064a\u0621": 2745, "\u2581kennst": 2746, "\u2581wert": 2747, "\u2581\u0628\u0643\u062b\u064a\u0631": 2748, "\u2581Preis": 2749, "\u2581\u0627\u0644\u0627\u0642\u062a\u0635\u0627\u062f\u064a": 2750, "\u2581\u0627\u0644\u0641\u062a\u064a\u0627\u062a": 2751, "\u2581verschwinden": 2752, "\u2581gro\u00dfer": 2753, "\u0635\u0644": 2754, "\u2581Ben": 2755, "\u2581hart": 2756, "\u2581\u0648\u0644\u0643\u0646\u064a": 2757, "land": 2758, "\u2581\u0623\u0648\u0631\u0648\u0628\u0627": 2759, "\u2581Stelle": 2760, "\u2581s": 2761, "\u2581Ruf": 2762, "\u2581Daddy": 2763, "\u2581M\u00f6rder": 2764, "\u2581liebt": 2765, "\u2581\u0623\u062e\u0630\u062a": 2766, "\u2581\u0623\u0647\u0630\u0627": 2767, "\u2581\u0627\u0633\u0645\u0647": 2768, "\u2581\u0627\u0644\u0642\u0636\u064a\u0629": 2769, "\u2581\u0644\u0641\u062a\u0631\u0629": 2770, "\u2581\u0628\u064a\u0646\u0646\u0627": 2771, "\u2581offen": 2772, "\u2581\u0627\u0644\u0627\u062a\u062d\u0627\u062f": 2773, "\u2581\u0625\u0646\u0646\u0627": 2774, "\u062f\u0627\u0646": 2775, "\u2581\u0630\u0627\u0643": 2776, "\u2581Nachrichten": 2777, "\u062d\u0628": 2778, "\u2581\u0628\u0623\u0646\u0647\u0627": 2779, "\u0628\u064a\u0644": 2780, "\u2581\u062f\u0641\u0639": 2781, "\u2581\u064a\u0635\u0628\u062d": 2782, "\u2581Mittel": 2783, "\u2581Charlie": 2784, "\u2581\u062d\u0648\u0627\u0644\u064a": 2785, "\u2581\u0627\u0644\u0635\u0639\u0628": 2786, "\u2581hei\u00dfen": 2787, "\u258122": 2788, "\u2581\u0628\u0628\u0639\u0636": 2789, "\u2581\u0644\u0644\u0639\u0645\u0644": 2790, "\u2581\u0622\u0645\u0646": 2791, "\u2581\u0628\u0639\u0645\u0644": 2792, "\u2581Auge": 2793, "\u2581lustig": 2794, "\u2581\u0635\u0627\u062d": 2795, "\u2581wirtschaftliche": 2796, "\u2581\u0641\u0639\u0644\u062a\u0647": 2797, "\u2581\u062f\u0645": 2798, "\u2581Willkommen": 2799, "!\"": 2800, "\u2581voller": 2801, "\u2581Computer": 2802, "\u2581\u0648\u0644\u0648": 2803, "\u2581\u0643\u062a\u0628": 2804, "()\u060c": 2805, "\u2581sieben": 2806, "\u2581Sch": 2807, "\u2581\u0622\u0644": 2808, "\u2581\u0627\u0644\u0633\u0627\u0628\u0642\u0629": 2809, "\u2581\u0633\u0624\u0627\u0644": 2810, "\u2581\u0623\u064a\u0627": 2811, "\u2581\u0627\u0644\u0642\u0644\u064a\u0644": 2812, "\u2581\u062a\u0648\u062f": 2813, "\u0630\u064a": 2814, "\u2581erkennen": 2815, "\u062a\u0643\u0645": 2816, "\u2581Mitgliedstaaten": 2817, "\u2581zeigt": 2818, "\u2581Drei": 2819, "\u2581\u062a\u0631\u0643\u062a": 2820, "\u2581dagegen": 2821, "\u2581Tom": 2822, "\u2581\u0627\u0644\u0648\u0637\u0646\u064a\u0629": 2823, "\u2581\u062d\u0627\u0644\u0627": 2824, "\u2581\u0641\u0645\u0646": 2825, "\u2581\u0623\u0637\u0641\u0627\u0644": 2826, "\u062c\u062f": 2827, "\u2581\u062a\u0636\u0639": 2828, "Z": 2829, "\u2581\u0648\u0642\u062a\u0627": 2830, "\u2581Bank": 2831, "\u2581\u0645\u0648\u062c\u0648\u062f": 2832, "\u2581umgebracht": 2833, "\u2581FBI": 2834, "\u2581glaubt": 2835, "\u2581\u0627\u0646\u062a\u0647\u0649": 2836, "\u2581\u0627\u0644\u0645\u062a\u0639\u0644\u0642\u0629": 2837, "\u2581L\u00e4ndern": 2838, "\u2581jemandem": 2839, "\u2581Manchmal": 2840, "\u2581\u062e\u0644\u0641": 2841, "\u2581De": 2842, "\u2581\u062d\u064a\u0627\u0644": 2843, "un": 2844, "\u2581Ha": 2845, "\u2581\u0627\u062e\u0631": 2846, "\u2581\u0641\u0644\u062a": 2847, "\u0647\u064a\u0627": 2848, "\u0631\u064a\u0643": 2849, "\u2581Versuch": 2850, "\u2581Captain": 2851, "\u2581\u0645\u062a\u0623\u0643\u062f\u0629": 2852, "\u2581st\u00e4ndig": 2853, "\u2581\u0623\u0639\u0637\u0646\u064a": 2854, "\u2581\u0661\u0664": 2855, "\u2581\u0627\u0644\u0639\u0645\u0644\u064a\u0629": 2856, "\u2581\u062a\u0639\u064a\u0634": 2857, "\u2581Durchf\u00fchrung": 2858, "\u25812005": 2859, "\u2581\u0633\u0631": 2860, "\u2581hasse": 2861, "\u2581spielt": 2862, "co": 2863, "\u2581\u0627\u0644\u062f\u062e\u0648\u0644": 2864, "\u2581acht": 2865, "\u2581Gold": 2866, "\u2581\u0639\u0644": 2867, "\u2581erinnere": 2868, "\u2581\u0644\u0623\u0646\u0647\u0627": 2869, "\u2581benutzen": 2870, "\u2581\u0645\u0647\u0645\u0629": 2871, "\u2581Darum": 2872, "\u2581\u062a\u0641\u0643\u0631": 2873, "\u2581bringe": 2874, "\u2581\u0644\u0633\u0646\u0627": 2875, "\u2581\u064a\u062a\u062d\u062f\u062b": 2876, "\u2581\u0627\u0644\u0635\u0644\u0629": 2877, "\u2581\u064a\u062c\u0639\u0644": 2878, "\u2581Gesellschaft": 2879, "\u2581\u0627\u0644\u062a\u0646\u0645\u064a\u0629": 2880, "\u2581\u0627\u0644\u0633\u0646\u0629": 2881, "\u2581wen": 2882, "\u2581Beste": 2883, "\u2581\u2018": 2884, "\u2581gewinnen": 2885, "\u2581\u0627\u0644\u0632\u0648\u0627\u062c": 2886, "\u2581\u0625\u064a\u062c\u0627\u062f": 2887, "\u2581\u0634\u0643\u0644": 2888, "0": 2889, "\u2581Gesetz": 2890, "\u2581schreiben": 2891, "\u2581\u0648\u0643\u0630\u0644\u0643": 2892, "\u2581fort": 2893, "\u2581\u0623\u0645\u0633": 2894, "\u00fc": 2895, "\u25812001": 2896, "\u2581\u062e\u064a\u0627\u0631": 2897, "\u2581m\u00f6chten": 2898, "Die": 2899, "\u0641\u064a\u0644": 2900, "\u2581w\u00e4rst": 2901, "\u2581\u0623\u0633\u0631\u0639": 2902, "\u2581\u0628\u0642\u062f\u0631": 2903, "\u2581\u0628\u062a\u0644\u0643": 2904, "\u2581Handy": 2905, "\u2581\u0633\u064a\u062d\u062f\u062b": 2906, "\u2581\u0623\u0631\u0628\u0639\u0629": 2907, "\u0627\u0626\u0643": 2908, "\u2581\u0645\u0644\u0643": 2909, "\u2581vertrauen": 2910, "\u2581cool": 2911, "heit": 2912, "\u2581\u0627\u0644\u0645\u062e\u062f\u0631\u0627\u062a": 2913, "\u2581rede": 2914, "\u2581\u0642\u0633\u0645": 2915, "\u2581U": 2916, "\u2581f\u00e4llt": 2917, "\u2581Haupt": 2918, "\u2581sorgen": 2919, "\u2581heiraten": 2920, "\u0631\u0627\u0645": 2921, "\u2581US": 2922, "\u2581\u062a\u0627\u0631\u064a\u062e": 2923, "\u2581\u0661\u0663": 2924, "\u2581\u0627\u0644\u0645\u0643\u062a\u0628": 2925, "\u2581erkl\u00e4rt": 2926, "\u2581Seele": 2927, "\u2581\u0639\u0642\u062f": 2928, "\u0632\u0644": 2929, "\u2581unterst\u00fctzen": 2930, "isch": 2931, "\u2581H\u00f6rt": 2932, "\u2581gef\u00e4hrlich": 2933, "\u2581\u0635\u0648\u062a": 2934, "\u2581\u0646\u0631\u0649": 2935, "\u2581anfangen": 2936, "\u2581Viele": 2937, "\u00e4": 2938, "\u062f\u062a": 2939, "\u2581Michael": 2940, "\u2581\u0633\u062a\u0629": 2941, "\u2581\u0635\u0639\u0628": 2942, "\u2581schlimmer": 2943, "\u2581\u062c\u0627\u0643": 2944, "\u2581bitten": 2945, "\u2581\u0627\u0644\u0623\u0645": 2946, "\u2581\u0623\u062e\u064a\u0631\u0627": 2947, "\u2581entfernt": 2948, "\u2581\u062a\u0641\u0636\u0644": 2949, "\u0627\u0626\u0647": 2950, "\u2581\u0627\u0644\u0645\u062b\u0627\u0644": 2951, "\u2581\u0627\u0645\u0631": 2952, "die": 2953, "\u2581\u0627\u0647": 2954, "\u2581arbeitet": 2955, "\u062d\u0642\u0627": 2956, "\u2581\u0634\u0639\u0631\u062a": 2957, "\u2581geschrieben": 2958, "\u2581\u062a\u062e\u0631\u062c": 2959, "\u2581\u0625\u0646\u062a\u0638\u0631": 2960, "\u2581\u0627\u0644\u0627\u0642\u062a\u0635\u0627\u062f\u064a\u0629": 2961, "\u2581\u0627\u0644\u062f\u0627\u062e\u0644": 2962, "\u0623\u064a\u0647\u0627": 2963, "\u2581\u0637\u0628\u064a\u0628": 2964, "\u2581Entschuldigen": 2965, "\u2581Papa": 2966, "\u2581stolz": 2967, "\u0643\u0648\u0646": 2968, "\u2581Beziehung": 2969, "\u2581\u0623\u0633\u0648\u0623": 2970, "\u2581Rahmen": 2971, "\u2581n\u00e4her": 2972, "\u2581\u0627\u0639\u062a\u0642\u062f\u062a": 2973, "\u2581\u0628\u0627\u0644\u062a": 2974, "\u2581\u0628\u0639\u0636\u0646\u0627": 2975, "\u2581Wird": 2976, "\u2581\u0628\u0627\u0644\u0644\u0647": 2977, "\u2581\u0628\u0643\u0645": 2978, "\u0627\u0646\u0647": 2979, "\u2581Herrn": 2980, "\u2581m\u00f6gen": 2981, "\u2581\u0627\u0644\u0643\u0644\u0627\u0645": 2982, "\u2581\u0633\u062a\u0641\u0639\u0644": 2983, "\u2581\u0623\u062e\u0628\u0631": 2984, "\u2581\u0631\u062f": 2985, "\u2581\u0631\u0623\u0633": 2986, "\u2581Botschaft": 2987, "\u2581eigene": 2988, "\u2581\u062e\u0637\u0629": 2989, "\u2581\u0627\u0644\u0645\u062d\u0643\u0645\u0629": 2990, "\u2581Ex": 2991, "\u2581Sollte": 2992, "\u2581\u0627\u0644\u0623\u0637\u0631\u0627\u0641": 2993, "\u2581h\u00f6re": 2994, "\u2581\u062f\u0639\u0645": 2995, "ol": 2996, "\u2581\u064a\u0641\u062a\u0631\u0636": 2997, "\u2581\u0627\u0644\u0647\u064a": 2998, "\u062e\u0628\u0631": 2999, "\u2581Ent": 3000, "\u2581\u0623\u0645\u0648\u0631": 3001, "\u2581\u062f\u0644\u064a\u0644": 3002, "\u2581\u0627\u0644\u0627\u062a\u0635\u0627\u0644": 3003, "\u2581\u062a\u062e\u0628\u0631\u0646\u064a": 3004, "Das": 3005, "\u2581Laden": 3006, "\u2581besteht": 3007, "\u2581\u0627\u0644\u0633\u0627\u0628\u0642": 3008, "\u2581\u0639\u062f\u062a": 3009, "\u2581bekommt": 3010, "\u062f\u0648\u0631": 3011, "\u2581stellt": 3012, "\u2581\u0627\u0644\u062c\u0631\u064a\u0645\u0629": 3013, "\u2581Wei\u00df": 3014, "\u2581schicken": 3015, "\u2581Onkel": 3016, "\u2581\u0627\u0644\u062d\u062f": 3017, "\u2581\u0628\u0627\u0644\u0627": 3018, "\u2581\u062a\u0635\u0644": 3019, "\u2581\u062a\u0646\u0638\u0631": 3020, "\u2581\u062b": 3021, "\u2581\u064a\u0623\u062e\u0630": 3022, "\u2581still": 3023, "\u0633\u0648": 3024, "\u2581\u2022": 3025, "\u2581\u0625\u062f\u0627\u0631\u0629": 3026, "\u2581N": 3027, "\u064a\u0628": 3028, "\u2581arbeite": 3029, "\u2581\u0639\u0646\u062f\u064a": 3030, "\u2581Organisation": 3031, "\u0639\u062a": 3032, "\u2581neues": 3033, "\u2581hinaus": 3034, "\u2581\u0641\u0647\u064a": 3035, "\u2581Arschloch": 3036, "*": 3037, "\u2581\u0628\u0639\u062f\u0647\u0627": 3038, "\u2581Wunder": 3039, "\u2581richtige": 3040, "\u2581Reise": 3041, "\u2581Geben": 3042, "\u2581\u064a\u0639\u064a\u0634": 3043, "\u2581\u0627\u0644\u0646\u0645\u0648": 3044, "\u2581behalten": 3045, "\u2581\u0645\u0633\u062a\u0648\u0649": 3046, "\u2581Hochzeit": 3047, "\u062e\u0630": 3048, "\u0645\u0631": 3049, "\u2581\u0627\u0644\u0635\u0648\u0631": 3050, "\u2581\u062d\u0627\u062c\u0629": 3051, "\u2581\u0642\u0636\u064a\u0629": 3052, "\u2581Allah": 3053, "\u2581\u0648\u0636\u0639\u062a": 3054, "\u0648\u0632": 3055, "\u2581\u0627\u0644\u0644\u0642\u0627\u0621": 3056, "\u2581%": 3057, "\u2581Eigentlich": 3058, "\u2581\u0648\u0627\u0644\u062a": 3059, "\u2581\u064a\u0642\u0648\u0644\u0648\u0646": 3060, "\u25812003": 3061, "\u2581\u0638\u0644": 3062, "\u2581Stimme": 3063, "\u2581\u0648\u0643\u064a\u0641": 3064, "\u2581\u0625\u0630\u0647\u0628": 3065, "ren": 3066, "\u2581\u0633\u0627\u0645": 3067, "di": 3068, "ster": 3069, "\u2581George": 3070, "\u2581\u0628\u0627\u0644\u0643\u0627\u0645\u0644": 3071, "\u0645\u0627\u064a\u0643": 3072, "\u2581\u0648\u062c\u062f": 3073, "\u258160": 3074, "\u2581Kontakt": 3075, "\u2581bezahlt": 3076, "\u2581Immer": 3077, "\u2581\u0628\u0636\u0639\u0629": 3078, "\u0627\u0635": 3079, "\u0628\u0646": 3080, "\u2581\u0648\u0633\u064a": 3081, "\u2581\u0628\u0625\u0645\u0643\u0627\u0646\u0643": 3082, "\u2581Monat": 3083, "\u2581Ernst": 3084, "\u2581\u0646\u0642\u0637\u0629": 3085, "\u064a\u0641": 3086, "\u2581\u0628\u0634\u062f\u0629": 3087, "\u2581Leiche": 3088, "\u2581rl": 3089, "\u2581\u0623\u0639\u0644\u0649": 3090, "\u2581\u0628\u0623\u0646\u064a": 3091, "\u2581\u062a\u063a\u064a\u0631": 3092, "\u2581Doktor": 3093, "\u25813.": 3094, "\u2581Christen": 3095, "\u2581\u062a\u0646\u0627\u0648\u0644": 3096, "\u2581Regeln": 3097, "\u2581passt": 3098, "ir": 3099, "\u2581gelernt": 3100, "\u2581\u0648\u062f\u0627\u0639\u0627": 3101, "ul": 3102, "\u2581\u0645\u062d\u0627\u0648\u0644\u0629": 3103, "\u2581\u0645\u0633\u062a\u062d\u064a\u0644": 3104, "\u2581\u0627\u0644\u0641\u0631\u064a\u0642": 3105, "\u2581besch\u00fctzen": 3106, "\u2581folgen": 3107, "\u2581w\u00fcnschte": 3108, "\u2581wartet": 3109, "\u2581d": 3110, "\u2581\u0623\u0637\u0644\u0642": 3111, "\u2581redest": 3112, "\u258123": 3113, "\u062f\u0627\u0631": 3114, "\u2581Gehirn": 3115, "\u2581\u0623\u0628": 3116, "\u2581\u0625\u0637\u0644\u0627\u0642": 3117, "\u2581\u0627\u0644\u0628\u0634\u0631\u064a\u0629": 3118, "\u2581Zeiten": 3119, "\u2581\u0641\u0643": 3120, "\u2581\u0627\u0644\u0647\u062f\u0641": 3121, "\u2581\u064a\u0633\u062a\u062d\u0642": 3122, "\u2581Habt": 3123, "\u2581\u0661\u0667": 3124, "\u0631\u064a\u0646": 3125, "\u0633\u0627\u0639\u062f": 3126, "\u2581\u0648\u0633\u0623": 3127, "\u2581Nehmen": 3128, "\u2581Geb\u00e4ude": 3129, "\u0635\u0627\u0628": 3130, "\u2581Entschuldige": 3131, "\u0643\u064a\u0646": 3132, "\u2581\u0639\u0627\u062f": 3133, "\u0647\u0628": 3134, "\u2581\u0632\u064a\u0627\u062f\u0629": 3135, "\u062a\u0631": 3136, "Was": 3137, "\u25812004": 3138, "\u2581\u0627\u0644\u0642\u0648\u0644": 3139, "ierung": 3140, "\u0634\u0648": 3141, "\u2581H\u00e4tte": 3142, "\u2581\u062a\u0631\u063a\u0628": 3143, "\u2581\u0641\u0636\u0644\u0627": 3144, "\u2581\u0661\u0666": 3145, "\u2581\u0671": 3146, "\u2581Schritt": 3147, "\u2581\u0642\u0645": 3148, "\u2581\u0645\u064a\u0644": 3149, "\u2581\u062a\u0628\u062f\u0623": 3150, "\u2581erneut": 3151, "\u2581\u0627\u0644\u0644\u062d\u0638\u0629": 3152, "\u2581sch\u00fctzen": 3153, "\u2581\u0623\u0628\u062d\u062b": 3154, "\u0645\u0627\u0631\u064a": 3155, "\u2581\u0648\u0647\u0644": 3156, "\u201c,": 3157, "\u2581diejenigen": 3158, "\u2581Druck": 3159, "\u0643\u0631": 3160, "\u2581Paulus": 3161, "\u2581\u0627\u0644\u0641\u0631\u0635\u0629": 3162, "\u2581\u062a\u0645\u0644\u0643": 3163, "\u2581\u0627\u0644\u0623\u0633\u0627\u0633\u064a\u0629": 3164, "\u2581\u0642\u062f\u0645": 3165, "ka": 3166, "\u2581Gericht": 3167, "\u2581\u0623\u0643\u0631\u0647": 3168, "\u2581China": 3169, "\u0639\u0645": 3170, "\u2581\u0644\u062c\u0646\u0629": 3171, "\u2581Aufgabe": 3172, "\u2581\u0627\u0644\u0634\u064a\u0637\u0627\u0646": 3173, "\u2581\u0646\u062c\u062f": 3174, "ze": 3175, "\u2581\u0623\u0631": 3176, "\u2581Wert": 3177, "\u2581\u0627\u0644\u062a\u0639\u0627\u0645\u0644": 3178, "\u2581\u062a\u0623\u0643\u064a\u062f": 3179, "\u2581de": 3180, "\u2581\u0627\u0644\u0633\u0641\u064a\u0646\u0629": 3181, "\u2581verheiratet": 3182, "\u2581\u0627\u0644\u0623\u064a\u0627\u0645": 3183, "\u2581\u062a\u062d\u062f\u064a\u062f": 3184, "\u2581pl\u00f6tzlich": 3185, "\u2581\u062d\u0631\u0628": 3186, "\u2581schlimm": 3187, "\u2581\u0628\u0646\u0641\u0633\u064a": 3188, "\u2581brachte": 3189, "\u2581innerhalb": 3190, "\u2581hey": 3191, "\u2581Eis": 3192, "\u2581Warten": 3193, "\u2581hinten": 3194, "\u2581\u0646\u064a\u0648\u064a\u0648\u0631\u0643": 3195, "\u2581Tat": 3196, "\u0644\u0649": 3197, "it": 3198, "\u2581\u0623\u0631\u0627\u062f": 3199, "\u2581Arm": 3200, "\u2581\u062a\u062c\u0639\u0644": 3201, "Name": 3202, "\u2581Personen": 3203, "\u2581\u0627\u0644\u0645\u0647\u0645": 3204, "kt": 3205, "\u2581\u0627\u0644\u062a\u0627\u0644\u064a\u0629": 3206, "\u2581niemanden": 3207, "\u2581\u0627\u0633": 3208, "\u2581\u0645\u0633\u0623\u0644\u0629": 3209, "\u2581\u0627\u062e\u0631\u062c": 3210, "\u25812002": 3211, "\u2581Finger": 3212, "\u2581\u0642\u0637\u0639\u0629": 3213, "\u2581\u0645\u0633\u0627\u0621": 3214, "\u2581Foto": 3215, "\u2581\u0643\u0644\u0645\u0627": 3216, "\u2581Anwalt": 3217, "\u2581internationale": 3218, "\u0642\u0644": 3219, "\u2581\u0644\u0645\u0646": 3220, "\u2581\u0645\u0631\u0627\u062a": 3221, "\u2581Daten": 3222, "\u2581Wein": 3223, "\u2581\u0627\u062a\u0635\u0644": 3224, "\u2581Max": 3225, "\u2581All": 3226, "\u2581Beweise": 3227, "mann": 3228, "\u2581Idiot": 3229, "\u2581dahin": 3230, "\u2581\u0627\u0644\u0645\u064a\u0627\u0647": 3231, "\u2581Einer": 3232, "\u2581\u0642\u0627\u062a\u0644": 3233, "\u2581euer": 3234, "\u2581\u0635\u0627\u062d\u0628": 3235, "\u2581\u0639\u062f": 3236, "\u2581\u0644\u0628\u0639\u0636": 3237, "\u2581See": 3238, "\u062a\u0648\u0646": 3239, "\u2581\u062f\u0648\u0645\u0627": 3240, "\u258121": 3241, "\u2581\u0627\u0644\u0642\u0627\u062f\u0645": 3242, "\u2581Br\u00fcder": 3243, "\u2581Menschenrechte": 3244, "\u2581\u0636": 3245, "\u2581halte": 3246, "\u2581Daf\u00fcr": 3247, "haus": 3248, "\u2581\u0627\u0644\u0633\u064a\u0637\u0631\u0629": 3249, "\u2581einschlie\u00dflich": 3250, "\u2581Bilder": 3251, "\u2581\u0623\u0637\u0644\u0628": 3252, "\u2581\u0623\u062d\u0636\u0631\u062a": 3253, "\u2581vorsichtig": 3254, "\u2581\u0633\u0628\u0642": 3255, "\u0639\u0646": 3256, "\u2581Behandlung": 3257, "\u2581Peter": 3258, "aus": 3259, "\u0641\u064a\u0646": 3260, "\u2581\u0645\u0641\u0647\u0648\u0645": 3261, "\u2581miteinander": 3262, "U": 3263, "\u2581General": 3264, "\u2581Brief": 3265, "\u2581\u062a\u0624\u0643\u062f": 3266, "\u2581\u0641\u062a": 3267, "\u0633\u0623": 3268, "\u0641\u0627": 3269, "\u2581\u0623\u0646\u062a\u064a": 3270, "\u2581\u062d\u0645\u0627\u064a\u0629": 3271, "\u2581frage": 3272, "\u064a\u0621": 3273, "ger": 3274, "\u2581\u0633\u0644\u0627\u062d": 3275, "\u2581deswegen": 3276, "\u2581\u0631\u0624\u064a\u062a\u0643": 3277, "do": 3278, "\u2581Sekunden": 3279, "00": 3280, "\u2581gemeinsam": 3281, "\u2581schrieb": 3282, "\u2581\u062c\u0631\u064a\u0645\u0629": 3283, "\u2581\u0627\u0644\u0637\u0627\u0626\u0631\u0629": 3284, "\u0637\u0644\u0642": 3285, "\u064a\u062a\u064a": 3286, "\u0645\u0648\u0631": 3287, "\u2581\u0627\u0644\u062c": 3288, "\u2581gutes": 3289, "\u2581\u064a\u0639\u062a\u0642\u062f": 3290, "\u0644\u0648\u0643": 3291, "\u2581Flug": 3292, "\u2581Fu\u00df": 3293, "\u2581\u0627\u0644\u0628\u0644\u062f\u0629": 3294, "\u2581Herren": 3295, "\u2581\u0642\u064a\u0645\u0629": 3296, "\u2581Weile": 3297, "\u2581\u0627\u062a\u062e\u0627\u0630": 3298, "\u2581Vergangenheit": 3299, "\u2581\u0627\u0644\u062a\u0627\u0631\u064a\u062e": 3300, "\u2581Will": 3301, "\u2581\u0639\u0645\u0644\u064a\u0627\u062a": 3302, "th": 3303, "\u0646\u062c": 3304, "\u2581b\u00f6se": 3305, "\u2581Erfolg": 3306, "\u2581\u0623\u0646\u062a\u0638\u0631": 3307, "\u2581\u0627\u0644\u0631\u063a\u0645": 3308, "\u2581Dort": 3309, "\u2581\u0645\u0631\u062d\u0628": 3310, "\u2581\u00e4h": 3311, "\u2581\u0630": 3312, "\u2581\u0638\u0647\u0631": 3313, "\u2581\u0623\u0645\u0631\u0627": 3314, "\u2581Blick": 3315, "\u2581\u0625\u0646\u064a": 3316, "\u2581\u0627\u0644\u0631\u0626\u064a\u0633\u064a": 3317, "\u2581\u0648\u0643\u0627\u0646\u062a": 3318, "\u2581Israel": 3319, "\u2581\u064a\u062a\u0635\u0644": 3320, "\u2581\u062e\u064a\u0631": 3321, "\u2581\u0645\u0635\u062f\u0631": 3322, "\u2581\u062a\u0639\u0627\u0644\u0649": 3323, "\u2581unterwegs": 3324, "\u0631\u062c": 3325, "ler": 3326, "\u2581\u062a\u0639\u062a\u0642\u062f\u064a\u0646": 3327, "\u2581\u0641\u0623\u0646\u062a": 3328, "\u2581\u0627\u0644\u0627\u0648\u0644": 3329, "\u2581\u0648\u0635\u0644": 3330, "\u2581Geschenk": 3331, "\u0642\u0627\u0644": 3332, "\u2581Form": 3333, "\u2581\u0623\u0641\u0631\u064a\u0642\u064a\u0627": 3334, "\u2581ver\u00e4ndert": 3335, "\u2581\u0644\u0643\u0646\u0646\u0627": 3336, "\u2581\u0623\u062e\u0628\u0627\u0631": 3337, "\u2581tief": 3338, "19": 3339, "\u2581besorgt": 3340, "\u2581w\u00fctend": 3341, "\u2581\u0633\u0623\u0642\u0648\u0645": 3342, "\u2581\u0646\u0642\u0644": 3343, "\u2581\u0627\u0644\u0634\u0639\u0648\u0631": 3344, "\u2581Zug": 3345, "\u0628\u064a\u062a": 3346, "\u2581bezahlen": 3347, "\u2581Verbrechen": 3348, "\u2581Einige": 3349, "\u2581Ob": 3350, "\u2581\u0623\u062c\u062f": 3351, "\u2581geh\u00f6ren": 3352, "\u2581\u0627\u0644\u0648": 3353, "\u2581\u0623\u0639\u0648\u062f": 3354, "\u2581Gef\u00fchle": 3355, "keit": 3356, "\u2581Gefallen": 3357, "\u2581\u0634\u0647\u0648\u062f": 3358, "\u2581Eins": 3359, "\u2581\u0648\u0644\u062f": 3360, "\u2581\u0645\u0646\u062a\u0635\u0641": 3361, "\u2581\u0627\u0644\u0647\u0648\u0627\u0621": 3362, "\u2581verkaufen": 3363, "\u2581\u0633\u0623\u0639\u0648\u062f": 3364, "\u2581\u0641\u0644\u0645": 3365, "\u0633\u064a\u0631": 3366, "\u2581\u064a\u0645\u0648\u062a": 3367, "\u2581\u0627\u0644\u0639\u0631\u0636": 3368, "\u2581\u0627\u0644\u0647": 3369, "\u2581\u0648\u0633\u0637": 3370, "\u2581n\u00e4mlich": 3371, "\u2581\u0641\u0641\u064a": 3372, "\u2581\u0635\u0646\u0639": 3373, "\u0627\u0630\u0627": 3374, "\u2581unm\u00f6glich": 3375, "\u2581\u062a\u0642\u0635\u062f": 3376, "\u2581\u0642\u0637\u0639": 3377, "\u062d\u0629": 3378, "\u2581Pr\u00e4sidenten": 3379, "\u2581Minute": 3380, "\u2581Programm": 3381, "\u2581Resolutionen": 3382, "\u2581Klappe": 3383, "\u0628\u0627\u062a": 3384, "\u2581Wohin": 3385, "\u2581\u0627\u0644\u0623\u0628": 3386, "\u2581ansehen": 3387, "\u2581\u0639\u062f\u0627": 3388, "\u2581\u0623\u0647\u062a\u0645": 3389, "\u2581\u0633\u0648\u0627\u0621": 3390, "\u2581Wegen": 3391, "\u2581bewegen": 3392, "\u2581weder": 3393, "\u2581\u0648\u0644\u0643\u0646\u0647\u0627": 3394, "\u2581\u0627\u0644\u0623\u062e\u064a\u0631": 3395, "\u0645\u0643\u0646": 3396, "\u2581\u0627\u0644\u062e\u0637\u0623": 3397, "\u2581\u0627\u0644\u0628\u0644\u0627\u062f": 3398, "\u2581rufe": 3399, "\u2581\u064a\u0635\u0644": 3400, "\u2581verantwortlich": 3401, "los": 3402, "\u2581\u0627\u0644\u0642\u062f\u064a\u0645": 3403, "\u2581\u0642\u0644\u0628": 3404, "\u2581\u0627\u0644\u0635\u062d\u064a\u062d": 3405, "\u2581gestohlen": 3406, "\u0628\u0627\u0646": 3407, "\u2581\u0632\u064a": 3408, "\u2581\u062d\u0641\u0644\u0629": 3409, "\u2581\u0637\u0627\u0644\u0645\u0627": 3410, "\u2581\u062d\u0642\u064a\u0642\u064a\u0629": 3411, "\u2581f": 3412, "\u2581Einsatz": 3413, "\u2581\u0627\u0644\u0642\u0627\u0626\u0645\u0629": 3414, "\u2581R\u00fccken": 3415, "\u2581\u0627\u0644\u063a": 3416, "\u2581\u0627\u0644\u0642\u062a\u0644": 3417, "\u2581daher": 3418, "\u2581\u0647\u0630\u0629": 3419, "\u2581\u0627\u0633\u0645\u0643": 3420, "\u0628\u0627\u0631": 3421, "\u2581\u0623\u062d\u0635\u0644": 3422, "\u2581\u0631\u0623\u064a\u062a\u0647": 3423, "\u2581\u062b\u0645\u0629": 3424, "\u25812006": 3425, "\u2581\u0627\u0644\u0627\u0645\u0648\u0631": 3426, "\u2581\u0645\u0648\u062a": 3427, "\u0648\u0646\u0647": 3428, "\u2581\u0635\u0648\u0631": 3429, "\u2581\u00c4h": 3430, "\u2581\u0661\u0668": 3431, "\u2581f\u00fchlt": 3432, "\u2581\u0623\u0645\u0644\u0643": 3433, "\u2581\u062f\u0639\u064a\u0646\u064a": 3434, "\u2581\u0628\u0625\u0645\u0643\u0627\u0646\u064a": 3435, "\u2581Raus": 3436, "\u2581gelesen": 3437, "\u2581besch\u00e4ftigt": 3438, "\u2581steckt": 3439, "\u2581\u0627\u0628\u064a": 3440, "\u2581\u0627\u0644\u0645\u0647\u0645\u0629": 3441, "\u0644\u0633\u062a": 3442, "\u2581Schlaf": 3443, "\u2581\u0645\u0639\u0646\u0649": 3444, "\u2581nennt": 3445, "\u2581\u0627\u0644\u0631\u0626\u064a\u0633\u064a\u0629": 3446, "\u2581\u062a\u0642\u0644": 3447, "\u0623\u062a": 3448, "\u25814.": 3449, "\u2581\u0642\u0644\u0642": 3450, "\u2581Natur": 3451, "ko": 3452, "\u2581\u0627\u0644\u064a\u0647": 3453, "\u2581\u062a\u0639\u0644\u0645\u0648\u0646": 3454, "\u2581fliegen": 3455, "\u2581tu": 3456, "\u2581Sonst": 3457, "\u2581Firma": 3458, "\u2581\u0645\u0648\u0642\u0641": 3459, "\u2581\u0648\u0644\u0643\u0646\u0643": 3460, "\u0639\u064a\u062f": 3461, "\u2581\u062d\u0628\u064a\u0628\u062a\u064a": 3462, "\u2581\u062a\u0645\u0648\u062a": 3463, "\u2581G\u00fcte": 3464, "\u2581\u0627\u0644\u0642\u0635\u0629": 3465, "\u0641\u064a\u0631": 3466, "\u2581Schnell": 3467, "\u2581Ehre": 3468, "\u2581\u0627\u0644\u0642\u0644\u0628": 3469, "ve": 3470, "\u2581V": 3471, "\u2581\u0623\u0642\u0633\u0645": 3472, "\u2581\u0633\u0645\u0627\u0639": 3473, "\u2581\u0636\u0645\u0646": 3474, "\u2581\u201c.": 3475, "\u2581Alex": 3476, "\u2581obwohl": 3477, "\u2581\u0627\u0644\u062b\u0627\u0644\u062b": 3478, "\u2581Rede": 3479, "\u2581\u0627\u0644\u062c\u0648": 3480, "\u2581Einzige": 3481, "\u2581Vertrauen": 3482, "\u2581unbedingt": 3483, "\u2581\u062d\u0627\u0644\u064a\u0627": 3484, "\u2581rufen": 3485, "\u2581\u0627\u0644\u0634\u0627\u0631\u0639": 3486, "\u2581\u0642\u0648\u064a": 3487, "\u2581\u0634\u0631\u0637\u0629": 3488, "\u2581\u0623\u0646\u0646\u0649": 3489, "\u062d\u0627\u0648\u0644": 3490, "\u2581meinte": 3491, "\u2581\u0646\u0637\u0627\u0642": 3492, "\u2581\u0627\u0644\u0646\u0648\u0648\u064a\u0629": 3493, "\u0641\u0648": 3494, "\u2581Verzeihung": 3495, "\u2581\u0623\u0647\u0644": 3496, "\u062c\u0646": 3497, "\u2581deines": 3498, "\u2581\u062d\u064a\u0627\u062a\u0647": 3499, "\u2581\u0632\u0648\u062c\u062a\u0643": 3500, "\u0631\u0627\u064a": 3501, "\u2581\u0635\u0641": 3502, "\u2581Interesse": 3503, "\u2581\u0646\u0638\u0631": 3504, "\u2581klein": 3505, "\u2581Augenblick": 3506, "\u2581\u062c\u0632\u064a\u0644\u0627": 3507, "\u2581Denken": 3508, "\u2581Engel": 3509, "\u2581Super": 3510, "\u2581\u0628\u0627\u0628": 3511, "\u2581r\u00fcber": 3512, "\u2581gearbeitet": 3513, "\u2581\u064a\u0646\u062a\u0647\u064a": 3514, "\u2581\u062a\u062f\u062e\u0644": 3515, "\u2581\u0627\u0644\u0631\u0633\u0648\u0644": 3516, "\u2581\u0639\u0645\u0644\u062a": 3517, "\u2581\u0627\u0644\u0645\u062d\u062a\u0645\u0644": 3518, "\u0631\u0628\u0645\u0627": 3519, "\u2581bewusst": 3520, "ation": 3521, "\u2581alter": 3522, "\u2581\u0622\u0647": 3523, "\u2581\u062a\u0628\u062d\u062b": 3524, "\u2581geboren": 3525, "\u2581\u0623\u0634\u062e\u0627\u0635": 3526, "\u2581Freiheit": 3527, "\u0647\u0646\u0627\u0643": 3528, "\u2581\u0627\u0644\u0627\u0642\u062a\u0635\u0627\u062f": 3529, "\u064a\u0639": 3530, "\u062d\u0642": 3531, "\u2581bekam": 3532, "\u2581\u0627\u0644\u062b\u0627\u0644\u062b\u0629": 3533, "\u062a\u0648\u0642\u0641": 3534, "\u2581\u0627\u0644\u0627\u0634\u064a\u0627\u0621": 3535, "\u2581\u064a\u0645\u0644\u0643": 3536, "\u2581200": 3537, "\u2581Klasse": 3538, "\u2581Flugzeug": 3539, "\u2581\u0648\u0627\u0644\u062f": 3540, "\u2581Freude": 3541, "\u2581\u0635\u062d": 3542, "\u2581Zahl": 3543, "\u2581\u00c4rger": 3544, "\u2581erwarten": 3545, "\u2581\u0636\u0639": 3546, "\u2581Gemeinschaft": 3547, "\u2581Bier": 3548, "\u2581Liebling": 3549, "\u2581\u0627\u0628\u0646\u064a": 3550, "\u0641\u0643": 3551, "\u2581\u0627\u0644\u0645\u0631": 3552, "\u2581Unfall": 3553, "Ja": 3554, "\u2581statt": 3555, "\u2581Hotel": 3556, "\u2581entscheiden": 3557, "\u2581Besuch": 3558, "\u2581\u0628\u0627\u0644\u0623": 3559, "\u2581\u0645\u062d\u0644": 3560, "\u2581\u0641\u064a\u0644\u0645": 3561, "\u2581zer": 3562, "\u2581\u0627\u0644\u062f\u0643\u062a\u0648\u0631": 3563, "\u2581\u0643\u0646\u062a\u0645": 3564, "\u2581\u0627\u0644\u0642\u0627\u0626\u062f": 3565, "\u2581Kirche": 3566, "\u2581schneller": 3567, "\u2581Anruf": 3568, "\u2581Joe": 3569, "\u2581Mo": 3570, "\u2581ran": 3571, "\u2581\u0627\u0644\u062d\u0627\u0644\u064a": 3572, "\u2581\u0643\u064a\u0641\u064a\u0629": 3573, "\u2581\u0648\u0647\u0646\u0627\u0643": 3574, "V": 3575, "\u2581weiteren": 3576, "\u0644\u0648\u0646": 3577, "\u2581\u0627\u0633\u0641": 3578, "\u2581pers\u00f6nlich": 3579, "\u2581Hol": 3580, "\u2581\u0645\u0646\u0639": 3581, "\u2581\u0627\u0644\u0639\u062b\u0648\u0631": 3582, "\u2581\u0628\u062f\u0627\u064a\u0629": 3583, "\u2581anderem": 3584, "\u2581leisten": 3585, "\u0627\u062a\u064a": 3586, "\u2581perfekt": 3587, "\u0648\u0637": 3588, "\u2581\u0623\u0639\u062f\u0643": 3589, "\u2581neben": 3590, "\u2581\u0627\u0646\u062a\u0638\u0631\u064a": 3591, "\u2581\u0648\u0631\u0628\u0645\u0627": 3592, "\u2581Mary": 3593, "\u2581\u0627\u0644\u0635\u0641": 3594, "\u2581zuvor": 3595, "\u2581offensichtlich": 3596, "\u2581\u0628\u0623\u0646\u0646\u0627": 3597, "\u2581Bescheid": 3598, "\u2581\u0628\u0646\u0641\u0633": 3599, "\u2581\u0623\u0633\u0641\u0644": 3600, "\u2581gleichen": 3601, "\u2581\u0627\u0644\u0643\u0628\u064a\u0631\u0629": 3602, "\u2581\u0648\u0643\u0646\u062a": 3603, "\u2581halt": 3604, "\u0648\u0627\u0644": 3605, "\u2581zerst\u00f6rt": 3606, "\u0645\u064a\u0631": 3607, "\u2581\u062a\u064a": 3608, "ent": 3609, "\u2581L\u00f6sung": 3610, "\u2581\u0622\u0646\u0633\u0629": 3611, "\u2581\u0648\u0644\u0643\u0646\u0646\u064a": 3612, "\u2581\u0648\u0625\u0644\u0627": 3613, "\u2581\u0645\u0646\u0638\u0645\u0629": 3614, "\u2581\u0642\u0627\u0645\u062a": 3615, "\u2581Juni": 3616, "\u2581Seht": 3617, "\u2581Fleisch": 3618, "\u2581\u0627\u0633\u0645\u064a": 3619, "\u2581\u0645\u0627\u0644": 3620, "\u2581\u0641\u062a\u062d": 3621, "ard": 3622, "\u2581dumm": 3623, "\u2581\u064a\u0643\u0648\u0646\u0648\u0627": 3624, "\u2581\u0627\u0644\u062f\u064a\u0646": 3625, "\u2581Detective": 3626, "\u0642\u064a": 3627, "\u2581La": 3628, "\u2581Tier": 3629, "\u2581versprochen": 3630, "\u2581Henry": 3631, "\u2581\u0627\u0630": 3632, "\u0633\u064a\u062f": 3633, "\u2581hole": 3634, "\u2581\u0645\u0631\u064a\u0636": 3635, "\u2581Verantwortung": 3636, "\u2581laut": 3637, "\u2581\u0627\u062a\u0641\u0642\u0646\u0627": 3638, "\u2581\u0635\u062f\u064a\u0642\u0643": 3639, "\u2581\u0637\u0648\u064a\u0644\u0627": 3640, "\u062a\u0648\u0645": 3641, "\u2581\u062d\u0641\u0644": 3642, "\u2581\u0642\u0648\u064a\u0629": 3643, "\u2581ewig": 3644, "\u2581\u0625\u0637\u0627\u0631": 3645, "\u2581Mich": 3646, "\u25810": 3647, "\u2581\u0627\u0644\u062f\u0645\u0627\u0621": 3648, "\u2581\u0641\u0647\u0630\u0627": 3649, "liche": 3650, "\u2581Thema": 3651, "\u2581unglaublich": 3652, "\u2581\u0634\u0627\u0647\u062f": 3653, "...\"": 3654, "\u2581Karte": 3655, "\u2581\u0643\u0628\u064a\u0631\u0627": 3656, "\u2581\u062a\u0638\u0647\u0631": 3657, "\u2581\u0627\u0644\u0633\u064a\u0627\u0633\u064a\u0629": 3658, "\u2581Jesu": 3659, "\u2581\u0623\u062a\u0639\u0644\u0645\u064a\u0646": 3660, "\u2581\u062d\u0641\u0638": 3661, "ah": 3662, "\u2581\u064a\u0634\u0639\u0631": 3663, "\u0639\u064a\u0646": 3664, "\u2581Europa": 3665, "50": 3666, "\u2581allerdings": 3667, "\u2581\u0634\u0639\u0648\u0631": 3668, "\u2581\u0627\u0643\u0648\u0646": 3669, "\u2581Egal": 3670, "\u2581Sonne": 3671, "\u2581\u0628\u0635\u0648\u0631\u0629": 3672, "\u2581\u062a\u0634\u0631\u064a": 3673, "\u2581Zur\u00fcck": 3674, "\u2581W\u00e4hrend": 3675, "\u2581\u062e\u062f\u0645\u0629": 3676, "\u2581Bedeutung": 3677, "\u2581Wen": 3678, "\u2581geredet": 3679, "\u2581Amerika": 3680, "9": 3681, "\u2581\u0627\u0642\u0648\u0644": 3682, "\u2581\u0662\u0660": 3683, "\u0627\u0626\u064a\u0629": 3684, "\u2581\u0627\u0649": 3685, "\u2581solange": 3686, "\u2581\u0627\u0644\u0639\u064a\u0634": 3687, "\u2581\u0627\u0644\u062f\u0648\u0644\u0629": 3688, "\u2581Seiten": 3689, "schaft": 3690, "\u2581herausfinden": 3691, "\u0631\u0647": 3692, "\u2581Wiedersehen": 3693, "\u2581\u0631\u0623\u0633\u0643": 3694, "\u2581namens": 3695, "\u2581m\u00fcsste": 3696, "\u2581junge": 3697, "\u2581K\u00f6nigreich": 3698, "\u00e9": 3699, "\u2581Sekunde": 3700, "mm": 3701, "\u2581\u0627\u0644\u0646\u0627\u0645\u064a\u0629": 3702, "\u2581super": 3703, "\u2581\u0627\u0644\u062f\u0639\u0645": 3704, "\u2581Landes": 3705, "\u2581gestellt": 3706, "\u2581richtigen": 3707, "\u2581\u201c,": 3708, "\u2581Zusammenhang": 3709, "\u2581\u0627\u0644\u0645\u0633\u062a\u0634\u0641\u0649": 3710, "\u2581\u0671\u0644\u0644\u0647": 3711, "ha": 3712, "\u2581\u064a\u0645\u0643\u0646\u0646\u0649": 3713, "\u2581\u0647\u0631\u0627\u0621": 3714, "\u2581\u064a\u0639\u0631\u0641\u0648\u0646": 3715, "\u2581m\u00fcsst": 3716, "\u2581\u062a\u0628\u062f\u064a\u0646": 3717, "\u2581\u062a\u0631\u064a": 3718, "\u2581Insel": 3719, "\u2581\u062a\u0642\u062a\u0644": 3720, "\u2581\u0627\u0644\u0641\u062a\u0631\u0629": 3721, "\u2581\u062c\u0627\u0647\u0632": 3722, "\u0645\u0644": 3723, "\u2581politischen": 3724, "\u2581\u0645\u0636\u0649": 3725, "\u2581\u0628\u0648\u0644": 3726, "\u2581Obwohl": 3727, "\u2581\u062a\u0644\u0627\u062d\u0638": 3728, "os": 3729, "\u2581Meister": 3730, "\u2581\u062a\u0641\u0639\u0644\u064a": 3731, "mo": 3732, "\u2581\u0633\u0646\u0630\u0647\u0628": 3733, "\u2581Geburtstag": 3734, "\u0628\u0639\u062f": 3735, "\u2581\u0648\u0627\u0646": 3736, "\u2581\u0631\u062d\u0644\u0629": 3737, "\u2581erledigt": 3738, "\u2581Erst": 3739, "zeit": 3740, "\u2581\u062a\u062a\u0630\u0643\u0631": 3741, "\u2581Anstrengungen": 3742, "\u2581\u0634\u0639\u0631": 3743, "\u2581\u064a\u0642\u062f\u0645": 3744, "\u2581\u0627\u0644\u0634\u0631": 3745, "\u2581\u0627\u0644\u0634\u0626": 3746, "zen": 3747, "\u2581\u0627\u0644\u0633\u0646": 3748, "\u2581\u0644\u062d\u0645": 3749, "\u2581\u0648\u0633\u062a": 3750, "\u2581Geheimnis": 3751, "\u2581\u0637\u0628\u0639\u0627": 3752, "\u2581\u0641\u0645\u0627": 3753, "as": 3754, "\u2581\u062a\u0633\u062a\u062e\u062f\u0645": 3755, "Be": 3756, "\u2581verdammte": 3757, ")\"": 3758, "\u2581\u0627\u062d\u0628": 3759, "ly": 3760, "\u2581\u062d\u064a\u0646\u0647\u0627": 3761, "\u2581\u0627\u0644\u0642\u064a\u0627\u062f\u0629": 3762, "\u0642\u062a\u0644": 3763, "\u0633\u0627\u0646": 3764, "\u2581\u0633\u0639\u064a\u062f\u0627": 3765, "\u2581\u0646\u062a\u064a\u062c\u0629": 3766, "\u2581\u0645\u0644\u0641": 3767, "Er": 3768, "\u2581deutlich": 3769, "\u062d\u062a": 3770, "\u2581beweisen": 3771, "\u2581\u0627\u0644\u062c\u0647\u0648\u062f": 3772, "\u0639\u0644": 3773, "\u2581gewonnen": 3774, "\u2581\u0644\u0644\u0625": 3775, "\u2581ans": 3776, "\u2581einigen": 3777, "\u2581\u062a\u062d\u062f\u062b\u062a": 3778, "\u063a\u064a\u0631": 3779, "\u2581Milit\u00e4r": 3780, "\u2581\u062e\u0627\u0626\u0641": 3781, "\u2581\u0645\u0627\u0632\u0644\u062a": 3782, "\u0628\u0627": 3783, "\u2581entschuldigen": 3784, "\u2581Hunger": 3785, "tz": 3786, "\u2581Lady": 3787, "\u2581suche": 3788, "\u2581H\u00e4lfte": 3789, "\u2581\u062d\u062f\u0648\u062f": 3790, "Y": 3791, "\u2581mussten": 3792, "\u2581Treffen": 3793, "\u2581Deal": 3794, "\u2581\u062f\u0631\u062c\u0629": 3795, "\u2581\u0641\u0639\u0644\u0647\u0627": 3796, "\u2581El": 3797, "\u2581\u0623\u064a\u0645\u0643\u0646\u0643": 3798, "\u0633\u0646\u0627": 3799, "\u2581Denk": 3800, "\u2581\u0645\u064a\u0644\u0627\u062f": 3801, "\u0648\u064a\u0629": 3802, "\u2581\u062a\u062d\u0631\u0643": 3803, "\u2581Sicherheitsrat": 3804, "\u2581lag": 3805, "\u2581Chef": 3806, "\u2581Zugang": 3807, "\u2581sobald": 3808, "\u2581Vaters": 3809, "\u2581\u0634\u0648": 3810, "\u2581\u0645\u0636\u062d\u0643": 3811, "ic": 3812, "\u2581sitzt": 3813, "\u063a\u0631": 3814, "\u25818.": 3815, "\u2581Tor": 3816, "\u2581Boot": 3817, "\u2581\u0637\u0639\u0627\u0645": 3818, "\u0623\u0639\u062a\u0642\u062f": 3819, "\u2581s\u00fc\u00df": 3820, "\u2581aussehen": 3821, "\u2581\u0628\u0627\u0644\u0625": 3822, "\u2581Regierungen": 3823, "\u2581Befehl": 3824, "\u2581\u0642\u0627\u0644\u0648\u0627": 3825, "zi": 3826, "\u2581\u0632\u0648\u062c\u064a": 3827, "\u2581\u0623\u0631\u0633\u0644": 3828, "\u2581Witz": 3829, "\u2581stirbt": 3830, "\u2581\u064a\u062e\u0631\u062c": 3831, "\u2581Wahrscheinlich": 3832, "\u2581gro\u00dfartig": 3833, "\u0631\u062f": 3834, "pf": 3835, "\u2581entschieden": 3836, "\u2581\u0645\u0645\u062a\u0627\u0632": 3837, "pa": 3838, "\u2581erwischt": 3839, "\u2581genannt": 3840, "\u2581vermisst": 3841, "\u2581Risiko": 3842, "\u2581\u0648\u0627\u062b\u0642": 3843, "Sch": 3844, "\u2581\u0639\u0646\u062f\u0643": 3845, "\u2581Sicherheits": 3846, "\u0633\u062a\u0637\u064a\u0639": 3847, "\u2581leider": 3848, "\u2581$": 3849, "\u062f\u064a\u0644": 3850, "\u2581Gar": 3851, "\u2581sieh": 3852, "\u2581\u0645\u0634\u0631\u0648\u0639": 3853, "\u2581\u0623\u0645\u0644": 3854, "\u062a\u0634": 3855, "\u2581wach": 3856, "\u0627\u0646\u064a\u0629": 3857, "\u2581\u0627\u0644\u062f\u064a\u0645\u0642\u0631\u0627\u0637\u064a\u0629": 3858, "\u2581\u0623\u0646\u062d\u0627\u0621": 3859, "\u063a\u064a": 3860, "\u062b\u0645": 3861, "\u2581verkauft": 3862, "\u2581\u0625\u0646\u0642\u0627\u0630": 3863, "\u0641\u0642\u0637": 3864, "sa": 3865, "\u2581Riesen": 3866, "\u0643\u0648": 3867, "\u2581wenigstens": 3868, "ri": 3869, "\u2581\u0645\u0627\u0632\u0627\u0644": 3870, "\u2581Keiner": 3871, "\u2581geliebt": 3872, "\u2581\u0643\u0627\u0645\u0644\u0629": 3873, "\u2581Internationalen": 3874, "\u2581Respekt": 3875, "\u2581\u0622\u064a": 3876, "\u2581\u064a\u0642\u062a\u0644": 3877, "\u2581traurig": 3878, "\u2581erinnert": 3879, "\u2581\u064a\u0638\u0647\u0631": 3880, "\u2581\u062a\u0648\u0642\u0641\u064a": 3881, "Ver": 3882, "\u0623\u0631\u064a\u062f": 3883, "\u2581\u0627\u0644\u0623\u0631\u062c\u062d": 3884, "\u2581hinein": 3885, "\u2581\u0631\u0648\u062d": 3886, "\u2581Bring": 3887, "\u2581Lauf": 3888, "\u2581legen": 3889, "\u2581\u201d": 3890, "\u2581\u0627\u0644\u062f\u0641\u0627\u0639": 3891, "\u062a\u0644": 3892, "\u2581\u0627\u0644\u0632": 3893, "\u2581\u062d\u0631": 3894, "\u2581\u0627\u0644\u063a\u062f": 3895, "\u2581geholfen": 3896, "\u2581\u0627\u0644\u062d\u064a": 3897, "\u2581Schwierigkeiten": 3898, "\u2581\u0623\u0639\u0631\u0641\u0647": 3899, "\u2581\u0623\u062e\u0628\u0631\u062a": 3900, "\u062c\u0644": 3901, "\u0632\u0631": 3902, "\u2581\u0633\u0645\u062d\u062a": 3903, "\u0641\u0631\u0627\u0646\u0643": 3904, "\u2581zweite": 3905, "\u2581\u0628\u062c\u0627\u0646\u0628": 3906, "\u2581\u0623\u062c\u0644\u0643": 3907, "\u2581erreicht": 3908, "\u2581\u0623\u062d\u0645\u0642": 3909, "\u2581Versammlung": 3910, "\u2581irgendetwas": 3911, "\u2581\u0623\u062b\u0631": 3912, "\u2581kalt": 3913, "\u2581Armee": 3914, "\u2581\u062d\u0643\u0648\u0645\u0629": 3915, "\u2581beginnen": 3916, "\u2581Wald": 3917, "\u2581\u0627\u0644\u0643\u0644": 3918, "\u2581\u0635\u0644": 3919, "\u2581\u0633\u0646\u0643\u0648\u0646": 3920, "\u2581ermordet": 3921, "\u2581\u0627\u0645\u064a": 3922, "\u2581\u0644\u0623\u0646\u0646\u0627": 3923, "\u2581\u0643\u0631\u0629": 3924, "\u2581\u0648\u0628\u0639\u062f\u0647\u0627": 3925, "ry": 3926, "\u2581letzter": 3927, "\u2581\u062a\u062f\u0641\u0639": 3928, "\u2581\u0643\u0644\u0645\u0627\u062a": 3929, "\u2581Denkst": 3930, "\u2581\u0627\u0644\u0633\u0646\u0648\u0627\u062a": 3931, "\u2581\u0627\u0644\u0644\u0639\u0628\u0629": 3932, "fe": 3933, "\u062d\u0627\u0644": 3934, "\u2581Patienten": 3935, "\u2581Seid": 3936, "\u2581Tee": 3937, "\u2581verschwunden": 3938, "\u2581dienen": 3939, "\u062c\u064a\u062f": 3940, "\u2581\u0627\u0644\u0645\u0648\u0627\u0631\u062f": 3941, "\u2581\u0623\u0639": 3942, "\u2581\u0623\u0628\u062f": 3943, "\u2581\u062a\u0633\u0645\u0639": 3944, "\u2581\u062a\u062a\u0631\u0643": 3945, "\u0631\u064a\u0633": 3946, "\u2581ge\u00e4ndert": 3947, "\u2581\u0627\u0644\u0623\u062e\u0628\u0627\u0631": 3948, "\u0638\u0647\u0631": 3949, "\u2581\u0627\u0644\u0645\u0627\u062f\u0629": 3950, "\u2581\u0627\u0644\u0648\u063a\u062f": 3951, "\u2581\u0633\u064a\u0645\u0627": 3952, "\u2581\u0627\u0644\u0643\u0644\u0645\u0627\u062a": 3953, "\u0645\u0643\u0646\u0643": 3954, "\u2581schlagen": 3955, "\u2581hielt": 3956, "\u063a\u0648": 3957, "\u2581\u0627\u0644\u0631\u0633\u0627\u0644\u0629": 3958, "\u2581\u064a\u0633\u0645\u062d": 3959, "\u2581Stellen": 3960, "\u2581K\u00f6nnte": 3961, "\u2581absolut": 3962, "\u2581dasselbe": 3963, "\"!": 3964, "\u0628\u0631\u064a": 3965, "\u2581\u0644\u0637\u064a\u0641\u0629": 3966, "\u2581gesucht": 3967, "\u2581Dem": 3968, "\u2581Paul": 3969, "\u2581\u0642\u0631\u0631\u062a": 3970, "\u0645\u0648\u0646": 3971, "\u2581\u0639\u0630\u0631\u0627": 3972, "\u2581Video": 3973, "\u2581\u0625\u0633\u062a": 3974, "\u2581F\u00f6rderung": 3975, "\u0645\u0648": 3976, "\u0627\u0626\u0647\u0627": 3977, "\u2581Le": 3978, "\u2581\u0627\u0644\u0634\u0639\u0628": 3979, "\u2581\u0647\u0646": 3980, "\u0633\u0645": 3981, "\u2581Zeitpunkt": 3982, "\u2581\u0625\u0644\u064a\u0646\u0627": 3983, "\u202c": 3984, "\u2581\u0627\u0644\u062c\u064a\u0634": 3985, "\u2581\u00f6ffnen": 3986, "Du": 3987, "\u0648\u0647\u0645": 3988, "\u2581\u0627\u0644\u0628\u0644\u062f": 3989, "\u2581\u0648\u0628\u064a\u0646": 3990, "\u258115.": 3991, "\u2581\u0634\u0628\u0627\u0628": 3992, "\u2581Ausdruck": 3993, "\u0628\u0647": 3994, "\u0643\u0633": 3995, "\u2581Weiter": 3996, "\u2581schauen": 3997, "\u25815.": 3998, "\u2581\u0627\u0644\u0645\u064a\u0644\u0627\u062f": 3999, "\u2581nieder": 4000, "ben": 4001, "\u0628\u0642\u064a": 4002, "\u2581Einklang": 4003, "\u2581\u00fcberrascht": 4004, "\u2581\u0627\u0644\u062d\u064a\u0648\u0627\u0646\u0627\u062a": 4005, "\u2581hei\u00df": 4006, "\u2581\u0627\u0644\u0639\u0645\u0631": 4007, "\u2581Gutes": 4008, "\u2581aufhalten": 4009, "\u2581\u064a\u062f\u0641\u0639": 4010, "\u2581Wovon": 4011, "\u2581Tasche": 4012, "\u062f\u0647": 4013, "\u2581\u0641\u062c\u0623\u0629": 4014, "\u2581Naja": 4015, "\u2581\u0644\u0644\u062d\u0635\u0648\u0644": 4016, "\u2581\u00fcbrig": 4017, "\u2581\u0628\u0627\u0644\u063a": 4018, "\u2581\u0627\u0644\u0642\u0647\u0648\u0629": 4019, "\u2581\u0645\u0646\u0632\u0644\u064a": 4020, "\u2581Manche": 4021, "\u2581gehabt": 4022, "\u2581\u0627\u0644\u062d\u062f\u0648\u062f": 4023, "\u0646\u0638\u0631": 4024, "\u2581\u0642\u0627\u0626\u062f": 4025, "\u2581sch\u00f6ne": 4026, "\u2581sauer": 4027, "\u2581Bo": 4028, "\u2581Uns": 4029, "\u2581\u062a\u0646\u062a\u0638\u0631": 4030, "\u2581gleiche": 4031, "\u2581komisch": 4032, "\u2581\u064a\u0634\u0643\u0644": 4033, "\u2581\u063a\u0628\u064a": 4034, "\u2581\u0625\u062d\u062f\u0649": 4035, "\u2581bisher": 4036, "\u2581\u0645\u0648\u0636\u0648\u0639": 4037, "\u0641\u0649": 4038, "\u2581\u062f\u064a\u0646": 4039, "\u2581\u0634\u062f\u064a\u062f": 4040, "\u2581\u0639\u0645\u0644\u0643": 4041, "\u2581\u0646\u0639\u0645\u0644": 4042, "\u0631\u0633": 4043, "000": 4044, "\u2581\u0637\u0648\u0644": 4045, "ho": 4046, "\u2581\u062d\u0643\u0645": 4047, "\u2581\u0627\u0644\u0642\u0627\u062a\u0644": 4048, "\u2581\u0647\u062f\u0641": 4049, "\u2581namentlich": 4050, "\u0627\u062b": 4051, "\u2581\u064a\u0645\u0643\u0646\u0647\u0627": 4052, "\u2581Nick": 4053, "\u2581schw\u00f6re": 4054, "\u2581\u0627\u0644\u0631\u0642\u0645": 4055, "\u2581gekauft": 4056, "\u00df": 4057, "\u2581\u0623\u0646\u062a\u0645\u0627": 4058, "\u2581\u0645\u0627\u062a\u062a": 4059, "\u2581Schmerz": 4060, "\u2581\u0628\u0644\u062f\u0627\u0646": 4061, "\u2581davor": 4062, "\u2581ungef\u00e4hr": 4063, "\u2581\u0627\u0644\u0644\u0627\u0632\u0645\u0629": 4064, "\u2581\u0627\u0644\u0641\u0643\u0631\u0629": 4065, "\u0627\u0644\u0635\u0648\u0631\u0629": 4066, "\u2581000": 4067, "ier": 4068, "\u2581gelassen": 4069, "\u0628\u0639": 4070, "\u2581Prozess": 4071, "\u2581\u064a\u0647\u062a\u0645": 4072, "\u2581\u0623\u062e": 4073, "\u0645\u0643": 4074, "\u2581neuer": 4075, "ling": 4076, "\u2581Haut": 4077, "\u2581\u062f\u0648\u0644": 4078, "ut": 4079, "\u2581\u0627\u0644\u0633\u0644\u0637\u0629": 4080, "\u2581\u0627\u0645\u0627": 4081, "\u062f\u064a\u0631": 4082, "\u062d\u062f": 4083, "\u2581Politik": 4084, "ungs": 4085, "\u2581Tun": 4086, "\u062d\u064a": 4087, "\u2581\u0623\u0633\u0627\u0628\u064a\u0639": 4088, "\u2581Gespr\u00e4ch": 4089, "\u2581darfst": 4090, "\u2581\u0648\u0638\u064a\u0641\u0629": 4091, "\u2581\u0628\u0644\u0649": 4092, "\u2581\u062f\u0648\u0644\u0629": 4093, "\u2581\u0627\u0644\u062f\u0627\u062e\u0644\u064a\u0629": 4094, "\u2581\u0627\u0644\u0644\u0639\u064a\u0646\u0629": 4095, "\u2581\u0644\u0637\u0627\u0644\u0645\u0627": 4096, "\u2581verstehst": 4097, "\u2581Ko": 4098, "\u2581\u0628\u0627\u0644\u0639\u0645\u0644": 4099, "\u2581\u0645\u062b\u0644\u0627": 4100, "\u0628\u0648\u0628": 4101, "\u062c\u0627\u0631": 4102, "\u2581Ebene": 4103, "\u2581Rechte": 4104, "\u2581\u062c\u0627\u062f": 4105, "\u2581\u0622\u062e\u0630": 4106, "\u2581Gelegenheit": 4107, "\u2581nutzen": 4108, "\u2581Meer": 4109, "\u0646\u064a\u0643": 4110, "\u2581verraten": 4111, "\u2581\u0639\u0627\u0626\u0644\u062a\u064a": 4112, "\u0627\u0644\u0629": 4113, "\u062c\u0627\u0646": 4114, "\u2581\u0648\u062d\u062a\u0649": 4115, "\u2581wussten": 4116, "\u0627\u0626\u0644": 4117, "ft": 4118, "\u2581\u0623\u0633\u0628\u0648\u0639": 4119, "\u2581\u0633\u0648\u064a\u0627": 4120, "20": 4121, "\u2581Christus": 4122, "v": 4123, "\u2581\u0623\u062e\u0634\u0649": 4124, "\u2581\u0623\u062f\u062e\u0644": 4125, "iere": 4126, "\u2581Juli": 4127, "\u2581\u062a\u0645\u0627\u0645": 4128, "\u2581\u0633\u0627\u0628\u0642\u0627": 4129, "\u2581\u0648\u0627\u0644\u062f\u062a\u0643": 4130, "\u2581\u0645\u0624\u062a\u0645\u0631": 4131, "\u2581\u062c\u062f\u0648\u0644": 4132, "\u2581\u0632\u0645\u0646": 4133, "\u2581abge": 4134, "\u0648\u0649": 4135, "\u2581\u0645\u0632\u064a\u062f": 4136, "\u2581Je": 4137, "\u2581Park": 4138, "kommen": 4139, "\u2581sauber": 4140, "\u0634\u0631": 4141, "\u2581\u0645\u0643\u0627\u0646\u0643": 4142, "\u2581dadurch": 4143, "\u2581Glas": 4144, "\u2581Bau": 4145, "\u2581Angebot": 4146, "10": 4147, "\u0633\u062a\u0627\u0646": 4148, "\u2581\u0627\u0644\u0623\u0639\u0644\u0649": 4149, "\u2581\u062a\u0623\u062b\u064a\u0631": 4150, "\u2581\u0627\u062d\u062a\u0627\u062c": 4151, "ga": 4152, "ende": 4153, "\u2581\u0627\u0644\u0645\u0633\u062a\u0648\u0649": 4154, "\u0627\u0634": 4155, "\u2581\u0627\u0644\u0625\u0642\u0644\u064a\u0645\u064a\u0629": 4156, "\u2581Finanz": 4157, "\u2581Sicherheitsrats": 4158, "\u2581kaputt": 4159, "\u2581\u0627\u0644\u0634\u0627\u0628": 4160, "\u2581\u0644\u064a\u0633\u0648\u0627": 4161, "\u0648\u0644\u0627": 4162, "\u2581\u0623\u0642\u0631\u0628": 4163, "\u2581\u062c\u0645\u0639": 4164, "\u2581Band": 4165, "\u2581Rechts": 4166, "\u2581\u0623\u0633\u062a\u0637\u0639": 4167, "ro": 4168, "\u2581Hals": 4169, "\u2581\u0648\u0639\u062f": 4170, "\u2581gebeten": 4171, "\u2581Toten": 4172, "\u0645\u0627\u0631\u0633": 4173, "\u2581\u064a\u062f\u064a": 4174, "\u2581t": 4175, "\u2581gr\u00f6\u00dfte": 4176, "Sie": 4177, "\u2581\u0627\u0644\u0645\u0631\u0621": 4178, "\u2581re": 4179, "\u2581Internet": 4180, "\u2581\u0627\u0644\u0634\u0631\u0643\u0629": 4181, "pe": 4182, "\u2581\u0623\u0633\u0641": 4183, "\u0641\u0639": 4184, "\u2581f\u00fcrchte": 4185, "\u2581Suche": 4186, "\u2581Zuhause": 4187, "\u2581glaub": 4188, "\u2581\u0627\u0644\u0645\u0646": 4189, "\u2581\u0627\u0645\u0627\u0645": 4190, "\u062f\u0639\u0649": 4191, "\u2581Daniel": 4192, "\u2581\u0627\u0644\u0641\u0636\u0627\u0621": 4193, "\u2581Wirtschafts": 4194, "\u2581Richter": 4195, "\u2581\u0633\u0646\u0641\u0639\u0644": 4196, "\u2581\u0628\u0623\u0645\u0631": 4197, "\u2581K\u00f6nigin": 4198, "\u2581\u0627\u0644\u062d\u0643\u0648\u0645\u0627\u062a": 4199, "\u0645\u0627\u062a": 4200, "\u2581Achtung": 4201, "\u064a\u0648\u0646": 4202, "stand": 4203, "\u2581\u0631\u0648\u0633\u064a\u0627": 4204, "\u2581\u00fcbernehmen": 4205, "\u2581\u0641\u0627\u0646": 4206, "\u0625\u064a": 4207, "\u2581Planeten": 4208, "\u2581\u062a\u062a\u062d\u0631\u0643": 4209, "\u2581c": 4210, "\u2581l": 4211, "ug": 4212, "ei": 4213, "\u2581\u0628\u0627\u0644\u062f\u0627\u062e\u0644": 4214, "\u2581\u064a\u062c\u062f\u0631": 4215, "\u2581\u0642\u0645\u0646\u0627": 4216, "\u2581\u064a\u062f\u064a\u0643": 4217, "\u2581\u0627\u0644\u062f\u0646\u064a\u0627": 4218, "\u2581\u0627\u0644\u0641\u0642\u0631\u0629": 4219, "\u2581\u0648\u063a\u064a\u0631": 4220, "\u2581\u0627\u0644\u062d\u0642\u064a\u0642\u064a\u0629": 4221, "\u2581\u0627\u0644\u0635\u0646\u062f\u0648\u0642": 4222, "\u0648\u0627\u062a": 4223, "\u2581\u0623\u0628\u0639\u062f": 4224, "\u2581versteckt": 4225, "\u2581\u0623\u0641\u0639\u0644\u0647": 4226, "\u2581erledigen": 4227, "\u2581neun": 4228, "\u2581\u0642\u0627\u062f\u0631": 4229, "\u2581schie\u00dfen": 4230, "\u2581wisst": 4231, "\u2581\u0627\u062b\u0646\u064a\u0646": 4232, "\u2581Deswegen": 4233, "\u0627\u0636": 4234, "\u2581bedeuten": 4235, "\u2581Ressourcen": 4236, "\u2581\u0627\u0646\u062a\u0645": 4237, "\u2581\u062e\u0631\u062c\u062a": 4238, "\u2581normal": 4239, "\u2581500": 4240, "\u2581sucht": 4241, "\u2581\u0627\u0648\u0644": 4242, "\u0622\u0646": 4243, "\u2581\u0627\u0644\u0639\u0646\u0641": 4244, "\u2581\u0627\u0644\u0645\u062d\u0644\u064a": 4245, "\u2581\u0623\u0630\u0627": 4246, "\u2581\u062a\u0648\u0642": 4247, "\u2581\u0645\u0648\u0627\u0635\u0644\u0629": 4248, "up": 4249, "\u2581Stein": 4250, "\u2581seien": 4251, "\u2581\u0627\u0644\u0639\u0645\u064a\u0644": 4252, "\u2581Muss": 4253, "\u2581gr\u00f6\u00dfer": 4254, "\u2581Monster": 4255, "\u2581Position": 4256, "\u2581\u0641\u0623": 4257, "\u2581\u0635\u062d\u064a\u062d\u0627": 4258, "An": 4259, "\u2581\u0627\u062a\u0641\u0627\u0642": 4260, "men": 4261, "\u2581\u0646\u062a": 4262, "ley": 4263, "\u2581Co": 4264, "\u2581\u0627\u0644\u0627\u0633\u0645": 4265, "\u2581besuchen": 4266, "\u2581\u0627\u0644\u062b\u0642\u0629": 4267, "\u062f\u0645": 4268, "\u2581gro\u00dfes": 4269, "\u2581\u062f\u0645\u0627\u0621": 4270, "\u2581dringend": 4271, "\u2581\u0639\u0644\u0645\u0627": 4272, "\u062c\u0627\u0628": 4273, "\u2581Stra\u00dfen": 4274, "\u2581\u062d\u0638": 4275, "\u0628\u064a\u062a\u0631": 4276, "\u2581Lehrer": 4277, "\u2581redet": 4278, "\u2581unseres": 4279, "\u2581Bevor": 4280, "J": 4281, "iz": 4282, "\u2581Schicksal": 4283, "\u2581\u0645\u0648\u062c\u0648\u062f\u0629": 4284, "hn": 4285, "\u2581Jo": 4286, "\u2581\u0645\u0639\u0630\u0631\u0629": 4287, "ismus": 4288, "\u2581Ring": 4289, "\u2581\u0639\u0644\u0627\u062c": 4290, "\u2581\u0645\u062f\u064a\u0631": 4291, "\u2581\u0627\u0633\u0645\u0639\u064a": 4292, "\u2581\u0623\u062a\u0649": 4293, "\u2581\u0647\u0630": 4294, "\u2581Projekt": 4295, "\u2581Kunst": 4296, "\u2581beschlie\u00dft": 4297, "\u2581fehlt": 4298, "Wir": 4299, "\u2581\u0633\u064a\u0631": 4300, "\u2581Feind": 4301, "\u2581Mut": 4302, "\u2581\u062a\u0633\u062a\u0637\u064a\u0639\u064a\u0646": 4303, "\u2581Ehemann": 4304, "\u2581\u0633\u064a\u0626\u0627": 4305, "\u2581\u062a\u062a\u0643\u0644\u0645": 4306, "\u2581\u0643\u0644\u0646\u0627": 4307, "\u2581\u0627\u0644\u0645\u0633\u0623\u0644\u0629": 4308, "\u2581\u0628\u0627\u0644\u0643\u0627\u062f": 4309, "\u2581\u0628\u0639\u0636\u0647\u0645": 4310, "\u2581Tiere": 4311, "\u2581\u0628\u0627\u0633\u0645": 4312, "\u2581verbunden": 4313, "\u2581\u062a\u0631\u064a\u062f\u0647": 4314, "\u2581schlechte": 4315, "\u2581Ziele": 4316, "\u2581\u0639\u0646\u062f\u0647\u0627": 4317, "ca": 4318, "\u2581\u0627\u0644\u062e\u062f\u0645\u0629": 4319, "id": 4320, "\u2581verspreche": 4321, "\u2581\u064a\u0624\u062f\u064a": 4322, "\u0631\u0642": 4323, "\u2581fangen": 4324, "\u2581\u0627\u0644\u0635\u0648\u062a": 4325, "\u2581_": 4326, "\u2581zerst\u00f6ren": 4327, "\u2581Unterschied": 4328, "\u2581Show": 4329, "\u2581\u062c\u0639\u0644\u062a": 4330, "\u2581Wind": 4331, "\u2581\u0627\u0644\u0628\u064a\u0627\u0646\u0627\u062a": 4332, "\u2581James": 4333, "\u2581ebenfalls": 4334, "\u2581\u0622\u0644\u0627\u0641": 4335, "\u2581Sheriff": 4336, "ag": 4337, "\u2581\u0645\u062a\u0623\u062e\u0631": 4338, "\u2581\u00fcberleben": 4339, "\u2581Aufmerksamkeit": 4340, "\u2581g": 4341, "\u2581\u064a\u062d\u0645\u0644": 4342, "\u2581welcher": 4343, "\u2581\u0643\u0644\u0628": 4344, "\u2581\u0623\u0631\u063a\u0628": 4345, "\u2581f\u00f6rdern": 4346, "\u2581\u062e\u0627\u0626\u0641\u0629": 4347, "igkeit": 4348, "\u2581\u0627\u0644\u0633\u064a\u0627\u0633\u064a": 4349, "\u2581teilen": 4350, "\u2581\u064a\u0627\u0631\u062c\u0644": 4351, "\u2581\u0642\u0644\u062a\u0647": 4352, "\u2581Tats\u00e4chlich": 4353, "\u2581\u064a\u0633\u0627\u0639\u062f": 4354, "\u2581\u0646\u0628\u062f\u0623": 4355, "\u2581\u0627\u0644\u0646\u0642\u0648\u062f": 4356, "\u2581\u062a\u0633\u0645\u062d": 4357, "\u0641\u0627\u0646": 4358, "\u0628\u0648\u0646": 4359, "\u2581politische": 4360, "\u2581bring": 4361, "\u2581Soldaten": 4362, "\u2581\u0627\u0644\u0628\u0627\u0631\u062d\u0629": 4363, "\u2581\u062a\u062c\u0627\u0647": 4364, "\u2581\u0632\u0648\u062c\u062a\u0647": 4365, "\u2581\u0627\u0644\u0642\u062a\u0627\u0644": 4366, "\u2581Fortschritte": 4367, "\u0645\u064a\u0646": 4368, "\u0633\u0629": 4369, "\u2581\u0642\u0631\u0623\u062a": 4370, "lo": 4371, "\u0637\u0644": 4372, "\u2581biblische": 4373, "\u2581\u0635\u0628\u0627\u062d\u0627": 4374, "\u2581legt": 4375, "\u2581\u0639\u0645\u0644\u0647": 4376, "\u2581Paris": 4377, "\u2581m\u00fcde": 4378, "\u2581Region": 4379, "\u2581\u0627\u0644\u0647\u0631\u0627\u0621": 4380, "\u2581\u0623\u063a\u0644\u0628": 4381, "ien": 4382, "\u2581\u0662\u0662": 4383, "Es": 4384, "end": 4385, "\u2581\u063a\u0627\u0644\u0628\u0627": 4386, "\u2581\u062d\u0632\u064a\u0631\u0627\u0646": 4387, "\u2581fragte": 4388, "\u2581Labor": 4389, "\u2581\u0628\u0633\u064a\u0637": 4390, "\u2581\u0647\u0627\u062a\u0641": 4391, "\u2581\u0627\u0634\u0639\u0631": 4392, "\u0636\u0639": 4393, "\u2581\u0623\u0646\u0643\u0645": 4394, "nt": 4395, "\u0631\u0627\u0621": 4396, "\u2581\u00fcberzeugt": 4397, "\u2581angefangen": 4398, "\u2581Sarah": 4399, "\u2581dankbar": 4400, "\u0631\u0648\u0627": 4401, "\u2581\u0627\u062e\u062a\u064a\u0627\u0631": 4402, "\u2581\u064a\u0628\u062f\u0623": 4403, "\u2581Bus": 4404, "\u2581\u062a\u0644\u0639\u0628": 4405, "raum": 4406, "\u2581\u00dcberraschung": 4407, "\u2581\u064a\u062a\u0637\u0644\u0628": 4408, "\u2581\u0644\u0623\u062d\u062f": 4409, "\u2581\u0645\u0645": 4410, "\u2581M\u00e4nnern": 4411, "\u2581Tatsache": 4412, "\u0634\u0627\u0631": 4413, "\u2581Setz": 4414, "\u2581\u0623\u0633\u062a": 4415, "\u2581heim": 4416, "\u2581kriegt": 4417, "\u2581lief": 4418, "\u2581\u0627\u0644\u062d\u0643\u0648\u0645\u064a\u0629": 4419, "\u2581Unternehmen": 4420, "\u2581\u0627\u0644\u0636\u0648\u0621": 4421, "\u2581\u062a\u0642\u0631\u0631": 4422, "me": 4423, "\u2581\u0627\u0644\u0628\u0646\u0643": 4424, "\"...": 4425, "\u2581\u0627\u0644\u0634\u062e\u0635\u064a\u0629": 4426, "\u2581\u0648\u062c\u062f\u0646\u0627": 4427, "\u25816.": 4428, "\u2581\u0627\u0644\u062d\u0627\u062c\u0629": 4429, "\u2581\u0631\u0641\u064a\u0642": 4430, "\u2581\u064a\u062c\u0639\u0644\u0643": 4431, "\u2581\u062a\u0647\u062a\u0645": 4432, "\u2581\u0642\u0644\u0628\u064a": 4433, "ce": 4434, "\u2581Reihe": 4435, "\u2581Ray": 4436, "\u2581na": 4437, "\u2581\u062e\u0644\u0642": 4438, "\u2581\u0641\u0648\u0631\u0627": 4439, "ert": 4440, "\u2581\u0645\u0631\u0636": 4441, "\u2581\u0627\u0644\u0645\u0627\u0644\u064a": 4442, "\u2581\u0627\u0644\u063a\u064a\u0631": 4443, "\u2581\u0646\u062e\u0631\u062c": 4444, "\u0645\u0643\u0646\u0646\u064a": 4445, "\u2581dauert": 4446, "\u2581\u0627\u0644\u0645\u0639\u0630\u0631\u0629": 4447, "\u2581\u062f\u0627\u0626\u0645": 4448, "\u2581Gerechtigkeit": 4449, "\u2581\u0627\u0644\u0628\u0631": 4450, "\u2581\u0642\u0636\u064a\u062a": 4451, "\u2581sagtest": 4452, "\u2581\u0627\u0644\u0633\u064a\u0627\u0631\u0627\u062a": 4453, "\u2581Jahrhundert": 4454, "\u2581schlie\u00dflich": 4455, "\u2581wohin": 4456, "\u2581\u0643\u0648\u0646\u064a": 4457, "\u2581\u0623\u0643\u0644": 4458, "\u2581lieb": 4459, "\u062f\u0627\u0621": 4460, "\u2581verliebt": 4461, "\u0635\u0641": 4462, "\u0645\u0627\u0631": 4463, "\u0642\u0628\u0644": 4464, "\u2581\u0625\u0639\u0644\u0627\u0646": 4465, "\u2581gebrochen": 4466, "\u2581Beweis": 4467, "\u2581\u0646\u0638\u0631\u062a": 4468, "\u2581\u0627\u0644\u0645\u0648\u0633\u064a\u0642\u0649": 4469, "\u2581\u0636\u0631\u0628": 4470, "\u2581Fahr": 4471, "\u2581\u0627\u0628\u062a\u0639\u062f": 4472, "\u2581solchen": 4473, "\u2581\u0628\u0645\u0627\u0630\u0627": 4474, "\u2581\u062f\u062e\u0644": 4475, "\u2581\u0648\u0647\u0643\u0630\u0627": 4476, "\u2581\u0627\u0644\u0646\u0648\u0648\u064a": 4477, "\u2581;": 4478, "\u2581\u0628\u0637\u0644": 4479, "\u2581Baum": 4480, "\u2581\u064a\u0637\u0644\u0628": 4481, "\u2581verdammten": 4482, "\u25812007": 4483, "\u2581weltweit": 4484, "\u2581\u0623\u062e\u0628\u0631\u062a\u0646\u064a": 4485, "\u2581\u062d\u064a\u0627": 4486, "\u2581\u0645\u062a\u0646": 4487, "\u2581Fotos": 4488, "iger": 4489, "\u2581\u0642\u0648\u0645": 4490, "\u0639\u0645\u0644": 4491, "\u2581Sprache": 4492, "\u2581sowieso": 4493, "l\u00e4": 4494, "\u2581schuldig": 4495, "\u2581sch\u00e4tzen": 4496, "\u2581\u062c\u0648\u0631\u062c": 4497, "\u2581echte": 4498, "\u0623\u0639\u0644\u0645": 4499, "\u0623\u0644": 4500, "\u2581e": 4501, "\u2581gib": 4502, "\u2581\u0627\u0644\u0642\u062f\u0631\u0629": 4503, "\u2581st\u00e4rker": 4504, "\u2581\u0627\u0646\u0638\u0631\u0648\u0627": 4505, "\u2581\u0627\u0644\u0628\u0634\u0631\u064a": 4506, "\u0644\u0630\u0627": 4507, "\u2581Messer": 4508, "\u2581\u0628\u0644\u062f": 4509, "ist": 4510, "\u2581\u00d6l": 4511, "\u2581\u0628\u062f\u0627": 4512, "her": 4513, "\u2581\u0628\u0628\u0633\u0627\u0637\u0629": 4514, "\u2581\u0643\u0647\u0630\u0647": 4515, "\u2581bauen": 4516, "\u0623\u0633": 4517, "\u2581schwierig": 4518, "\u2581X": 4519, "\u2581fanden": 4520, "\u2581h\u00e4ltst": 4521, "\u0631\u0639": 4522, "\u0639\u0644\u064a": 4523, "\u2581stecken": 4524, "\u2581Damen": 4525, "\u2581Apostel": 4526, "\u2581Bev\u00f6lkerung": 4527, "\u2581Schlag": 4528, "\u2581\u0623\u0631\u0636": 4529, "\u2581\u0671\u0644\u062a": 4530, "\u0644\u062f\u064a": 4531, "\u2581Chuck": 4532, "\u2581aussieht": 4533, "\u2581Echt": 4534, "\u2581\u064a\u0648\u062d\u0646\u0627": 4535, "\u062c\u0648\u0631\u062c": 4536, "\u2581Gesundheit": 4537, "\u2581Angriff": 4538, "\u2581\u064a\u0641\u0639\u0644\u0647": 4539, "Nein": 4540, "\u2581\u0627\u0644\u0645\u062f\u064a\u0631": 4541, "\u2581\u0639\u0645\u064a\u0644": 4542, "\u062f\u0641\u0639": 4543, "\u2581\u0631\u0648\u0645\u0627": 4544, "\u2581Diener": 4545, "\u2581Majest\u00e4t": 4546, "\u2581\u0627\u0644\u0642\u0644\u0642": 4547, "\u2581\u0633\u064a\u062a\u0645": 4548, "\u2581\u0645\u0633": 4549, "\u2581\u064a\u0645\u0643\u0646\u0647\u0645": 4550, "\u064a\u062a\u0647": 4551, "\u2581\u0627\u0644\u0623\u062d\u0645\u0642": 4552, "\u0648\u0644\u062f": 4553, "\u064a\u0632": 4554, "\u2581\u0642\u0627\u0628\u0644": 4555, "\u2581\u0627\u0644\u062e\u0644\u0641": 4556, "\u2581S\u00fc\u00dfe": 4557, "\u0633\u0628": 4558, "\u2581Sommer": 4559, "\u2581\u0628\u0645\u0648\u062c\u0628": 4560, "\u0646\u0632": 4561, "\u2581\u0628\u0648\u0633\u0639\u064a": 4562, "\u2581\u062a\u0642\u0644\u0642\u064a": 4563, "\u2581\u064a\u0631\u0649": 4564, "\u2581Reden": 4565, "\u2581falschen": 4566, "\u2581\u0625\u0645\u0631\u0623\u0629": 4567, "\u0628\u0633": 4568, "\u2581\u062d\u0633\u0627\u0628": 4569, "\u0639\u0644\u0645": 4570, "ken": 4571, "\u2581\u0622\u0646": 4572, "\u2581\u0646\u062a\u0627\u0626\u062c": 4573, "\u2581Ra": 4574, "\u2581rechts": 4575, "\u0645\u0627\u064a\u0643\u0644": 4576, "\u2581tr\u00e4gt": 4577, "\u0637\u0628": 4578, "\u2581falsche": 4579, "he": 4580, "\u2581Vorsicht": 4581, "\u2581hei\u00dfe": 4582, "\u0627\u0631\u0627\u062a": 4583, "\u2581F\u00fcnf": 4584, "\u2581beenden": 4585, "\u2581zweiten": 4586, "\u2581\u062a\u0643": 4587, "\u2581\u0634\u0623\u0646\u0647": 4588, "\u2581gezeigt": 4589, "\u2581\u0627\u0644\u0625\u062a\u0635\u0627\u0644": 4590, "\u2581\u0627\u0644\u0633\u0631\u064a\u0631": 4591, "\u2581\u0641\u0647\u0644": 4592, "\u2581\u0642\u0631\u0627\u0621\u0629": 4593, "\u2581Haar": 4594, "\u2581Streit": 4595, "\u2581seltsam": 4596, "\u2581\u0627\u0644\u0634\u0628\u0627\u0628": 4597, "\u2581\u0634\u0631\u0637\u064a": 4598, "\u2581Berichts": 4599, "\u2581nimm": 4600, "\u0645\u0627\u0643\u0633": 4601, "\u2581\u0633\u064a\u0626": 4602, "schen": 4603, "\u2581zumindest": 4604, "\u2581Auftrag": 4605, "Ge": 4606, "\u2581\u0625\u0628\u0646": 4607, "\u2581\u063a\u0631\u064a\u0628\u0629": 4608, "\u2581\u0645\u062b\u0644\u064a": 4609, "\u2581m\u00f6chtest": 4610, "\u2581ganzes": 4611, "\u2581\u0623\u0644\u062f\u064a\u0643": 4612, "\u00fcr": 4613, "\u2581Krankheit": 4614, "\u2581x": 4615, "\u2581nachdr\u00fccklich": 4616, "\u2581\u0639\u0638\u064a\u0645\u0629": 4617, "\u2581\u062a\u0633\u062a\u062d\u0642": 4618, "\u2581euren": 4619, "\u2581\u064a\u062f\u0643": 4620, "\u2581Erfahrung": 4621, "\u2581H\u00e4nden": 4622, "\u2581begann": 4623, "\u0641\u0639\u0644": 4624, "\u2581\u062a\u0634\u0643\u0644": 4625, "\u2581verhindern": 4626, "\u2581\u0662\u0664": 4627, "\u2581\u0645\u0631\u0647": 4628, "\u0627\u062a\u0643": 4629, "\u2581Eier": 4630, "\u2581\u0644\u0644\u0623\u0628\u062f": 4631, "\u0643\u0627\u0646\u062a": 4632, "\u2581\u0627\u0644\u0637\u0627\u0628\u0642": 4633, "\u2581\u062c\u0631": 4634, "\u0643\u0627\u0631": 4635, "\u063a\u0644": 4636, "\u2581Kamera": 4637, "\u2581\u0627\u0644\u0639\u0627\u0647\u0631\u0629": 4638, "Sobald": 4639, "\u0627\u062a\u0647\u0627": 4640, "\u2581Ziffer": 4641, "\u2581\u0627\u062b\u0646\u0627\u0646": 4642, "\u2581\u0643\u0644\u0627\u0646\u0627": 4643, "ell": 4644, "\u2581\u0645\u062b\u064a\u0631\u0629": 4645, "\u0635\u062d\u064a\u062d": 4646, "\u0627\u0644\u0622\u0646": 4647, "\u2581\u0627\u0644\u062e\u0637\u0629": 4648, "15": 4649, "\u2581\u0627\u0644\u0633\u0648\u0642": 4650, "\u2581\u0644\u0635\u0627\u0644\u062d": 4651, "\u062e\u0631\u062c": 4652, "\u2581\u0628\u062d\u0644\u0648\u0644": 4653, "\u2581schrecklich": 4654, "\u2581\u0637\u064a\u0628": 4655, "\u2581\u0644\u0623\u0646\u0647\u0645": 4656, "\u2581Nachdem": 4657, "\u2581\u0648\u062c\u0647\u0643": 4658, "\u2581B\u00fccher": 4659, "\u0628\u0637": 4660, "\u258145": 4661, "\u2581\u0627\u0644\u0632\u0645\u0646": 4662, "\u2581HERR": 4663, "\u2581Operation": 4664, "\u2581m": 4665, "\u2581\u0644\u062f\u064a\u0643\u0645": 4666, "innen": 4667, "\u2581gilt": 4668, "\u2581\u0637\u0628\u064a\u0639\u064a": 4669, "\u2581\u0627\u062e\u0630": 4670, "\u2581\u0627\u0644\u0645\u062d\u064a\u0637": 4671, "\u2581\u0634\u062e\u0635\u064a\u0629": 4672, "\u0641\u0627\u0621": 4673, "\u2581Bereich": 4674, "\u2581Meter": 4675, "\u2581behandelt": 4676, "\u2581\u0637\u0631\u0642": 4677, "EN": 4678, "\u2581\u0627\u0644\u0625\u0646": 4679, "\u2581wichtiger": 4680, "che": 4681, "\u2581\u0623\u0631\u0628\u0639": 4682, "\u0646\u063a": 4683, "\u2581Bill": 4684, "\u2581\u0644\u0639\u0628": 4685, "\u2581\u0633\u062c\u0644": 4686, "\u2581Sofort": 4687, "\u2581\u0648\u0633\u064a\u0644\u0629": 4688, "\u2581Freunden": 4689, "\u2581\u062d\u062a\u064a": 4690, "\u062e\u0631": 4691, "\u0628\u0646\u064a": 4692, "\u2581\u0627\u0644\u0625\u0646\u062a\u0631\u0646\u062a": 4693, "\u2581begr\u00fc\u00dft": 4694, "\u2581\u062a\u0639\u0631\u0636": 4695, "\u2581\u0623\u0633\u0639\u0627\u0631": 4696, "\u2581\u0627\u0644\u0633\u0631": 4697, "\u2581\u0627\u062f": 4698, "\u2581\u0627\u0644\u0639\u0638\u064a\u0645": 4699, "\u2581\u0644\u0639\u064a\u0646": 4700, "\u2581werd": 4701, "12": 4702, "\u2581Ball": 4703, "\u2581Kosten": 4704, "\u2581dachten": 4705, "\u2581\u0627\u0644\u0628\u0631\u0646\u0627\u0645\u062c": 4706, "\u2581W\u00e4re": 4707, "\u2581jungen": 4708, "\u2581trifft": 4709, "\u2581\u0645\u0644\u0627\u0628\u0633": 4710, "\u2581\u0627\u0644\u0643\u0646\u064a\u0633\u0629": 4711, "\u2581daraus": 4712, "\u062c\u064a\u0644": 4713, "\u0641\u0627\u062a": 4714, "\u2581\u0627\u0644\u0641\u0635\u0644": 4715, "\u2581\u0623\u0631\u0633\u0644\u062a": 4716, "\u2581Herausforderung": 4717, "\u2581wahre": 4718, "\u2581\u0627\u0644\u0646\u062d\u0648": 4719, "\u2581Schwert": 4720, "\u2581geschlafen": 4721, "\u2581\u0627\u0644\u0625\u0646\u0633\u0627\u0646\u064a\u0629": 4722, "\u2581\u0627\u0644\u062d\u0643\u0645": 4723, "\u2581\u0646\u062d\u0627\u0648\u0644": 4724, "\u0641\u0648\u0646": 4725, "\u2581\u0644\u0646\u0641\u0633\u0643": 4726, "\u2581Pro": 4727, "\u2581\u062a\u0633\u0627\u0639\u062f": 4728, "\u2581wichtige": 4729, "Der": 4730, "\u2581Milliarden": 4731, "\u2581M\u00f6chte": 4732, "\u2581\u0627\u0644\u0647\u0646\u062f": 4733, "\u0628\u0627\u0644\u0637\u0628\u0639": 4734, "\u2581zahlen": 4735, "\u2581\u0625\u0639\u062a\u0642\u062f\u062a": 4736, "ers": 4737, "\u2581Erz\u00e4hl": 4738, "\u2581schlie\u00dfen": 4739, "\u2581\u0623\u0639\u0636\u0627\u0621": 4740, "\u2581\u062f\u0627\u0631": 4741, "\u2581\u062d\u064a\u0627\u062a\u0646\u0627": 4742, "\u2581\u0627\u0644\u0645\u0631\u0627\u0642\u0628\u0629": 4743, "\u2581Professor": 4744, "\u2581\u0645\u0627\u0647\u0648": 4745, "\u2581\u0627\u0631\u062f\u062a": 4746, "\u0623\u0645": 4747, "\u2581\u0634\u0631\u0627\u0628": 4748, "\u2581hol": 4749, "\u2581erw\u00e4hnt": 4750, "\u2581Konferenz": 4751, "\u2581\u0648\u0642\u0639": 4752, "\u0639\u0646\u062f\u0645\u0627": 4753, "\u2581Mark": 4754, "\u2581\u0623\u0639\u062a\u0630\u0631": 4755, "\u2581\u0627\u0644\u062d\u0645\u0627\u0645": 4756, "\u2581Haare": 4757, "\u2581betreffend": 4758, "\u2581bessere": 4759, "\u2581\u0623\u0634\u0643\u0631\u0643": 4760, "\u2581\u0644\u0634\u062e\u0635": 4761, "\u2581\u0627\u0644\u062a\u0642\u062f\u0645": 4762, "\u2581\u062c\u0646\u0648\u0646": 4763, "\u0648\u064a\u0646": 4764, "\u2581\u064a\u062f\u0639\u0649": 4765, "\u2581Vereinigten": 4766, "\u2581\u0627\u0631": 4767, "\u2581Staat": 4768, "\u2581\u062f\u0648\u0631\u062a\u0647": 4769, "\u0642\u0637\u0639": 4770, "\u2581\u0645\u0639\u0649": 4771, "\u0645\u064a\u0644": 4772, "\u2581Afrika": 4773, "r\u00fc": 4774, "\u2581\u0632\u0648\u062c\u0629": 4775, "ad": 4776, "\u2581\u0625\u0645\u0627": 4777, "\u2581\u0627\u0644\u0645\u0644\u0627\u0628\u0633": 4778, "\u2581\u0625\u062c\u0631\u0627\u0621": 4779, "\u2581\u0627\u0646\u062a\u064a": 4780, "\u2581\u0628\u0641\u0639\u0644": 4781, "\u2581Adresse": 4782, "\u2581gehalten": 4783, "\u2581\u0627\u0644\u0623\u0645\u0648\u0627\u0644": 4784, "\u2581fern": 4785, "\u2581\u0641\u0627\u062a": 4786, "\u2581Willen": 4787, "ion": 4788, "\u2581gefangen": 4789, "\u2581\u062f\u062e\u0648\u0644": 4790, "\u2581\u0641\u0631\u0627\u0646\u0643": 4791, "\u2581Kleine": 4792, "\u2581schwanger": 4793, "\u2581\u0627\u0644\u0648\u0637\u0646\u064a": 4794, "\u2581soweit": 4795, "\u2581\u0627\u0644\u0623\u0633\u0626\u0644\u0629": 4796, "\u2581Test": 4797, "\u2581Leg": 4798, "\u2581Toll": 4799, "\u2581\u062a\u062a\u0648\u0642\u0641": 4800, "\u2581Ihm": 4801, "\u2581Personal": 4802, "\u2581\u064a\u062c\u062f": 4803, "\u2581\u0627\u0644\u064a\u0643": 4804, "\u2581\u0622": 4805, "\u2581\u0633\u0646\u0642\u0648\u0645": 4806, "\u0633\u0631": 4807, "\u2581zieht": 4808, "\u2581witzig": 4809, "\u2581Verhalten": 4810, "\u0648\u062e": 4811, "\u2581Ho": 4812, "\u2581menschliche": 4813, "\u25817.": 4814, "\u2581\u0647\u062f\u064a\u0629": 4815, "\u064a\u0648\u0645": 4816, "\u2581\u0634\u0627\u0628": 4817, "\u2581Spur": 4818, "\u2581\u0627\u0644\u062c\u0645\u064a\u0644\u0629": 4819, "\u2581\u064a\u0628\u0642\u0649": 4820, "\u2581\u0647\u064a\u0626\u0629": 4821, "\u2581\u064a\u0645\u0643\u0646\u0643\u0645": 4822, "\u2581\u0628\u0648\u0644\u0633": 4823, "stellen": 4824, "\u2581Nase": 4825, "\u2581irgendwann": 4826, "\u2581\u062a\u0645\u062a": 4827, "\u2581\u0648\u062d\u062f\u0629": 4828, "\u2581\u0627\u0644\u0623\u0648": 4829, "\u2581\u062c\u064a\u0646": 4830, "\u2581\u0633\u0627\u0628\u0642": 4831, "gt": 4832, "\u2581Ausschusses": 4833, "\u2581\u0628\u0639": 4834, "\u2581\u0627\u0644\u0634\u0647\u0631": 4835, "\u2581\u0644\u0643\u0646\u0647\u0645": 4836, "\u2581Menschheit": 4837, "\u2581kannte": 4838, "\u258120.": 4839, "\u2581\u0628\u0645\u062c\u0631\u062f": 4840, "\u2581Vergiss": 4841, "\u2581\u0623\u0631\u064a\u062f\u0647": 4842, "\u2581\u0627\u0644\u0643\u0641\u0627\u064a\u0629": 4843, "\u25812008": 4844, "\u2581Eines": 4845, "\u2581\u0627\u0644\u062e\u0648\u0641": 4846, "\u2581Abendessen": 4847, "\u2581\u0639\u0646\u0647\u0645": 4848, "\u2581Gegend": 4849, "\u2581Bord": 4850, "\u2581verstecken": 4851, "\u2581\u062f\u062e\u0644\u062a": 4852, "\u2581\u0625\u0646\u0634\u0627\u0621": 4853, "\u0632\u0627": 4854, "\u2581Vier": 4855, "\u2581Umsetzung": 4856, "\u2581\u0627\u0644\u0638\u0644\u0627\u0645": 4857, "\u2581entsprechend": 4858, "des": 4859, "\u0631\u0648\u064a": 4860, "\u2581jung": 4861, "\u0621": 4862, "\u0631\u0632": 4863, "\u2581\u0627\u0644\u0627\u0633\u062a": 4864, "\u2581\u0627\u0644\u0645\u0648\u0642\u0639": 4865, "\u0648\u0631\u0629": 4866, "\u0642\u0637": 4867, "\u2581300": 4868, "\u2581\u0627\u0644\u0633\u064a\u0627\u0633\u0629": 4869, "\u2581\u0646\u0634\u0631": 4870, "\u2581\u0648\u062d\u062f\u0647": 4871, "\u2581\u0627\u0644\u0642\u0628\u0636": 4872, "\u2581findest": 4873, "est": 4874, "\u2581\u0627\u0644\u0641\u0648\u0631": 4875, "\u2581\u0627\u0644\u0636": 4876, "\u2581\u0639\u0636\u0648": 4877, "\u2581Laut": 4878, "\u2581z": 4879, "\u2581\u0632\u0648\u062c\u0643": 4880, "\u2581\u0642\u0627\u062f\u0631\u0629": 4881, "30": 4882, "\u25811,": 4883, "\u2581Berg": 4884, "\u2581\u0627\u064a\u0627\u0645": 4885, "\u2581\u062c\u0646\u0648\u0628": 4886, "\u2581\u0627\u0644\u0643\u0644\u0645\u0629": 4887, "\u2581\u0623\u062b\u0642": 4888, "\u2581\u0627\u0644\u0642\u062f\u0631": 4889, "\u2581\u0648\u0644\u0645\u0627\u0630\u0627": 4890, "\u2581Entscheidungen": 4891, "\u2581\u0627\u0644\u0644\u0639\u0628": 4892, "\u0627\u0626\u0646\u0627": 4893, "\u2581Sonder": 4894, "\u2581\u0644\u0627\u062d\u0642": 4895, "\u2581funktionieren": 4896, "\u2581\u0639\u0646\u0648\u0627\u0646": 4897, "\u0639\u062a\u0642\u062f": 4898, "\u2581Jane": 4899, "\u2581Wissenschaft": 4900, "ik": 4901, "\u2581vermutlich": 4902, "\u2581\u0628\u0645\u0643\u0627\u0646": 4903, "\u2581niemandem": 4904, "\u2581\u0627\u0644\u0641\u064a\u0644\u0645": 4905, "\u2581\u0627\u0638\u0646": 4906, "\u0661": 4907, "\u2581\u0627\u0644\u0623\u062d\u064a\u0627\u0646": 4908, "so": 4909, "\u0671": 4910, "\u2581vollkommen": 4911, "\u0622\u0644": 4912, "\u0644\u0648\u0633": 4913, "\u2581bekomme": 4914, "\u2581\u0671\u0644\u0631": 4915, "\u0631\u0633\u0644": 4916, "\u2581gingen": 4917, "\u2581\u0627\u0644\u0623\u0628\u064a\u0636": 4918, "ber": 4919, "\u2581Einfach": 4920, "\u2581\u0645\u0637\u0644\u0642\u0627": 4921, "\u064a\u0648\u0646\u064a\u0647": 4922, "\u2581Verstand": 4923, "\u2581\u0627\u0644\u0645\u0639\u0646\u064a\u0629": 4924, "\u0644\u0648\u064a\u0633": 4925, "\u2581\u0627\u0644\u0639\u062c\u0648\u0632": 4926, "\u064a\u0634": 4927, "\u2581verschiedenen": 4928, "\u2581\u0623\u0646\u0638\u0631\u064a": 4929, "\u2581\u0631\u0627\u0626\u062d\u0629": 4930, "\u0641\u0648\u0631": 4931, "\u2581verhaftet": 4932, "\u2581\u0644\u0644\u0623": 4933, "\u2581\u0645\u0644\u0627\u064a\u064a\u0646": 4934, "\u2581\u0642\u0648": 4935, "\u2581Jim": 4936, "\u2581\u0623\u062a\u0635\u0644": 4937, "\u2581\u0646\u062d\u0635\u0644": 4938, "\u2581\u062c\u0644\u0628": 4939, "\u0631\u0627\u0642": 4940, "\u2581ausge": 4941, "ed": 4942, "\u2581\u0627\u0633\u0631\u0627\u0626\u064a\u0644": 4943, "\u2581\u0646\u0628\u062d\u062b": 4944, "\u2581\u0623\u0648\u0644\u0627\u062f": 4945, "\u2581Dame": 4946, "\u2581\u062f\u0648": 4947, "ow": 4948, "\u2581\u062a\u0631\u064a\u0646": 4949, "\u2581\u0623\u062a\u0641\u0647\u0645": 4950, "\u2581Wunsch": 4951, "\u2581handelt": 4952, "\u2581weiss": 4953, "\u2581Anteil": 4954, "\u0648\u0634": 4955, "\u2581\u0627\u0644\u0645\u0628\u0646\u0649": 4956, "\u2581\u0636\u0639\u0641": 4957, "\u2581rief": 4958, "\u258112.": 4959, "\u2581\u0627\u0644\u0633\u0631\u0639\u0629": 4960, "\u2581wohnen": 4961, "\u2581\u0627\u0644\u0642\u0637\u0627\u0631": 4962, "\u2581p": 4963, "\u2581\u0627\u0644\u0634\u0639\u0631": 4964, "\u2581Folgen": 4965, "\u2581\u0627\u0644\u0639\u0633\u0643\u0631\u064a\u0629": 4966, "\u2581\u0646\u0642\u0635": 4967, "\u2581\u0627\u0644\u0627\u062c\u062a\u0645\u0627\u0639\u064a\u0629": 4968, "\u2581Zeig": 4969, "\u2581\u0639\u062f\u064a\u062f\u0629": 4970, "\u2581\u062e\u0637\u0628": 4971, "\u0635\u062d": 4972, "\u2581\u0633\u0648": 4973, "\u0632\u0648": 4974, "\u258190": 4975, "\u2581\u0627\u0639\u0645\u0627\u0644": 4976, "\u2581\u062a\u0641\u0642\u062f": 4977, "\u2581\u0627\u0644\u063a\u0627\u0628\u0629": 4978, "\u2581\u064a\u0648": 4979, "\u2581Wochenende": 4980, "\u2581\u0627\u0644\u0625\u062f\u0627\u0631\u0629": 4981, "\u2581\u0627\u0644\u0634\u0631\u0643\u0627\u062a": 4982, "\u2581\u0633\u062a\u0639\u0645\u0644": 4983, "\u2581\u0646\u0635\u0644": 4984, "\u062a\u062d\u062f": 4985, "\u2581\u062e\u0637\u064a\u0631": 4986, "\u2581\u0646\u0639\u0648\u062f": 4987, "\u0646\u064a\u0648\u064a\u0648\u0631\u0643": 4988, "\u2581\u0645\u0646\u0627\u0633\u0628": 4989, "\u2581Auswirkungen": 4990, "\u2581betont": 4991, "\u2581\u0628\u0642\u064a\u0629": 4992, "\u2581\u062c\u0632\u0621\u0627": 4993, "\u2581beginnt": 4994, "\u2581\u0633\u0627\u0639\u062f": 4995, "\u2581\u0662\u0661": 4996, "\u2581\u0627\u0644\u0643\u0644\u0628": 4997, "\u2581gesamte": 4998, "\u2581nerv\u00f6s": 4999, "\u2581Ehren": 5000, "\u2581\u062a\u0634\u063a\u064a\u0644": 5001, "\u2581Dach": 5002, "\u0643\u0627\u062a": 5003, "\u2581verpasst": 5004, "\u2581Bob": 5005, "\u0642\u0648\u0644": 5006, "\u2581Schlampe": 5007, "\u0631\u0648\u0633": 5008, "\u2581\u0627\u0644\u0627\u0646\u062a\u0638\u0627\u0631": 5009, "\u258128": 5010, "\u2581\u0648\u0633\u0646": 5011, "\u2581Wand": 5012, "\u2581lasst": 5013, "\u2581\u00dcbersetzung": 5014, "\u2581\u0639\u0628\u0627\u0631\u0629": 5015, "\u2581Verf\u00fcgung": 5016, "\u2581\u0633\u0631\u064a\u0639\u0627": 5017, "\u2581\u0642\u0627\u062f\u0645\u0629": 5018, "bi": 5019, "\u0644\u0627\u0646": 5020, "\u2581nah": 5021, "\u2581\u0639\u0627\u062f\u064a": 5022, "\u2581\u0627\u0644\u0643\u0627\u0645\u0644": 5023, "\u2581\u0641\u0644\u064a": 5024, "\u2581\u0627\u0644\u062a\u0639\u0644\u064a\u0645": 5025, "\u2581\u0627\u0644\u0631\u0627\u0626\u0639": 5026, "\u2581\u0628\u064a\u0639": 5027, "\u2581Bem\u00fchungen": 5028, "\u2581\u0634\u0631\u0627\u0621": 5029, "\u2581\u0627\u062a\u0635\u0644\u062a": 5030, "\u2581M\u00f6glichkeiten": 5031, "\u2581\u0627\u0631\u062c\u0648\u0643": 5032, "\u2581\u062b\u0645\u0646": 5033, "\u2581meint": 5034, "du": 5035, "\u2581\u0627\u0628\u0646\u062a\u064a": 5036, "\u2581\u062a\u0646\u062a\u0647\u064a": 5037, "\u2581\u062a\u0633\u064a\u0631": 5038, "\u2581\u062a\u0642\u0628\u0644": 5039, "\u2581College": 5040, "\u2581Religion": 5041, "\u2581Tony": 5042, "\u2581\u062a\u062a\u0635\u0644": 5043, "\u2581\u0627\u0644\u0637\u0644\u0628": 5044, "\u2581\u0648\u0644\u0627\u064a\u0629": 5045, "\u0622\u064a": 5046, "\u0641\u062a\u0631\u0636": 5047, "\u2581Antworten": 5048, "\u2581\u0632\u0648\u062c": 5049, "\u2581Falle": 5050, "\u2581\u0645\u0648\u0633\u0649": 5051, "\u2581\u0627\u0644\u062b\u0644\u0627\u062b\u0629": 5052, "\u2581\u0633\u062e\u064a\u0641": 5053, "\u2581\u0648\u0643\u0623\u0646": 5054, "\u2581\u0628\u064a\u0644": 5055, "\u2581drinnen": 5056, "ett": 5057, "\u2581Information": 5058, "\u2581angetan": 5059, "\u2581\u0628\u0627\u0644\u0625\u0636\u0627\u0641\u0629": 5060, "\u2581\u0645\u0643\u0627\u0641\u062d": 5061, "\u2581\u0646\u0642\u0648\u0644": 5062, "\u2581\u0648\u0627\u0644\u0623": 5063, "\u2581lautet": 5064, "\u2581\u0645\u062f": 5065, "\u2581Finde": 5066, "\u2581Schul": 5067, "\u2581sahen": 5068, "\u2581werfen": 5069, "\u2581Feld": 5070, "\u2581Mar": 5071, "\u0644\u0627\u062a": 5072, "\u2581Hunde": 5073, "\u2581\u0623\u0648\u0642\u0641": 5074, "\u2581Harry": 5075, "\u2581\u0644\u0631\u0624\u064a\u0629": 5076, "\u2581\u0627\u0644\u0645\u0646\u0627\u0637\u0642": 5077, "\u2581Tante": 5078, "\u2581verfolgt": 5079, "\u2581\u0648\u0627\u0644\u0648\u0627\u0642\u0639": 5080, "\u2581\u0627\u0644\u0645\u0637\u0627\u0641": 5081, "\u2581Priester": 5082, "\u2581\u0627\u0644\u062a\u062c\u0627\u0631\u0629": 5083, "\u2581Zweifel": 5084, "\u2581\u062a\u0628": 5085, "\u2581\u0644\u0641\u0639\u0644": 5086, "\u25819.": 5087, "\u2581\u0645\u062d\u0627\u0645\u064a": 5088, "\u2581\u0645\u062f\u0631\u0633\u0629": 5089, "\u2581\u0645\u0635\u0631": 5090, "\u2581\u0642\u0627\u0646\u0648\u0646": 5091, "\u2581\u0635\u0627\u0644\u062d": 5092, "lichen": 5093, "\u0627\u062a\u0647\u0645": 5094, "\u2581unternehmen": 5095, "cH": 5096, "\u2581\u0623\u0635\u0644": 5097, "\u062a\u0634\u0627\u0631\u0644\u064a": 5098, "\u2581leiden": 5099, "\u2581dauern": 5100, "\u2581\u0627\u0633\u062a\u062e\u062f\u0645": 5101, "\u2581gef\u00fchrt": 5102, "\u2581entlang": 5103, "\u2581selber": 5104, "\u2581\u062c\u0647\u0648\u062f": 5105, "\u0625\u0630\u0646": 5106, "\u200d": 5107, "\u00fcn": 5108, "\u2581\u0641\u0633\u0648\u0641": 5109, "\u2581sicherzustellen": 5110, "\u2581\u0623\u0645\u0631\u064a\u0643\u0627": 5111, "\u2581\u0633\u0648\u0621": 5112, "\u2581Richtige": 5113, "\u2581\u0633\u0644\u0627\u0645": 5114, "it\u00e4t": 5115, "\u0648\u0646\u0647\u0627": 5116, "lichkeit": 5117, "\u2581Halten": 5118, "\u2581\u064a\u0633\u062a\u062e\u062f\u0645": 5119, "\u2581Mai": 5120, "\u2581\u0645\u0630\u0647\u0644": 5121, "ak": 5122, "\u0623\u0644\u064a\u0633": 5123, "\u2581\u062e\u0627\u0637\u0626": 5124, "\u2581vertraut": 5125, "\u2581\u064a\u0634\u0628\u0647": 5126, "\u2581\u0648\u062c\u0647\u064a": 5127, "\u2581\u0637\u0631\u064a\u0642\u064a": 5128, "fahren": 5129, "Ein": 5130, "\u2581Steuer": 5131, "\u2581l\u00f6sen": 5132, "\u2581\u0628\u062d\u064a\u062b": 5133, "lin": 5134, "\u2581\u062c\u0627\u0645\u0639\u0629": 5135, "\u2581\u0645\u062f\u0629": 5136, "\u0628\u0627\u0631\u0643": 5137, "\u2581Lieblings": 5138, "\u2581Parteien": 5139, "\u2581ergibt": 5140, "\u2581\u0627\u0644\u0645\u062d\u0644\u064a\u0629": 5141, "\u2581\u0642\u0631\u0628": 5142, "\u2581Ba": 5143, "\u2581\u0641\u0625\u0646\u0647": 5144, "\u2581\u0639\u0645\u0644\u0627": 5145, "\u0631\u0648\u0632": 5146, "\u2581gesund": 5147, "\u2581einander": 5148, "\u2581Einheit": 5149, "\u2581\u0623\u0636\u0639": 5150, "\u0637\u0631": 5151, "\u2581\u0627\u0644\u0639\u0634\u0631\u064a\u0646": 5152, "\u2581Letzte": 5153, "\u2581London": 5154, "\u2581\u062a\u0645\u0631": 5155, "\u2581\u0635\u062f": 5156, "\u2581verbringen": 5157, "\u2581\u0623\u0646\u0627\u0633": 5158, "\u2581\u0627\u0644\u062a\u062d\u0643\u0645": 5159, "\u2581Hatte": 5160, "\u0644\u0627\u0645": 5161, "\u2581\u0627\u062a\u0635\u0627\u0644": 5162, "\u0630\u0631": 5163, "\u2581\u0642\u0644\u064a\u0644\u0629": 5164, "\u2581\u00fcberpr\u00fcfen": 5165, "\u2581\u0623\u0633": 5166, "\u2581\u062f\u0639": 5167, "\u0631\u0627\u0641": 5168, "\u2581\u062d\u0627\u0645\u0644": 5169, "\u0642\u0636\u064a": 5170, "\u2581H\u00f6he": 5171, "\u2581Jimmy": 5172, "\u2581Vorstellung": 5173, "\u2581Klingt": 5174, "\u2581\u0627\u0644\u0642\u0645\u0631": 5175, "\u2581\u0636\u0631\u0648\u0631\u0629": 5176, "\u2581Gr\u00f6\u00dfe": 5177, "\u2581links": 5178, "\u2581Beziehungen": 5179, "\u2581Yeah": 5180, "j": 5181, "\u258110.": 5182, "\u2581Schulden": 5183, "\u2581erschossen": 5184, "\u2581fahre": 5185, "\u2581Neues": 5186, "\u2581Gruppen": 5187, "\u2581sch\u00f6nen": 5188, "\u2581\u0632\u0627\u0644\u062a": 5189, "\u2581\u064a\u062a\u0631\u0643": 5190, "\u2581wette": 5191, "\u2581\u0623\u062d\u0633\u0646\u062a": 5192, "\u2581\u0642\u0627\u0639\u062f\u0629": 5193, "\u2581\u0644\u0631\u0628\u0645\u0627": 5194, "\u2581\u0633\u0631\u064a\u0639": 5195, "\u2581tolle": 5196, "\u2581\u0637\u0627\u0626\u0631\u0629": 5197, "\u2581verfolgen": 5198, "\u2581gebaut": 5199, "\u2581\u0642\u0648\u0644\u0647": 5200, "\u2581Danny": 5201, "\u2581\u062f\u0639\u064a\u0646\u0627": 5202, "\u2581\u0645\u0639\u0643\u0645": 5203, "\u2581stehe": 5204, "\u2581\u063a\u064a": 5205, "\u2581Todes": 5206, "\u2581Dan": 5207, "\u2581bleibe": 5208, "\u2581\u062a\u0635\u062f\u0642": 5209, "\u2581\u0641\u0643\u0631": 5210, "\u2581Colonel": 5211, "\u2581Presse": 5212, "\u2581\u0627\u064a\u0629": 5213, "\u064a\u0646\u063a": 5214, "\u2581ange": 5215, "\u2581Fisch": 5216, "\u2581Markt": 5217, "\u2581\u0648\u0644\u0647\u0630\u0627": 5218, "\u0634\u0627\u0647\u062f": 5219, "\u2581Friedens": 5220, "\u2581f\u00e4hrt": 5221, "vor": 5222, "\u2581\u0627\u0644\u062a\u062f\u0627\u0628\u064a\u0631": 5223, "\u2581\u0648\u0642\u0639\u062a": 5224, "\u064a\u0644\u0629": 5225, "\u2581h\u00fcbsch": 5226, "\u062c\u0629": 5227, "\u2581h\u00e4ngt": 5228, "\u258127": 5229, "li": 5230, "\u062f\u0631\u064a": 5231, "\u2581w\u00fcsste": 5232, "\u2581Au\u00dfer": 5233, "\u2581\u062a\u062f\u0639\u0648": 5234, "\u2581\u0642\u0631": 5235, "ium": 5236, "\u2581\u062d\u0631\u0643\u0629": 5237, "\u2581au\u00dferhalb": 5238, "\u064a\u0628\u062f\u0648": 5239, "\u2581geschlossen": 5240, "\u2581Regel": 5241, "\u2581San": 5242, "\u2581\u0627\u062a\u0631\u0643": 5243, "\u2581\u0645\u0627\u0631\u064a": 5244, "\u2581Weihnachten": 5245, "\u2581\u062a\u062f\u0631\u0643": 5246, "\u2581\u062e\u0630\u064a": 5247, "\u2581Kr\u00e4fte": 5248, "\u2581\u0633\u0623\u062e\u0628\u0631\u0643": 5249, "\u2581Rachel": 5250, "\u2581liebst": 5251, "\u2581\u0648\u0631\u063a\u0645": 5252, "\u2581Ergebnisse": 5253, "\u2581\u0628\u0623\u0645\u0627\u0646": 5254, "\u2581\u062d\u0627\u0644\u0627\u062a": 5255, "\u2581eingeladen": 5256, "\u2581Kurz": 5257, "\u2581verwendet": 5258, "\u2581bewegt": 5259, "\u2581\u0623\u0639\u0638\u0645": 5260, "\u2581\u0628\u0642\u064a\u062a": 5261, "by": 5262, "\u2581\u0627\u0644\u0634\u0631\u0642": 5263, "\u2581\u064a\u062f\u062e\u0644": 5264, "\u0631\u0627\u0631": 5265, "\u2581\u0631\u0623\u0633\u064a": 5266, "\u2581\u0643\u0644\u0627\u0645": 5267, "\u2581\u0641\u062d\u0635": 5268, "\u0634\u0643\u0631": 5269, "\u0642\u0648\u0627": 5270, "\u2581\u0648\u0633": 5271, "\u2581\u062c\u0631\u0649": 5272, "\u2581verdienen": 5273, "\u2581\u062a\u062e\u0628\u0631": 5274, "\u2581\u062a\u0639\u0644": 5275, "\u2581\u0628\u0636\u0639": 5276, "\u2581\u0627\u0644\u0645\u0631\u0636": 5277, "\u2581Lust": 5278, "\u2581Strom": 5279, "\u2581\u0627\u0644\u0627\u0646\u0633\u0627\u0646": 5280, "\u258180": 5281, "\u2581traf": 5282, "wa": 5283, "\u2581Hilf": 5284, "\u2581\u0627\u0644\u062d\u0644": 5285, "\u0634\u0639\u0631": 5286, "\u2581\u0623\u0631\u062f": 5287, "\u0648\u0631\u064a": 5288, "\u2581Adam": 5289, "\u2581\u0628\u0634\u0631": 5290, "\u2581Ehrlich": 5291, "\u2581HERRN": 5292, "\u2581\u0623\u062a\u0631\u0643": 5293, "\u2581\u062a\u062e\u064a\u0644": 5294, "innerst": 5295, "\u2581\u062a\u0645\u0632\u062d": 5296, "\u2581\u0645\u062d\u0642\u0629": 5297, "\u2581brauchte": 5298, "\u0639\u0631\u0641": 5299, "\u2581Claire": 5300, "\u2581\u062d\u062f\u0648\u062b": 5301, "\u2581\u0645\u0627\u0621": 5302, "laden": 5303, "\u2581Bezug": 5304, "\u2581halb": 5305, "\u2581\u062a\u0633\u0623\u0644": 5306, "\u0633\u0644": 5307, "\u2581\u0625\u0633\u0631\u0627\u0626\u064a\u0644": 5308, "\u2581\u0633\u0647\u0644": 5309, "\u2581\u0646\u0623\u062e\u0630": 5310, "\u064a\u0627\u0621": 5311, "\u2581Runter": 5312, "\u0627\u0644\u0643": 5313, "\u2581hie\u00df": 5314, "\u2581Zweck": 5315, "\u2581\u0623\u062a\u0631\u0649": 5316, "\u0627\u062e": 5317, "\u2581Text": 5318, "\u2581\u0628\u0627\u0644\u0645\u0646\u0627\u0633\u0628\u0629": 5319, "\u2581\u062d\u0633": 5320, "\u2581\u0648\u0625\u0644\u0649": 5321, "\u2581\u064a\u0634\u064a\u0631": 5322, "\u2581Bein": 5323, "\u2581\u0623\u0631\u0627\u0647\u0646": 5324, "\u2581Date": 5325, "\u2581\u0642\u0627\u0628\u0644\u062a": 5326, "\u062e\u0635": 5327, "\u2581\u062a\u062d\u0648\u0644": 5328, "\u2581Rom": 5329, "\u2581letztes": 5330, "\u0643\u0627\u0644": 5331, "\u2581Leichen": 5332, "gehen": 5333, "\u2581\u0627\u0644\u0642\u0627\u0639\u062f\u0629": 5334, "\u2581\u0627\u0644\u0645\u062d\u0642\u0642": 5335, "\u2581Ryan": 5336, "\u0634\u064a\u0631": 5337, "go": 5338, "\u2581\u062d\u062c\u0645": 5339, "\u2581\u0644\u0644\u0642\u064a\u0627\u0645": 5340, "\u2581\u0633\u0628\u0639\u0629": 5341, "\u2581\u0627\u0644\u0628\u062d\u0631\u064a\u0629": 5342, "\u2581\u062a\u062b\u0642": 5343, "\u2581Loch": 5344, "fi": 5345, "25": 5346, "\u2581gegessen": 5347, "\u2581\u0623\u0646\u0641\u0633\u0647\u0645": 5348, "\u0628\u0627\u0643": 5349, "\u2581Systems": 5350, "\u2581fiel": 5351, "\u2581\u064a\u0636\u0639": 5352, "\u2581\u062a\u0635\u0631\u0641": 5353, "ant": 5354, "ek": 5355, "\u2581\u0623\u0642\u062f\u0645": 5356, "\u2581\u0637\u064a\u0644\u0629": 5357, "\u2581of": 5358, "\u2581versuchte": 5359, "\u2581\u0623\u0642\u0648\u0644\u0647": 5360, "\u2581\u0627\u0644\u062c\u0645\u064a\u0644": 5361, "\u2581erlaubt": 5362, "\u2581September": 5363, "\u0628\u0627\u0628": 5364, "\u2581Gang": 5365, "\u2581\u0627\u062d\u0636\u0631": 5366, "\u2581\u0627\u0644\u0645\u0641\u062a\u0627\u062d": 5367, "\u0635\u0628\u062d": 5368, "\u2581Lord": 5369, "\u2581\u062a\u0628\u0642\u064a": 5370, "erweise": 5371, "\u2581\u0648\u0627\u0644\u0627\u0646": 5372, "\u2581\u0623\u0643": 5373, "\u2581\u0623\u0646\u0632\u0644": 5374, "\u2581\u0645\u062b\u0644\u0645\u0627": 5375, "\u2581Wege": 5376, "\u2581\u0627\u0644\u0639\u0644\u0627\u062c": 5377, "\u2581gemeint": 5378, "\u2581Schuhe": 5379, "\u2581stellte": 5380, "\u0635\u062f\u0642": 5381, "pi": 5382, "\u2581\u0631\u0648": 5383, "\u2581\u0627\u0642\u0644": 5384, "\u0642\u0627\u062a\u0644": 5385, "\u2581\u0628\u0627\u062a": 5386, "\u2581\u062a\u062c\u0631\u064a": 5387, "uch": 5388, "\u2581W\u00fcrden": 5389, "\u2581\u062a\u0645\u0627\u0646\u0639": 5390, "\u0642\u0627\u0645": 5391, "\u2581Dorf": 5392, "\u2581\u0627\u0644\u0641\u0627\u0626\u062f\u0629": 5393, "\u2581\u0639\u0627\u0626\u0644\u062a\u0643": 5394, "\u062d\u062a\u0627\u062c": 5395, "\u2581Haufen": 5396, "\u2581Zustand": 5397, "\u258111.": 5398, "\u2581\u0623\u062e\u062a\u064a": 5399, "\u2581\u0645\u0641\u062a\u0627\u062d": 5400, "\u0631\u0648": 5401, "\u2581Clark": 5402, "\u2581interessant": 5403, "dem": 5404, "\u2581magst": 5405, "\u2581\u0628\u0627\u0644\u0646": 5406, "\u2581\u0627\u0633\u062a\u064a\u0642\u0638": 5407, "\u0649\u0621": 5408, "\u2581Erinnerung": 5409, "\u2581\u0645\u0648\u0627\u0641\u0642": 5410, "\u2581Witze": 5411, "\u0623\u0639\u0631\u0641": 5412, "\u0643\u0631\u0627": 5413, "\u2581\u0631\u0641\u0636": 5414, "\u2581\u064a\u0630\u0643\u0631": 5415, "\u2581erschaffen": 5416, "\u2581\u0643\u0627\u0641\u064a\u0629": 5417, "staatlichen": 5418, "\u2581Maschine": 5419, "\u2581\u0627\u0644\u0642\u0628\u064a\u0644": 5420, "\u2581\u062a\u0639": 5421, "\u2581\u062a\u062a\u0628\u0639": 5422, "\u0640\u0640\u0640\u0640": 5423, "\u2581wundersch\u00f6n": 5424, "\u2581\u0627\u0644\u0643\u062a\u0628": 5425, "\u2581\u062a\u0648\u0641\u064a\u0631": 5426, "\u0644\u0627\u0646\u062f": 5427, "\u2581Drink": 5428, "\u2581h\u00f6rst": 5429, "\u0641\u0644": 5430, "\u2581erster": 5431, "\u2581gewusst": 5432, "\u2581schau": 5433, "\u2581\u062e\u0637\u0648\u0629": 5434, "\u2581ebenso": 5435, "\u2581rund": 5436, "\u2581\u063a\u0627\u0636\u0628": 5437, "\u2581Po": 5438, "\u2581\u0627\u0644\u0642\u062f\u0645": 5439, "\u0644\u0623\u0646": 5440, "\u2581\u0623\u063a\u0644\u0642": 5441, "\u2581Krebs": 5442, "\u2581\u0642\u062a\u0644\u0647": 5443, "\u2581Dean": 5444, "\u2581\u0627\u0644\u0623\u0644\u0645": 5445, "\u2581\u0648\u0627\u0636\u062d\u0629": 5446, "\u2581k\u00fcmmert": 5447, "\u2581verwenden": 5448, "\u062d\u0635": 5449, "\u2581\u0627\u0644\u0648\u0644\u062f": 5450, "\u2581Meinst": 5451, "\u2581betrunken": 5452, "if": 5453, "\u2581\u0627\u0644\u0643\u0648": 5454, "\u2581\u0625\u0644\u064a\u0647\u0645": 5455, "\u00fcber": 5456, "\u2581Folge": 5457, "\u2581\u0631\u0623\u0649": 5458, "\u2581\u0627\u0644\u0639\u0645": 5459, "\u0631\u0636": 5460, "\u2581\u0627\u0644\u062e\u0627\u0645\u0633\u0629": 5461, "\u2581gr\u00f6\u00dften": 5462, "\u2581\u0633\u062c\u0646": 5463, "\u2581\u062c\u0645\u064a\u0639\u0646\u0627": 5464, "\u2581wovon": 5465, "\u2581\u0645\u0648\u0627\u062c\u0647\u0629": 5466, "\u2581\u0627\u062c\u062a\u0645\u0627\u0639": 5467, "\u2581\u0627\u0644\u0645\u0648\u0642\u0641": 5468, "\u2581Gl\u00fcckwunsch": 5469, "\u2581\u0627\u0644\u0633\u0644\u0627\u0645\u0629": 5470, "\u2581\u062a\u0648\u0645": 5471, "\u0631\u0634": 5472, "\u2581gespielt": 5473, "\u0626\u0629": 5474, "\u2581entgegen": 5475, "\u2581verlangt": 5476, "\u2581\u0627\u0644\u063a\u062f\u0627\u0621": 5477, "\u2581\u0645\u0646\u0632\u0644\u0643": 5478, "\u064a\u062a\u0643": 5479, "\u2581geschlagen": 5480, "\u2581\u0627\u0644\u0637\u0628\u064a\u0639\u064a\u0629": 5481, "\u2581\u062e\u0628\u0631": 5482, "\u2581\u0628\u0633\u064a\u0637\u0629": 5483, "\u2581\u0633\u0623\u062a\u0635\u0644": 5484, "\u2581Empfehlungen": 5485, "\u2581\u062a\u062a\u0645": 5486, "gekommen": 5487, "\u2581\u0628\u0648\u062c\u0648\u062f": 5488, "werk": 5489, "\u2581\u062a\u0623\u0643\u0644": 5490, "\u2581\u0643\u0641": 5491, "\u0639\u0642\u062f": 5492, "\u0647\u0646\u0631\u064a": 5493, "\u2581\u0633\u0627\u0639\u062f\u0646\u064a": 5494, "\u062d\u062a\u0649": 5495, "\u2581Geschichten": 5496, "\u2581danken": 5497, "\u2581\u0627\u0644\u0641\u0642\u0631": 5498, "\u2581voraus": 5499, "\u2581Mond": 5500, "\u2581Not": 5501, "\u2581Staats": 5502, "\u2581geplant": 5503, "\u2581\u0627\u0644\u0645\u062c\u0627\u0644": 5504, "\u0641\u0643\u0631": 5505, "\u2581Werk": 5506, "\u2581\u0644\u0642": 5507, "\u0627\u0628\u0629": 5508, "\u2581\u0644\u0643\u0649": 5509, "\u2581bewaffnet": 5510, "\u2581\u0623\u062c\u0644\u064a": 5511, "\u2581\u0627\u0644\u0645\u0648\u0627\u062f": 5512, "\u0635\u064a\u0628": 5513, "\u2581Pa": 5514, "\u2581\u0623\u0645\u0646": 5515, "\u2581\u062c\u0644\u0628\u062a": 5516, "\u2581\u0648\u0635\u0644\u0646\u0627": 5517, "\u2581Schaden": 5518, "\u2581\u0633\u0623\u0642\u0648\u0644": 5519, "\u2581\u0633\u062a\u0630\u0647\u0628": 5520, "\u2581\u0627\u0644\u0623\u0645\u0631\u064a\u0643\u064a\u0629": 5521, "\u2581\u0627\u0644\u0631\u062d\u064a\u0644": 5522, "\u2581\u062a\u0642\u0648\u0644\u064a\u0646": 5523, "\u2581\u0623\u0642\u0648\u0649": 5524, "\u2581\u0627\u0644\u0622\u0646\u0633\u0629": 5525, "ierte": 5526, "\u2581Van": 5527, "\u2581Vogel": 5528, "\u2581\u0648\u0643\u0645\u0627": 5529, "isten": 5530, "\u0628\u0648\u0631": 5531, "\u2581\u0643\u0648\u0644": 5532, "\u2581L\u00fcge": 5533, "\u2581\u0627\u0644\u0644\u062d\u0645": 5534, "\u2581\u0648\u0628\u0627\u0644": 5535, "\u00e4r": 5536, "\u2581zuf\u00e4llig": 5537, "\u2581\u062a\u062f\u0627\u0628\u064a\u0631": 5538, "\u2581\u062a\u0638\u0646\u064a\u0646": 5539, "\u2581\u0628\u0637\u0627\u0642\u0629": 5540, "\u2581\u0622\u062a\u064a": 5541, "\u062a\u0639\u0644\u0645": 5542, "\u0639\u0631": 5543, "\u2581Mannes": 5544, "\u2581eigenes": 5545, "\u2581Vergn\u00fcgen": 5546, "\u2581\u0627\u0644\u0636\u063a\u0637": 5547, "ina": 5548, "\u2581Osten": 5549, "\u2581\u062a\u0631\u0627\u062c\u0639": 5550, "\u062f\u0627\u0646\u064a": 5551, "\u2581manche": 5552, "\u2581\u0623\u0628\u062f\u0648": 5553, "\u2581\u064a\u0641\u0639\u0644\u0648\u0646": 5554, "\u2581behandeln": 5555, "\u2581\u00fcbel": 5556, "ziehen": 5557, "\u0641\u0627\u0642": 5558, "\u2581\u0627\u0644\u062a\u0642\u0631\u064a\u0631": 5559, "\u2581Kon": 5560, "\u2581bieten": 5561, "\u2581Dazu": 5562, "\u2581Wohl": 5563, "\u2581Zieh": 5564, "\u0642\u0644\u062a": 5565, "\u2581Garten": 5566, "\u2581\u0645\u0634\u0627\u0639\u0631": 5567, "\u2581nachgedacht": 5568, "\u2581\u0623\u0635\u062f\u0642\u0627\u0626\u064a": 5569, "\u0627\u062f\u064a": 5570, "\u2581\u0644\u0644\u0645\u0633\u0627\u0639\u062f\u0629": 5571, "gleich": 5572, "\u2581setzt": 5573, "\u2581wahren": 5574, "\u2581Kleid": 5575, "\u062f\u0627\u062f": 5576, "\u2581leer": 5577, "\u2581\u0648\u062c\u0647\u0629": 5578, "\u2581\u062a\u062d\u064a\u0637": 5579, "\u2581Bleiben": 5580, "\u2581\u0644\u0644\u0630\u0647\u0627\u0628": 5581, "\u2581\u0639\u0631\u0641": 5582, "\u2581\u062a\u0643\u0630\u0628": 5583, "\u2581Kugel": 5584, "\u2581\u0634\u062e\u0635\u064a\u0627": 5585, "\u2581\u0623\u062f\u0646\u0649": 5586, "\u2581\u0643\u0648\u0646": 5587, "\u2581\u0645\u0633\u062a\u0639\u062f\u0629": 5588, "tisch": 5589, "()": 5590, "ub": 5591, "\u2581Rache": 5592, "\u2581Erste": 5593, "\u2581Regen": 5594, "\u2581f\u00fchlst": 5595, "\u2581\u0634\u0628\u0643\u0629": 5596, "\u2581\u0627\u0644\u0639\u0644\u0645": 5597, "\u2581f\u00fchrte": 5598, "\u2581lie\u00dfen": 5599, "\u2581\u00c4hm": 5600, "\u2581\u064a\u0628\u062f\u0648\u0627": 5601, "nd": 5602, "ine": 5603, "\u2581nationalen": 5604, "\u0628\u0643": 5605, "mit": 5606, "\u2581helfe": 5607, "\u2581sp": 5608, "\u2581brechen": 5609, "\u2581Ihres": 5610, "\u2581\u0636\u0648\u0621": 5611, "\u2581\u0642\u0635\u064a\u0631\u0629": 5612, "\u2581\u0645\u0633\u062a": 5613, "\u2581reich": 5614, "\u2581\u0641\u0633\u064a": 5615, "\u2581November": 5616, "\u2581\u0623\u062f\u0631\u0643": 5617, "\u2581\u0627\u0641\u062a\u062d": 5618, "\u2581Lager": 5619, "\u2581\u0623\u0639\u064a\u0634": 5620, "\u2581\u0633\u0641\u064a\u0646\u0629": 5621, "\u2581geschah": 5622, "\u0627\u0626\u0647\u0645": 5623, "\u2581Leider": 5624, "\u2581\u062a\u0642\u0639": 5625, "\u2581\u0644\u0627\u0646\u0647": 5626, "\u2581Bombe": 5627, "\u2581Strafe": 5628, "\u2581Siehe": 5629, "\u2581Westen": 5630, "\u2581besorgen": 5631, "\u2581welches": 5632, "\u2581\u0642\u062f\u0631\u0629": 5633, "\u2581lebendig": 5634, "\u2581\u0627\u0644\u0645\u0641\u0636\u0644": 5635, "\u2581Wesen": 5636, "\u2581handeln": 5637, "\u2581\u0628\u0642\u062a\u0644": 5638, "\u2581\u0625\u0631\u0633\u0627\u0644": 5639, "\u2581\u0628\u0649": 5640, "\u2581unterhalten": 5641, "\u2581\u0627\u0644\u0631\u0642\u0635": 5642, "\u2581\u0645\u0627\u064a\u0643": 5643, "\u062b\u0631": 5644, "\u2581\u0627\u0644\u0623\u0632\u0645\u0629": 5645, "\u2581\u0645\u062c\u0646\u0648\u0646\u0629": 5646, "\u2581Bereit": 5647, "\u2581Neuigkeiten": 5648, "\u2581\u0627\u0644\u0643\u0628\u0631\u0649": 5649, "\u0635\u0627\u0631": 5650, "\u2581\u0627\u0644\u0642\u0648\u0627\u062a": 5651, "\u0644\u0642": 5652, "\u2581einzigen": 5653, "\u2581\u0627\u0644\u0633\u0647\u0644": 5654, "\u2581\u0642\u062f\u064a\u0645": 5655, "\u2581\u0639\u0627\u0645\u0644": 5656, "\u2581K\u00fcche": 5657, "\u2581\u0623\u062e\u0628\u0631\u064a\u0646\u064a": 5658, "\u2581\u0633\u0645": 5659, "\u2581\u064a\u0628\u062d\u062b": 5660, "\u2581\u0641\u062a\u064a\u0627\u062a": 5661, "\u2581\u0641\u0646": 5662, "\u2581\u0646\u0627\u062f\u064a": 5663, "\u2581welchem": 5664, "\u2581\u0627\u0644\u0645\u0634\u0631\u0648\u0639": 5665, "X": 5666, "\u2581unterschiedlich": 5667, "\u2581\u063a\u062f": 5668, "\u2581Republik": 5669, "\u2581\u0630\u0643\u064a": 5670, "ku": 5671, "\u2581\u0627\u0644\u0641\u0646\u062f\u0642": 5672, "\u2581Maria": 5673, "\u2581\u0627\u0644\u0643\u0648\u0646": 5674, "\u258126": 5675, "\u2581\u0627\u0644\u0627\u0633": 5676, "\u2581reichen": 5677, "\u2581\u062a\u0631\u062d\u0628": 5678, "\u2581Schwanz": 5679, "\u2581\u0623\u062a\u0648\u0642\u0639": 5680, "\u2581Stopp": 5681, "\u2581bat": 5682, "\u2581hasst": 5683, "hm": 5684, "\u2581feiern": 5685, "\u2581\u0627\u0639": 5686, "bo": 5687, "\u0639\u0644\u064a\u0643": 5688, "\u2581Kleiner": 5689, "\u0641\u0627\u0644": 5690, "\u2581\u062a\u062d\u0633\u064a\u0646": 5691, "\u2581Ms": 5692, "\u2581Paar": 5693, "\u2581Beine": 5694, "\u2581Sp": 5695, "\u064a\u0627\u0646": 5696, "\u2581Zeitung": 5697, "\u258135": 5698, "\u2581\u0627\u0644\u0645\u0633": 5699, "\u2581\u062e\u0637\u0637": 5700, "\u2581Einfluss": 5701, "\u2581woher": 5702, "\u2581\u0634\u062e\u0635\u064a": 5703, "\u2581\u0644\u0644\u062c\u0645\u064a\u0639": 5704, "\u2581Hoch": 5705, "\u2581\u0627\u0644\u062a\u0644\u0641\u0627\u0632": 5706, "\u258122.": 5707, "\u2581\u0645\u0639\u062c\u0628": 5708, "\u2581Sport": 5709, "\u2581\u0623\u0633\u0623\u0644\u0643": 5710, "\u2581\u0627\u0644\u0623\u0628\u062f": 5711, "\u2581\u0627\u0644\u0633\u0643\u0627\u0646": 5712, "\u2581\u0627\u0644\u0633\u0627\u062f\u0629": 5713, "\u2581Charles": 5714, "\u2581l\u00e4cherlich": 5715, "\u2581\u0627\u0631\u062a\u0641\u0627\u0639": 5716, "machen": 5717, "ck": 5718, "\u2581\u0628\u0644\u062f\u064a": 5719, "\u2581\u064a\u062a\u0648\u0642\u0641": 5720, "\u2581\u0627\u0648\u0644\u0627": 5721, "\u2581Ton": 5722, "\u2581lebe": 5723, "plan": 5724, "\u2581\u0627\u0644\u0643\u0631\u0629": 5725, "dienst": 5726, "\u2581verschiedene": 5727, "\u2581zufrieden": 5728, "\u2581bittet": 5729, "\u2581\u0627\u0644\u0633\u0627\u062f\u0633\u0629": 5730, "\u2581\u0627\u0644\u0634\u0643\u0644": 5731, "\u2581\u0646\u0633\u0628\u0629": 5732, "\u2581irgendwelche": 5733, "\u2581ver\u00e4ndern": 5734, "\u2581\u0625\u0635\u0644\u0627\u062d": 5735, "\u2581\u0628\u0642\u064a": 5736, "\u2581Wirtschaft": 5737, "\u2581\u00e4hnlich": 5738, "\u2581Schwestern": 5739, "\u2581\u0634\u0627\u0631\u0639": 5740, "\u2581%1": 5741, "\u2581\u062a\u0639\u0631\u0641\u064a": 5742, "\u2581Ecke": 5743, "\u2581tanzen": 5744, "\u2581\u0639\u0644\u0627\u0645\u0629": 5745, "\u2581\u064a\u0639\u0645\u0644\u0648\u0646": 5746, "\u0631\u0627\u0628": 5747, "\u0631\u062c\u0644": 5748, "\u2581\u0641\u0639\u0644\u062a\u0647\u0627": 5749, "\u2581\u0645\u0633\u0628\u0642\u0627": 5750, "\u0631\u0627\u0643": 5751, "\u2581\u0642\u0631\u0627\u0631\u0647\u0627": 5752, "\u2581\u064a\u0646\u0638\u0631": 5753, "\u2581\u00e4hm": 5754, "wie": 5755, "\u2581Dingen": 5756, "\u2581\u0627\u0644\u0646\u0627\u0641\u0630\u0629": 5757, "\u2581trotz": 5758, "\u2581Amerikaner": 5759, "\u2581\u0635\u0641\u0642\u0629": 5760, "\u2581herein": 5761, "\u2581\u0627\u0639\u0646\u064a": 5762, "\u2581\u0645\u0631\u062a\u064a\u0646": 5763, "\u0632\u0639": 5764, "\u2581Liebes": 5765, "\u2581\u0628\u0623\u0646\u0647\u0645": 5766, "\u2581kriege": 5767, "\u2581\u0627\u0646\u062a\u0647\u062a": 5768, "\u2581\u0643\u0648": 5769, "\u062b\u064a\u0631": 5770, "\u2581Zur": 5771, "\u2581\u0625\u0633\u0645": 5772, "\u2581\u0627\u0633\u0645\u0647\u0627": 5773, "\u2581\u0628\u0642\u0648\u0629": 5774, "eln": 5775, "\u0633\u0627\u0631": 5776, "\u2581\u062d\u0628\u064a\u0628\u064a": 5777, "\u2581Ohren": 5778, "\u2581\u0623\u0641\u062a\u0631\u0636": 5779, "\u2581\u0644\u062a\u0644\u0643": 5780, "\u2581Russland": 5781, "\u2581ruf": 5782, "\u2581\u0623\u0647\u0645": 5783, "\u2581unterst\u00fctzt": 5784, "\u2581\u0627\u0644\u0628\u0631\u064a\u062f": 5785, "ru": 5786, "\u2581\u0625\u062b\u0646\u0627\u0646": 5787, "\u2581\u0627\u0644\u0627\u0648\u0644\u0649": 5788, "\u2581\u064a\u062f\u0639\u0648": 5789, "\u2581Keller": 5790, "\u2581Verpflichtungen": 5791, "\u2581h\u00e4ngen": 5792, "\u2581\u0634\u0631\u064a\u0643": 5793, "ll": 5794, "\u0641\u0646": 5795, "\u258148": 5796, "\u2581Sollen": 5797, "\u2581\u0646\u0627\u0631": 5798, "lu": 5799, "\u2581\u0627\u0644\u0642\u0627\u0636\u064a": 5800, "\u2581\u062a\u0639\u0627\u0646\u064a": 5801, "\u2581erz\u00e4hlte": 5802, "\u2581\u0648\u0635\u0648\u0644": 5803, "\u2581entwickelt": 5804, "\u2581\u0662\u0663": 5805, "\u0637\u064a\u0631": 5806, "\u2581)!": 5807, "\u062c\u064a\u0645": 5808, "\u2581\u0627\u0644\u0635\u064a\u0641": 5809, "\u00e4h": 5810, "\u2581\u0646\u0633\u062e\u0629": 5811, "\u2581\u0645\u0627\u064a\u0631\u0627\u0645": 5812, "\u0642\u0627": 5813, "\u2581Nenn": 5814, "\u2581April": 5815, "\u2581\u0627\u0644\u0645\u062c\u0645\u0648\u0639\u0629": 5816, "\u2581\u0648\u0627\u0644\u0646": 5817, "\u0628\u0627\u0633": 5818, "\u2581\u062d\u0627\u0644\u0645\u0627": 5819, "\u2581geschieht": 5820, "\u2581unbe": 5821, "\u2581\u0642\u0627\u0645\u0648\u0627": 5822, "\u2581abzu": 5823, "\u2581\u0641\u0646\u062d\u0646": 5824, "\u2581\u0627\u0644\u0643\u0631": 5825, "\u2581Sand": 5826, "\u2581mu\u00df": 5827, "\u2581\u064a\u0638\u0646": 5828, "tion": 5829, "\u2581Kommission": 5830, "\u2581Go": 5831, "\u2581\u0627\u0644\u062c\u0632\u064a\u0631\u0629": 5832, "\u0642\u062f\u0645": 5833, "\u2581Pferd": 5834, "\u2581Pl\u00e4ne": 5835, "\u0637\u0641": 5836, "\u2581\u0628\u0639\u0636\u0627": 5837, "\u2581kriegst": 5838, "\u2581\u0628\u064a\u062f": 5839, "\u2581Kunden": 5840, "\u2581Lee": 5841, "\u2581freue": 5842, "\u2581\u062a\u0648\u0642\u0641\u062a": 5843, "\u2581\u0627\u0644\u0631\u0648\u062d": 5844, "\u2581Brauch": 5845, "\u2581\u0623\u0633\u0627\u0633": 5846, "\u2581mindestens": 5847, "\u2581B\u00fcrger": 5848, "\u2581Daher": 5849, "\u2581auszu": 5850, "\u2581hervor": 5851, "\u2581\u0627\u0644\u0648\u062c\u0647": 5852, "\u2581\u062a\u0642\u0641": 5853, "\u2581\u0631\u0641\u0639": 5854, "\u2581\u0628\u0639\u062f\u0645\u0627": 5855, "\u2581\u0639\u0630\u0627\u0628": 5856, "11": 5857, "\u0631\u0627\u0642\u0628": 5858, "\u2581Hut": 5859, "\u2581mitten": 5860, "\u0627\u0631\u062f": 5861, "\u0633\u0649": 5862, "\u2581Ar": 5863, "\u2581\u0627\u062c\u0644\u0633": 5864, "\u2581Schauen": 5865, "\u2581Schmerzen": 5866, "\u2581\u0627\u0633\u062a\u0645\u0631": 5867, "\u2581\u062a\u0642\u062f\u064a\u0631": 5868, "\u2581Alkohol": 5869, "\u2581\u0627\u0644\u0641\u064a\u062f\u0631\u0627\u0644\u064a": 5870, "\u2581Frankreich": 5871, "\u258131": 5872, "\u2581gleichzeitig": 5873, "\u2581Besser": 5874, "legen": 5875, "\u2581vorne": 5876, "\u2581\u062b\u0642": 5877, "\u2581\u0634\u0645\u0627\u0644": 5878, "\u2581\u0641\u0634\u0644": 5879, "\u0626\u062a": 5880, "\u0633\u062e": 5881, "\u2581\u062a\u0642\u0648\u0644\u0647": 5882, "\u2581\u062e\u062f\u0645\u0627\u062a": 5883, "\u2581\u0627\u0630\u0647\u0628\u064a": 5884, "\u062a\u0644\u0643": 5885, "\u064a\u0631\u0629": 5886, "\u2581Wahnsinn": 5887, "\u2581\u0627\u0644\u062a\u062d\u0642\u064a\u0642": 5888, "\u2581\u0643\u0627\u0641": 5889, "ki": 5890, "\u2581Sch\u00e4tzchen": 5891, "\u2581\u0623\u062a\u0631\u064a\u062f\u064a\u0646": 5892, "\u2581\u064a\u062a\u0639\u064a\u0646": 5893, "\u2581gesamten": 5894, "\u2581\u0622\u062e\u0631\u064a\u0646": 5895, "\u2581Club": 5896, "\u2581Kultur": 5897, "\u2581\u062e\u0631\u062c": 5898, "\u2581Farbe": 5899, "\u2581\u0627\u0644\u0637\u0631\u0642": 5900, "\u2581\u062b\u0645\u0627\u0646\u064a\u0629": 5901, "\u2581freuen": 5902, "\u2581\u0627\u0644\u0633\u064a\u0627\u0633\u0627\u062a": 5903, "\u2581\u0627\u0644\u0628\u064a\u0636": 5904, "\u2581Ne": 5905, "\u2581k\u00fcmmere": 5906, "\u2581Untersuchung": 5907, "\u2581betrifft": 5908, "\u2581ruft": 5909, "\u2581\u0648\u063a\u064a\u0631\u0647\u0627": 5910, "\u2581Emily": 5911, "\u0623\u0628\u064a": 5912, "\u2581komplett": 5913, "\u2581\u0645\u0631\u062d\u0644\u0629": 5914, "\u2581Louis": 5915, "\u062d\u0645": 5916, "\u2581dorthin": 5917, "\u2581\u0627\u0644\u0634\u0631\u0627\u0628": 5918, "\u2581Gas": 5919, "\u2581\u062a\u0639\u0631\u0641\u0648\u0646": 5920, "\u0648\u0636": 5921, "\u2581\u0641\u0635\u0644": 5922, "\u2581\u0646\u0632\u0639": 5923, "\u2581Wozu": 5924, "\u2581Vi": 5925, "\u2581\u0627\u0644\u0633\u062d\u0631": 5926, "\u2581\u0627\u0644\u0638\u0631\u0648\u0641": 5927, "\u0633\u062a\u0648\u0646": 5928, "\u2581\u063a\u0636\u0648\u0646": 5929, "\u2581\u0645\u0634": 5930, "\u2581Stand": 5931, "\u2581\u0627\u0628\u0642": 5932, "\u2581\u062c\u064a\u0634": 5933, "\u2581Handels": 5934, "\u2581The": 5935, "\u25aa": 5936, "\u2581Wartet": 5937, "\u2581Einstellung": 5938, "\u2581\u062d\u0635\u0644\u0646\u0627": 5939, "\u2581\u064a\u0642\u0644": 5940, "\u2581\u062a\u0631\u064a\u062f\u0646\u064a": 5941, "\u2581\u062a\u0642\u0648\u0644\u064a": 5942, "\u2581\u0627\u0644\u0627\u062a\u0641\u0627\u0642\u064a\u0629": 5943, "\u2581Pause": 5944, "\u2581Wieder": 5945, "\u2581ergreifen": 5946, "\u2581Waren": 5947, "\u2581\u0644\u0627\u062d\u0638\u062a": 5948, "\u2581\u0645\u0645\u0627\u0631\u0633\u0629": 5949, "\u0641\u0633": 5950, "\u2581Bringen": 5951, "\u2581\u062c\u062f\u064a": 5952, "\u2581Neu": 5953, "\u2581\u0623\u0644\u0646": 5954, "\u2581Wissenschaftler": 5955, "\u2581\u0627\u0644\u062a\u062f\u0631\u064a\u0628": 5956, "\u2581Versprechen": 5957, "\u0633\u064a\u0644": 5958, "\u2581\u0627\u0644\u062c\u0644\u0648\u0633": 5959, "va": 5960, "\u2581entwickeln": 5961, "\u2581vergeben": 5962, "\u2581bleibst": 5963, "\u2581Umwelt": 5964, "\u2581\u0628\u0633\u0647\u0648\u0644\u0629": 5965, "\u2581\u0623\u062a\u0638\u0646": 5966, "\u2581Grenzen": 5967, "\u2581Taxi": 5968, "\u2581sowohl": 5969, "\u2581keinem": 5970, "\u2581\u0622\u0628": 5971, "\u2581\u0627\u0644\u062d\u0641\u0644\u0629": 5972, "\u2581\u0636\u063a\u0637": 5973, "\u0623\u0646\u0647": 5974, "\u2581\u0625\u0633\u0645\u0639": 5975, "\u2581entkommen": 5976, "\u2581\u00d6ffentlichkeit": 5977, "\u2581\u0623\u0631\u0627\u0647": 5978, "\u2581\u062d\u0627\u062f\u062b": 5979, "\u2581\u0648\u0627\u0642\u0639": 5980, "\u2581\u0633\u0643\u0627\u0646": 5981, "\u2581Blumen": 5982, "\u2581Schatten": 5983, "\u2581Tommy": 5984, "\u2581\u0645\u062f\u064a\u0646": 5985, "ale": 5986, "\u0643\u0644\u0627\u0631\u0643": 5987, "\u2581Anna": 5988, "\u2581\u0641\u0631\u0646\u0633\u0627": 5989, "\u2581\u064a\u0642\u0648\u062f": 5990, "40": 5991, "\u2581Aufgaben": 5992, "\u2581\u0645\u064a\u062a\u0629": 5993, "\u062f\u0639\u0648": 5994, "\u2581mehrere": 5995, "\u2581gewartet": 5996, "\u2581\u0628\u0627\u0644\u0642\u0631\u0628": 5997, "\u2581\u0645\u0634\u063a\u0648\u0644": 5998, "\u2581\u0628\u0631\u0648": 5999, "In": 6000, "\u2581Beim": 6001, "\u2581\u0627\u0644\u062a\u0648\u0642\u0641": 6002, "\u2581\u0627\u0644\u0645\u0642\u062f\u0633\u0629": 6003, "\u2581\u062a\u0648\u0627\u062c\u0647": 6004, "\u2581Walter": 6005, "gegangen": 6006, "\u2581Fr\u00fchst\u00fcck": 6007, "\u2581\u064a\u0639\u062a\u0628\u0631": 6008, "\u2581\u0641\u0631\u062f": 6009, "\u2581ALLAH": 6010, "\u2581Don": 6011, "\u2581\u0627\u0644\u0631\u0627\u0628\u0639": 6012, "\u2581\u064a\u0639\u062a\u0645\u062f": 6013, "\u2581\u064a\u0645\u0631": 6014, "\u0632\u064a\u0646": 6015, "\u2581Allerdings": 6016, "\u2581Kate": 6017, "\u2581\u064a\u0642\u0648\u0645\u0648\u0646": 6018, "\u2581F\u00fchrung": 6019, "\u2581\u202c": 6020, "\u0641\u0635\u0644": 6021, "\u2581\u0627\u0644\u0625\u0639\u0644\u0627\u0645": 6022, "\u2581Gegen": 6023, "\u2581Knochen": 6024, "\u2581\u00f6ffentlichen": 6025, "\u2581Armut": 6026, "\u2581\u062a\u0645\u0648\u0632": 6027, "\u2581\u063a\u0627\u064a\u0629": 6028, "\u2581Anlage": 6029, "\u2581Ted": 6030, "\u2581\u0627\u0631\u0636": 6031, "\u2581\u0639\u0627\u062f\u062a": 6032, "\u2581\u0645\u0635\u0627\u0628": 6033, "\u0631\u0648\u0641": 6034, "\u2581\u0627\u0644\u0634\u0627\u062d\u0646\u0629": 6035, "\u2581\u0628\u0648\u0633\u0639\u0643": 6036, "sche": 6037, "\u2581\u0635\u062f\u064a\u0642\u0629": 6038, "\u062c\u0632": 6039, "\u2581\u0623\u0639\u0648\u0627\u0645": 6040, "\u2581\u0627\u0644\u0623\u0633\u0648\u062f": 6041, "\u2581entf\u00fchrt": 6042, "\u2581ha": 6043, "\u2581\u0627\u0644\u0646\u0641\u0633": 6044, "\u2581\u0627\u0644\u0646\u0647\u0631": 6045, "\u2581\u0627\u0644\u0637\u0628\u064a\u0639\u064a": 6046, "leben": 6047, "\u2581Worten": 6048, "\u2581\u0628\u0645\u062b\u0627\u0628\u0629": 6049, "\u2581\u062a\u0639\u0631\u0641\u0647": 6050, "\u0631\u064a\u062d": 6051, "\u2581\u0628\u0625\u0645\u0643\u0627\u0646\u0646\u0627": 6052, "\u2581\u062c\u0627\u0647\u0632\u0629": 6053, "\u2581Stell": 6054, "\u2581\u0627\u0644\u0648\u062d\u062f\u0629": 6055, "\u2581gezogen": 6056, "\u2581wirkt": 6057, "\u2581\u0623\u0633\u0626\u0644\u0629": 6058, "\u2581\u0645\u062c\u0631": 6059, "\u2581Gebet": 6060, "\u2581\u062a\u062a\u062d\u062f\u062b\u064a\u0646": 6061, "\u2581\u0637\u0631\u064a\u0642\u0647": 6062, "\u2581\u0623\u064a\u0645\u0643\u0646\u0646\u064a": 6063, "\u2581\u0627\u0644\u0628\u0646\u0648\u0643": 6064, "\u2581gebraucht": 6065, "\u062a\u0631\u064a": 6066, "\u2581Ideen": 6067, "\u2581\u0625\u064a\u0642\u0627\u0641": 6068, "\u2581\u0627\u0644\u0645\u0646\u0638\u0645\u0627\u062a": 6069, "tag": 6070, "\u062a\u0648\u0631": 6071, "\u0641\u0647": 6072, "\u2581\u0647\u0627\u0645": 6073, "\u2581machten": 6074, "\u0644\u064a\u0648": 6075, "\u2581\u0645\u0632\u0645\u0648\u0631": 6076, "\u062f\u0639": 6077, "\u2581\u0627\u0644\u064a\u0627\u0628\u0627\u0646": 6078, "\u2581\u0627\u0644\u0642\u0636\u0627\u0621": 6079, "\u0627\u0641\u0629": 6080, "\u2581Bullen": 6081, "\u2581Tsch\u00fcss": 6082, "\u2581\u0628\u0646\u0643": 6083, "\u2581\u062a\u062f\u0631\u064a\u0628": 6084, "\u2581Ed": 6085, "\u2581konzentrieren": 6086, "\u2581\u0633\u0627\u0631": 6087, "\u2581\u0627\u0644\u0631\u0627\u0628\u0639\u0629": 6088, "\u2581w": 6089, "\u2581\u0631\u0627\u064a": 6090, "\u2581\u0627\u0644\u0627\u0634\u062e\u0627\u0635": 6091, "\u0635\u062f": 6092, "we": 6093, "\u2581\u062a\u0634\u0639\u0631\u064a\u0646": 6094, "schlag": 6095, "\u2581\u0627\u0644\u0635\u062f\u062f": 6096, "\u2581Robert": 6097, "sp": 6098, "\u2581\u0627\u0644\u063a\u0631\u0628": 6099, "\u2581\u0623\u0641\u0631\u0627\u062f": 6100, "\u2581\u0627\u0644\u0631\u062d\u0644\u0629": 6101, "\u2581\u0627\u0644\u0641\u064a\u062f\u064a\u0648": 6102, "\u2581\u0627\u0644\u0644\u0639\u0646\u0647": 6103, "\u0645\u0627\u0643": 6104, "\u258170": 6105, "\u2581\u062a\u062c\u0631\u0628\u0629": 6106, "\u2581\u0631\u0623\u0633\u0647": 6107, "\u2581Gleich": 6108, "\u0639\u0627\u062f": 6109, "\u2581Werden": 6110, "\u2581\u0646\u0645\u0644\u0643": 6111, "\u00e4ng": 6112, "\u2581\u0622\u062b\u0627\u0631": 6113, "\u2581\u0623\u0645\u0648\u0627\u0644": 6114, "\u2581\u0627\u0644\u062f\u0631\u062c\u0629": 6115, "\u2581Zauber": 6116, "\u258129": 6117, "\u2581\u0627\u0631\u0649": 6118, "\u2581\u0622\u0644\u0629": 6119, "\u2581\u0646\u0639\u064a\u0634": 6120, "ba": 6121, "\u2581Arme": 6122, "\u2581\u0623\u0628\u0642\u0649": 6123, "\u2581\u0625\u0644\u0647": 6124, "\u2581\u0648\u0627\u0644\u0625": 6125, "\u2581\u0648\u0635\u0641": 6126, "\u2581Medizin": 6127, "\u2581Mitte": 6128, "\u2581\u0628\u0639\u064a\u062f\u0629": 6129, "\u2581\u0631\u0628\u0627\u0647": 6130, "\u2581\u0642\u0644\u0628\u0643": 6131, "\u2581B\u00fcrgermeister": 6132, "\u2581Hinsicht": 6133, "\u2581herauszufinden": 6134, "\u2581nachdenken": 6135, "\u2581\u0628\u0645\u0646": 6136, "\u2581\u0645\u0627\u064a\u0643\u0644": 6137, "Wie": 6138, "\u062c\u0639\u0644": 6139, "\u2581Jedes": 6140, "\u2581\u0627\u0644\u0646\u0635": 6141, "\u2581\u0645\u0633\u0627\u0639\u062f\u062a\u064a": 6142, "\u2581\u0627\u0644\u062c\u0644\u0633\u0629": 6143, "\u064a\u062a\u0647\u0627": 6144, "ER": 6145, "\u2581\u062f\u0627\u0639\u064a": 6146, "\u2581\u0627\u0644\u0639\u0631\u0627\u0642": 6147, "\u2581\u0641\u0646\u062f\u0642": 6148, "\u0623\u0644\u0627": 6149, "\u2581\u0637\u0631\u0641": 6150, "\u0628\u0627\u0639": 6151, "\u2581furchtbar": 6152, "\u0642\u0633\u0645": 6153, "\u258114.": 6154, "\u2581\u0635\u0639\u0628\u0629": 6155, "\u0622\u0633\u0641": 6156, "\u0641\u0648\u0631\u062f": 6157, "\u2581\u0645\u0635": 6158, "igt": 6159, "\u2581entweder": 6160, "\u2581\u062a\u0624\u062f\u064a": 6161, "\u2581Ausschuss": 6162, "\u2581\u0627\u0644\u0645\u0639": 6163, "\u2581Fernsehen": 6164, "\u2581\u0642\u062f\u0645\u0627": 6165, "\u2581\u0628\u0627\u0644\u0631\u063a\u0645": 6166, "\u2581\u0643\u0634\u0641": 6167, "\u2581\u0627\u0644\u062b\u0644\u062c": 6168, "\u2581\u0625\u0633": 6169, "\u2581\u0644\u0637\u064a\u0641\u0627": 6170, "\u2581\u0645\u064a\u062a\u0627": 6171, "\u2581\u0623\u0634\u0643\u0627\u0644": 6172, "\u2581\u0628\u0646\u0641\u0633\u0647": 6173, "\u2581\u0623\u0642\u062f\u0631": 6174, "bringen": 6175, "\u2581No": 6176, "ord": 6177, "\u2581f\u00fchlte": 6178, "\u2581\u0639\u064a\u0646": 6179, "\u2581bemerkt": 6180, "\u2581\u0641\u0631\u0636": 6181, "\u2581\u0623\u0635\u062d\u0627\u0628": 6182, "\u2581\u062a\u0639\u064a\u062f": 6183, "\u2581\u062a\u0641\u0639\u0644\u064a\u0646\u0647": 6184, "\u2581\u0643\u0630\u0628\u062a": 6185, "\u062c\u0627\u0644": 6186, "\u2581blieb": 6187, "\u2581vollst\u00e4ndig": 6188, "\u2581\u0641\u0625\u0630\u0627": 6189, "\u2581versteht": 6190, "\u2581\u0625\u0634\u0627\u0631\u0629": 6191, "\u062c\u0644\u0633": 6192, "\u2581\u0627\u0644\u062b": 6193, "\u2581spreche": 6194, "\u2581\u062a\u0639\u0644\u0645\u062a": 6195, "\u2581Karten": 6196, "\u2581Sogar": 6197, "\u2581Vertrag": 6198, "\u2581angegriffen": 6199, "\u2581\u0627\u0644\u0639\u062f\u062f": 6200, "\u2581\u0644\u0644\u0628\u064a\u062a": 6201, "\u2581\u0633\u0631\u0642\u0629": 6202, "\u2581\u0627\u0644\u0623\u0648\u0644\u0627\u062f": 6203, "\u25811999": 6204, "\u2581\u064a\u0644\u0632\u0645": 6205, "\u2581\u064a\u0646\u062a\u0638\u0631": 6206, "tes": 6207, "\u2581erf\u00fcllt": 6208, "\u2581verbessern": 6209, "\u2581\u0625\u064a\u0627\u0647": 6210, "\u2581gesetzt": 6211, "\u2581i": 6212, "\u2581seht": 6213, "\u2581\u0630\u0643\u0631\u062a": 6214, "\u2581\u0641\u0627\u0626\u062f\u0629": 6215, "au": 6216, "\u2581\u0627\u0644\u0633\u064a\u0631": 6217, "\u2581\u0627\u0644\u0645\u0631\u0643\u0632": 6218, "\u2581\u062a\u062f\u0645\u064a\u0631": 6219, "\u2581\u0637\u0641\u0644\u0627": 6220, "\u2581\u064a\u0646\u062c\u062d": 6221, "\u0627\u0644\u0628": 6222, "\u0651\u064d": 6223, "\u2581\u0641\u0631\u0642": 6224, "\u2581\u062a\u0648\u0627\u0635\u0644": 6225, "sh": 6226, "\u2581\u0642\u0627\u0626\u0644\u0627": 6227, "\u2581\u0648\u0639\u062f\u062a": 6228, "\u0627\u0626\u0631": 6229, "\u2581willkommen": 6230, "\u2581\u0627\u0628\u0646\u0643": 6231, "\u063a\u0646": 6232, "\u2581=": 6233, "\u2581\u0645\u0647\u062a\u0645": 6234, "\u2581\u0627\u0643\u0628\u0631": 6235, "\u2581\u062a\u0642\u0648\u062f": 6236, "\u2581\u0627\u0644\u062d\u0627\u0644\u064a\u0629": 6237, "\u2581\u062a\u0637\u0644\u0642": 6238, "\u2581\u064a\u0643": 6239, "\u2581\u0627\u0643\u0646": 6240, "\u2581\u062f\u0627\u0646": 6241, "\u2581\u0648\u0627\u0644\u0639": 6242, "\u2581Geheimnisse": 6243, "\u2581Lu": 6244, "\u2581\u062a\u0641\u0633\u064a\u0631": 6245, "arbeit": 6246, "\u0648\u062c": 6247, "\u2581\u0627\u062d\u062f\u0649": 6248, "\u2581Vampir": 6249, "\u2581\u0644\u0644\u0639": 6250, "ick": 6251, "\u2581\u062a\u062d\u0636\u0631": 6252, "\u2581Mitglieder": 6253, "\u2581nimmst": 6254, "\u2581\u0623\u0645\u0633\u0643": 6255, "\u2581\u062d\u0644\u0645": 6256, "\u2581Code": 6257, "\u062c\u064a\u0628": 6258, "\u2581seh": 6259, "\u2581\u0628\u062d\u062b": 6260, "\u2581\u0627\u0644\u062e\u0637\u0628": 6261, "\u2581Grab": 6262, "\u2581Red": 6263, "\u2581M\u00f6chtest": 6264, "\u2581einge": 6265, "\u2581\u0627\u0644\u0631\u0623\u0633": 6266, "\u2581\u0623\u0637\u0648\u0644": 6267, "weise": 6268, "\u2581\u0639\u064a\u0646\u064a\u0643": 6269, "\u2581Se": 6270, "\u2581Technologie": 6271, "\u2581Ad": 6272, "\u2581\u0628\u0627\u0644\u0643": 6273, "\u2581\u064a\u0633\u062a": 6274, "\u2581Zahlen": 6275, "\\": 6276, "\u2581Grundlage": 6277, "\u2581\u0627\u0646\u0646\u0649": 6278, "\u062a\u0634\u064a": 6279, "\u0643\u0634\u0641": 6280, "\u2581Kapitel": 6281, "\u2581aufgrund": 6282, "\u0631\u0646\u0627": 6283, "\u2581\u0648\u0644\u064a": 6284, "ere": 6285, "\u2581\u0631\u0633\u0627\u0626\u0644": 6286, "\u062a\u062d\u062f\u062b": 6287, "\u2581\u0627\u0644\u0645\u0624\u062a\u0645\u0631": 6288, "\u2581\u0623\u0639\u0637": 6289, "\u2581\u0627\u0644\u0630": 6290, "\u2581\u0625\u0645": 6291, "(190,230)}": 6292, "\u0628\u062f\u0623": 6293, "\u2581\u0644\u0645\u0639\u0631\u0641\u0629": 6294, "\u2581\u0627\u0633\u062a\u0639\u0645\u0627\u0644": 6295, "\u2581Bildung": 6296, "\u2581\u0623\u062d": 6297, "\u2581\u0634\u0627\u0647\u062f\u062a": 6298, "\u064a\u0646\u0646\u064a": 6299, "\u2581\u0627\u0644\u0645\u0631\u0641\u0642": 6300, "\u062c\u0631\u064a": 6301, "\u2581\u0628\u0648": 6302, "\u2581\u062a\u062d\u062a\u0627\u062c\u064a\u0646": 6303, "\u2581\u062a\u0631\u062f": 6304, "\u2581\u0645\u0627\u0647\u064a": 6305, "ang": 6306, "\u2581\u0645\u0633\u0627\u0631": 6307, "\u2581\u062f\u0631\u0633": 6308, "\u0665": 6309, "\u2581Bedrohung": 6310, "\u2581\u0627\u0644\u0642\u0637\u0627\u0639": 6311, "\u2581\u0627\u0644\u0645\u0631\u0643\u0632\u064a\u0629": 6312, "\u2581\u0633\u0641\u0631": 6313, "\u2581Richard": 6314, "\u2581\u0627\u0644\u0631\u0633\u0645\u064a\u0629": 6315, "\u063a\u0627": 6316, "\u2581verursacht": 6317, "\u2581\u0628\u0634\u0623\u0646\u0647": 6318, "\u2581\u0631\u0623\u064a": 6319, "\u2581\u0646\u0641\u0639\u0644\u0647": 6320, "\u2581treten": 6321, "\u2581\u0643\u0641\u0627\u064a\u0629": 6322, "\u2581\u0627\u0644\u0633\u0639\u0627\u062f\u0629": 6323, "\u2581Feinde": 6324, "\u2581\u0627\u0644\u0647\u062c\u0648\u0645": 6325, "ball": 6326, "\u2581EU": 6327, ".1": 6328, "\u2581Rose": 6329, "\u2581kontrollieren": 6330, "\u2581\u0627\u0644\u0643\u0648\u0643\u0628": 6331, "\u2581\u062a\u0633\u0628\u0628": 6332, "test": 6333, "\u2581konntest": 6334, "\u0633\u0648\u0631": 6335, "\u2581\u0628\u0627\u064a": 6336, "\u2581\u0628\u064a\u0627\u0646\u0627\u062a": 6337, "\u2581\u0648\u0643\u0623\u0646\u0647": 6338, "\u2581melden": 6339, "\u2581\u0641\u0648": 6340, "\u2581\u064a\u062a\u0648\u062c\u0628": 6341, "\u0643\u0648\u0644": 6342, "\u0648\u0642\u0641": 6343, "\u0642\u064a\u0645": 6344, "\u0637\u0627\u0642": 6345, "\u2581Selbstmord": 6346, "\u2581gibst": 6347, "\u2581\u0627\u0635\u0628\u062d": 6348, "\u2581\u0641\u0631\u0635": 6349, "\u2581\u0623\u062a\u0639\u062a\u0642\u062f": 6350, "\u2581\u0648\u064a\u0644": 6351, "\u0628\u0642": 6352, "\u2581\u0627\u0644\u0646\u0627\u062a\u062c": 6353, "\u2581\u062a\u0643\u0644\u0645": 6354, "\u2581Martin": 6355, "\u2581\u0627\u0644\u0641\u0648\u0636\u0649": 6356, "\u2581\u0642\u0648\u0627\u062a": 6357, "\u0627\u0646\u0647\u0627": 6358, "\u2581eindeutig": 6359, "\u2581\u0627\u0628\u062d\u062b": 6360, "\u2581Milch": 6361, "\u2581hinterlassen": 6362, "\u2581\u0639\u062f\u0648": 6363, "\u2581\u0623\u062a\u0639\u0631\u0641\u064a\u0646": 6364, "\u2581\u0625\u0632\u0627\u0621": 6365, "\u2581\u0627\u0644\u0642\u0633\u0645": 6366, "\u2581\u0645\u0639\u0631\u0648\u0641": 6367, "\u2581\u0627\u0644\u0623\u062d\u0645\u0631": 6368, "\u258130.": 6369, "\u2581\u0633\u064a\u0623\u062a\u064a": 6370, "\u2581stelle": 6371, "\u2581\u0637\u0627\u0628": 6372, "\u2581\u0645\u0639\u062f\u0644": 6373, "\u062a\u0648": 6374, "\u2581\u0627\u0644\u064a\u0647\u0648\u062f": 6375, "\u0639\u0648\u0646": 6376, "\u2581Karriere": 6377, "\u2581Lily": 6378, "\u2581\u0627\u0644\u062e\u0627\u0631\u062c\u064a\u0629": 6379, "\u2581beobachten": 6380, "\u2581selten": 6381, "\u0639\u0648\u062f": 6382, "\u2581Fick": 6383, "\u2581z\u00e4hlt": 6384, "za": 6385, "\u2581\u062a\u062d\u062f": 6386, "\u2581\u062a\u0633\u062a\u0645\u0631": 6387, "\u2581\u062d\u0645\u0644": 6388, "\u2581gelaufen": 6389, "\u2581\u0627\u0633\u062a\u0639\u062f\u0627\u062f": 6390, "\u2581Zuerst": 6391, "\u2581l\u00fcgen": 6392, "\u2581\u0627\u0644\u0642\u0645\u0629": 6393, "\u0637\u0644\u0628": 6394, "\u2581Akte": 6395, "\u2581Deutschland": 6396, "\u2581\u0627\u062d\u062a\u0631\u0627\u0645": 6397, "\u2581\u0627\u0644\u064a\u0645\u064a\u0646": 6398, "\u2581\u0643\u0623\u0646": 6399, "\u0631\u0627\u062f": 6400, "\u2581welchen": 6401, "\u0630\u0644": 6402, "\u2581Handel": 6403, "\u2581zog": 6404, "\u2581\u0627\u0644\u0645\u0633\u062a\u062f\u0627\u0645\u0629": 6405, "\u0631\u064a\u0628": 6406, "\u2581Stich": 6407, "\u2581\u0627\u0644\u0645\u062e": 6408, "gang": 6409, "\u2581schlechter": 6410, "lassen": 6411, "\u2581Aussage": 6412, "\u2581entdeckt": 6413, "haft": 6414, "\u2581F\u00e4higkeiten": 6415, "\u2581\u0627\u0644\u062c\u0647\u0627\u0632": 6416, "\u2581\u0627\u0644\u0646\u0641\u0637": 6417, "\u2581\u0644\u0648\u0646": 6418, "St": 6419, "\u2581Bobby": 6420, "\u2581L\u00fcgen": 6421, "\u2581\u0627\u0644\u0622": 6422, "\u2581irre": 6423, "\u2581Brust": 6424, "rat": 6425, "\u2581\u0623\u0642\u062a\u0644": 6426, "\u2581Grenze": 6427, "\u2581\u062a\u062d\u0648\u064a\u0644": 6428, "\u2581\u0633\u062a\u0642\u0648\u0645": 6429, "\u064a\u0647\u0645": 6430, "\u0631\u0646\u064a": 6431, "\u2581\u0627\u0644\u0633\u0631\u064a\u0639": 6432, "\u2581\u062a\u0637\u0628\u064a\u0642": 6433, "\u2581\u0627\u0633\u062a\u0645\u0639": 6434, "\u2581\u0642\u062f\u064a\u0645\u0629": 6435, "\u2581\u0647\u0627\u064a": 6436, "vi": 6437, "\u2581\u0623\u0631\u064a": 6438, "\u2581\u0644\u0644\u062d\u0638\u0629": 6439, "\u2581\u0648\u0627\u0644\u062a\u0646\u0645\u064a\u0629": 6440, "\u2581\u064a\u0648\u0645\u064a\u0646": 6441, "14": 6442, "\u0623\u062e\u0630": 6443, "\u0645\u0648\u062a": 6444, "\u2581\u0627\u0644\u0633\u0641\u0631": 6445, "\u2581\u0627\u0644\u0639\u0644\u0627\u0642\u0629": 6446, "\u2581\u0627\u0644\u0641\u0631\u0642": 6447, "\u2581\u0633\u0631\u0642": 6448, "\u0631\u0627\u0646": 6449, "\u2581\u0644\u0644\u062e\u0631\u0648\u062c": 6450, "\u2581\u0627\u0644\u0645\u0646\u0627\u0633\u0628\u0629": 6451, "\u2581Notfall": 6452, "\u2581\u00fcberlebt": 6453, "\u2581\u0644\u0646\u0631\u0649": 6454, "ging": 6455, "\u2581mitnehmen": 6456, "berg": 6457, "\u0642\u0628\u0636": 6458, "\u2581\u0627\u0644\u0639\u0644\u0627\u0642\u0627\u062a": 6459, "system": 6460, "\u2581\u0623\u0645\u064a\u0631\u0643\u0627": 6461, "\u2581?": 6462, "\u2581\u0639\u0627\u0644\u064a\u0629": 6463, "\u2581\u062c\u0645\u0627\u0639\u0629": 6464, "\u2581City": 6465, "\u2581England": 6466, "\u2581fassen": 6467, "\u0643\u064a\u062a": 6468, "\u2581\u0623\u0633\u0627\u0639\u062f\u0643": 6469, "\u2581Krise": 6470, "\u2581Lieutenant": 6471, "\u2581\u0645\u0631\u0648\u0631": 6472, "ts": 6473, "\u2581gefahren": 6474, "\u2581K\u00f6nnten": 6475, "\u2581Wisst": 6476, "\u2581\u0623\u0630\u0643\u0631": 6477, "\u2581\u0627\u0644\u0628\u0648": 6478, "\u2581Autos": 6479, "\u2581\u0627\u0644\u0639\u0642\u062f": 6480, "\u2581\u0648\u0627\u0644\u062f\u062a\u064a": 6481, "\u0628\u062d\u062b": 6482, "\u2581Sal": 6483, "\u2581\u0627\u0644\u062c\u062f": 6484, "\u2581\u062a\u0645\u0648\u064a\u0644": 6485, "\u2581M\u00fcll": 6486, "\u2581\u0628\u0631\u062c": 6487, "\u2581\u062a\u062d\u0628\u064a\u0646": 6488, "\u2581\u0645\u0643\u0627\u0646\u0647": 6489, "\u2581\u0627\u0644\u0646\u0647\u0627\u0631": 6490, "ni": 6491, "\u2581Juden": 6492, "\u2581brauch": 6493, "\u2581\u0627\u0644\u0645\u0639\u0631\u0641\u0629": 6494, "\u2581\u0645\u062d\u0637\u0629": 6495, "\u2581Uh": 6496, "\u0639\u062a\u0628\u0631": 6497, "\u2581Wa": 6498, "\u2581\u0627\u0644\u0623\u0647\u062f\u0627\u0641": 6499, "\u2581\u064a\u0631\u063a\u0628": 6500, "\u2581kennenzulernen": 6501, "\u2581\u0644\u0644\u0647\u0648\u0644": 6502, "\u2581Verfahren": 6503, "\u2581\u0623\u0633\u0623\u0644": 6504, "\u2581Leo": 6505, "\u2581\u0627\u0644\u0625\u0633\u062a": 6506, "\u2581derjenige": 6507, "\u2581Schwein": 6508, "\u2581\u0627\u0644\u0627\u0648\u0644\u0627\u062f": 6509, "\u2581\u0634\u0631": 6510, "\u2581Fahren": 6511, "\u2581Sagt": 6512, "\u2581\u0627\u0644\u0645\u0633\u062f\u0633": 6513, "\u2581Su": 6514, "\u2581\u0648\u0627\u0644\u0645\u0646\u0638\u0645\u0627\u062a": 6515, "ment": 6516, "spiel": 6517, "\u2581\u0631\u062d\u0644\u062a": 6518, "rt": 6519, "\u062d\u064a\u0627": 6520, "\u2581\u0644\u0644\u0623\u0645\u0645": 6521, "\u0641\u062a\u062d": 6522, "\u2581\u0627\u0644\u062c\u064a\u062f\u0629": 6523, "\u0641\u0631\u064a": 6524, "\u2581\u0628\u0648\u0628": 6525, "\u0648\u0628\u0629": 6526, "\u2581\u0627\u0644\u0643\u0630\u0628": 6527, "\u2581\u0633\u0644\u0633\u0644\u0629": 6528, "\u2581\u0628\u0627\u0633\u062a\u062e\u062f\u0627\u0645": 6529, "\u0667": 6530, "\u2581Magie": 6531, "\u2581existiert": 6532, "\u2581\u0648\u0628\u0627\u0644\u062a\u0627\u0644\u064a": 6533, "\u2581\u0648\u0644\u0643\u0646\u0646\u0627": 6534, "\u2581jagen": 6535, "\u2581\u0627\u0644\u0645\u0646\u0638\u0645\u0629": 6536, "\u2581\u0644\u0646\u062f\u0646": 6537, "\u2581Scott": 6538, "\u2581Setzen": 6539, "ian": 6540, "\u2581\u0627\u0644\u0645\u0624\u0633\u0633\u0627\u062a": 6541, "\u2581\u0631\u062c": 6542, "\u258119.": 6543, "\u2581\u0627\u0644\u062f\u0648\u0631\u0629": 6544, "\u2581\u062f\u0641\u0639\u062a": 6545, "\u2581wohnt": 6546, "\u2581\u0639\u064a\u0646\u064a": 6547, "\u0627\u0626\u062f": 6548, "\u2581Jahres": 6549, "\u2581Tr\u00e4ume": 6550, "\u2581\u063a\u0627\u062f\u0631\u062a": 6551, "\u2581Schuss": 6552, "\u2581\u0648\u0627\u062d\u062f\u0647": 6553, "\u2581Ausbildung": 6554, "\u2581Fluss": 6555, "\u2581\u0627\u0644\u062c\u0646\u0629": 6556, "\u2581\u0634\u0631\u0641": 6557, "\u258118.": 6558, "\u2581Steh": 6559, "\u2581angesehen": 6560, "\u2581uh": 6561, "\u2581wunderbar": 6562, "/1": 6563, "\u0632\u0627\u0645": 6564, "\u258132": 6565, "\u2581Monsieur": 6566, "\u2581bekommst": 6567, "\u2581\u0627\u0644\u0637\u0628": 6568, "\u2581\u0642\u0635": 6569, "\u2581\u0646\u0648\u0631": 6570, "\u0643\u0631\u064a\u0633": 6571, "\u2581Arbeits": 6572, "min": 6573, "\u2581\u064a\u0633\u064a\u0631": 6574, "\u0636\u0631\u0628": 6575, "\u2581getrennt": 6576, "\u2581\u0627\u0644\u0645\u0644\u0627\u0632\u0645": 6577, "\u2581vorbereitet": 6578, "\u2581\u0633\u0623\u062d\u0636\u0631": 6579, "\u2581bleib": 6580, "\u2581kostet": 6581, "\u2581\u0639\u0645\u0631\u0647": 6582, "\u2581\u0633\u0645\u0639": 6583, "\u2581\u0642\u0627\u0644\u0647": 6584, "\u2581schafft": 6585, "\u2581\u0644\u0639\u0627\u0645": 6586, "ST": 6587, "\u2581Gift": 6588, "\u2581Start": 6589, "\u2581\u0627\u0644\u062d\u0642\u064a\u0631": 6590, "\u2581\u0630\u064a": 6591, "mer": 6592, "\u2581Verstehst": 6593, "\u2581m\u00f6glicherweise": 6594, "\u2581\u0642\u064a\u0627\u062f\u0629": 6595, "\u258116.": 6596, "\u2581Gern": 6597, "\u2581Gro\u00dfartig": 6598, "\u2581\u0627\u0644\u0633\u0645": 6599, "\u2581Wof\u00fcr": 6600, "stelle": 6601, "\u2581\u0627\u0644\u0623\u0633\u0641\u0644": 6602, "\u2581Absicht": 6603, "\u2581Irak": 6604, "\u2581Zufall": 6605, "\u2581h": 6606, "\u2581n\u00e4chstes": 6607, "\u2581\u0628\u0648\u0636\u0639": 6608, "\u0630\u0647\u0628": 6609, "\u2581schwach": 6610, "\u2581\u0627\u0644\u0648\u062d\u0634": 6611,
[...]
